{
  "version": "1.0",
  "truncation": null,
  "padding": {
    "strategy": {
      "Fixed": 100
    },
    "direction": "Right",
    "pad_to_multiple_of": null,
    "pad_id": 0,
    "pad_type_id": 0,
    "pad_token": "[PAD]"
  },
  "added_tokens": [
    {
      "id": 0,
      "content": "[PAD]",
      "single_word": false,
      "lstrip": false,
      "rstrip": false,
      "normalized": false,
      "special": true
    },
    {
      "id": 1,
      "content": "[UNK]",
      "single_word": false,
      "lstrip": false,
      "rstrip": false,
      "normalized": false,
      "special": true
    },
    {
      "id": 2,
      "content": "[CLS]",
      "single_word": false,
      "lstrip": false,
      "rstrip": false,
      "normalized": false,
      "special": true
    },
    {
      "id": 3,
      "content": "[SEP]",
      "single_word": false,
      "lstrip": false,
      "rstrip": false,
      "normalized": false,
      "special": true
    },
    {
      "id": 4,
      "content": "[MASK]",
      "single_word": false,
      "lstrip": false,
      "rstrip": false,
      "normalized": false,
      "special": true
    }
  ],
  "normalizer": null,
  "pre_tokenizer": {
    "type": "BertPreTokenizer"
  },
  "post_processor": {
    "type": "BertProcessing",
    "sep": [
      "[SEP]",
      3
    ],
    "cls": [
      "[CLS]",
      2
    ]
  },
  "decoder": {
    "type": "WordPiece",
    "prefix": "##",
    "cleanup": true
  },
  "model": {
    "type": "WordPiece",
    "unk_token": "[UNK]",
    "continuing_subword_prefix": "##",
    "max_input_chars_per_word": 100,
    "vocab": {
      "[PAD]": 0,
      "[UNK]": 1,
      "[CLS]": 2,
      "[SEP]": 3,
      "[MASK]": 4,
      "\"": 5,
      "$": 6,
      "%": 7,
      "&": 8,
      "'": 9,
      "(": 10,
      ")": 11,
      "*": 12,
      "+": 13,
      ",": 14,
      "-": 15,
      ".": 16,
      "/": 17,
      "0": 18,
      "1": 19,
      "2": 20,
      "3": 21,
      "4": 22,
      "5": 23,
      "6": 24,
      "7": 25,
      "8": 26,
      "9": 27,
      ":": 28,
      ";": 29,
      "<": 30,
      "=": 31,
      ">": 32,
      "?": 33,
      "A": 34,
      "B": 35,
      "C": 36,
      "D": 37,
      "E": 38,
      "F": 39,
      "G": 40,
      "H": 41,
      "I": 42,
      "J": 43,
      "K": 44,
      "L": 45,
      "M": 46,
      "N": 47,
      "O": 48,
      "P": 49,
      "Q": 50,
      "R": 51,
      "S": 52,
      "T": 53,
      "U": 54,
      "V": 55,
      "W": 56,
      "X": 57,
      "Y": 58,
      "Z": 59,
      "[": 60,
      "]": 61,
      "a": 62,
      "b": 63,
      "c": 64,
      "d": 65,
      "e": 66,
      "f": 67,
      "g": 68,
      "h": 69,
      "i": 70,
      "j": 71,
      "k": 72,
      "l": 73,
      "m": 74,
      "n": 75,
      "o": 76,
      "p": 77,
      "q": 78,
      "r": 79,
      "s": 80,
      "t": 81,
      "u": 82,
      "v": 83,
      "w": 84,
      "x": 85,
      "y": 86,
      "z": 87,
      "~": 88,
      "°": 89,
      "²": 90,
      "Å": 91,
      "É": 92,
      "à": 93,
      "á": 94,
      "ã": 95,
      "æ": 96,
      "è": 97,
      "é": 98,
      "í": 99,
      "î": 100,
      "ï": 101,
      "ñ": 102,
      "ó": 103,
      "ô": 104,
      "ö": 105,
      "ø": 106,
      "ú": 107,
      "ü": 108,
      "’": 109,
      "“": 110,
      "”": 111,
      "„": 112,
      "∙": 113,
      "●": 114,
      "##w": 115,
      "##e": 116,
      "##l": 117,
      "##f": 118,
      "##t": 119,
      "##h": 120,
      "##i": 121,
      "##r": 122,
      "##k": 123,
      "##s": 124,
      "##y": 125,
      "##m": 126,
      "##o": 127,
      "##n": 128,
      "##a": 129,
      "##b": 130,
      "##u": 131,
      "##c": 132,
      "##q": 133,
      "##d": 134,
      "##O": 135,
      "##p": 136,
      "##g": 137,
      "##H": 138,
      "##F": 139,
      "##z": 140,
      "##0": 141,
      "##I": 142,
      "##Z": 143,
      "##E": 144,
      "##v": 145,
      "##3": 146,
      "##N": 147,
      "##9": 148,
      "##2": 149,
      "##4": 150,
      "##S": 151,
      "##A": 152,
      "##T": 153,
      "##1": 154,
      "##x": 155,
      "##V": 156,
      "##L": 157,
      "##P": 158,
      "##G": 159,
      "##R": 160,
      "##C": 161,
      "##U": 162,
      "##6": 163,
      "##M": 164,
      "##Y": 165,
      "##5": 166,
      "##D": 167,
      "##á": 168,
      "##j": 169,
      "##8": 170,
      "##B": 171,
      "##°": 172,
      "##í": 173,
      "##7": 174,
      "##é": 175,
      "##X": 176,
      "##ö": 177,
      "##W": 178,
      "##J": 179,
      "##Q": 180,
      "##ü": 181,
      "##K": 182,
      "##ô": 183,
      "##ø": 184,
      "##²": 185,
      "##ï": 186,
      "##ó": 187,
      "##è": 188,
      "##î": 189,
      "##ã": 190,
      "##ú": 191,
      "##æ": 192,
      "##ñ": 193,
      "##he": 194,
      "##ti": 195,
      "##on": 196,
      "the": 197,
      "##er": 198,
      "##en": 199,
      "##es": 200,
      "of": 201,
      "##tion": 202,
      "##nd": 203,
      "##or": 204,
      "##ed": 205,
      "##in": 206,
      "##al": 207,
      "in": 208,
      "##at": 209,
      "##ation": 210,
      "and": 211,
      "##it": 212,
      "##ar": 213,
      "##an": 214,
      "##ro": 215,
      "##ic": 216,
      "##ent": 217,
      "##ec": 218,
      "to": 219,
      "##is": 220,
      "##ing": 221,
      "##el": 222,
      "##om": 223,
      "##re": 224,
      "##as": 225,
      "##ou": 226,
      "##ce": 227,
      "##ment": 228,
      "re": 229,
      "##ts": 230,
      "th": 231,
      "for": 232,
      "##le": 233,
      "##st": 234,
      "pro": 235,
      "##ol": 236,
      "19": 237,
      "##il": 238,
      "be": 239,
      "##ur": 240,
      "##ra": 241,
      "con": 242,
      "##ter": 243,
      "##ig": 244,
      "The": 245,
      "##ve": 246,
      "on": 247,
      "##te": 248,
      "##si": 249,
      "##op": 250,
      "##omm": 251,
      "##ir": 252,
      "##ri": 253,
      "##ul": 254,
      "de": 255,
      "##ad": 256,
      "##ations": 257,
      "##ci": 258,
      "##ith": 259,
      "##th": 260,
      "that": 261,
      "##pa": 262,
      "199": 263,
      "##ly": 264,
      "with": 265,
      "##se": 266,
      "as": 267,
      "##ch": 268,
      "or": 269,
      "##ver": 270,
      "##por": 271,
      "##em": 272,
      "by": 273,
      "##tin": 274,
      "##un": 275,
      "##ted": 276,
      "is": 277,
      "su": 278,
      "ex": 279,
      "##id": 280,
      "##tic": 281,
      "##her": 282,
      "##res": 283,
      "##ate": 284,
      "##ational": 285,
      "##vel": 286,
      "##ell": 287,
      "ac": 288,
      "al": 289,
      "##ge": 290,
      "res": 291,
      "par": 292,
      "##ity": 293,
      "##tu": 294,
      "##pace": 295,
      "##ab": 296,
      "##ting": 297,
      "are": 298,
      "##igh": 299,
      "was": 300,
      "##port": 301,
      "##ber": 302,
      "##for": 303,
      "##iti": 304,
      "wh": 305,
      "In": 306,
      "at": 307,
      "##pl": 308,
      "##os": 309,
      "an": 310,
      "##ac": 311,
      "per": 312,
      "##ow": 313,
      "im": 314,
      "cou": 315,
      "##um": 316,
      "##og": 317,
      "##uc": 318,
      "##tr": 319,
      "##ther": 320,
      "##ion": 321,
      "##im": 322,
      "##qu": 323,
      "##atell": 324,
      "##atellit": 325,
      "##fic": 326,
      "dis": 327,
      "Comm": 328,
      "##iz": 329,
      "##rom": 330,
      "##sion": 331,
      "##velop": 332,
      "##ain": 333,
      "##ld": 334,
      "##ated": 335,
      "Con": 336,
      "##ities": 337,
      "en": 338,
      "##ear": 339,
      "##and": 340,
      "##per": 341,
      "##ces": 342,
      "##od": 343,
      "from": 344,
      "##et": 345,
      "##gra": 346,
      "##itte": 347,
      "##rou": 348,
      "##ect": 349,
      "its": 350,
      "##ittee": 351,
      "develop": 352,
      "satellit": 353,
      "##ary": 354,
      "##form": 355,
      "##am": 356,
      "##ence": 357,
      "##ech": 358,
      "##erv": 359,
      "no": 360,
      "##ay": 361,
      "com": 362,
      "St": 363,
      "Committee": 364,
      "st": 365,
      "##ven": 366,
      "##end": 367,
      "##over": 368,
      "##ich": 369,
      "ad": 370,
      "##us": 371,
      "##omen": 372,
      "which": 373,
      "space": 374,
      "##tive": 375,
      "comm": 376,
      "rec": 377,
      "##ere": 378,
      "##echn": 379,
      "##duc": 380,
      "prov": 381,
      "reg": 382,
      "were": 383,
      "inter": 384,
      "##ud": 385,
      "##olog": 386,
      "ap": 387,
      "##our": 388,
      "report": 389,
      "##ave": 390,
      "been": 391,
      "##tri": 392,
      "me": 393,
      "##ak": 394,
      "##gram": 395,
      "inc": 396,
      "##ies": 397,
      "##ical": 398,
      "##ous": 399,
      "Un": 400,
      "##ff": 401,
      "##yst": 402,
      "##tiv": 403,
      "ob": 404,
      "##oc": 405,
      "##ystem": 406,
      "has": 407,
      "##ments": 408,
      "##ut": 409,
      "##ork": 410,
      "##ill": 411,
      "##ited": 412,
      "##ard": 413,
      "##so": 414,
      "coun": 415,
      "##ance": 416,
      "##min": 417,
      "##ata": 418,
      "##ew": 419,
      "##ple": 420,
      "techn": 421,
      "women": 422,
      "##sing": 423,
      "##gramm": 424,
      "##tions": 425,
      "le": 426,
      "##SA": 427,
      "##ould": 428,
      "had": 429,
      "have": 430,
      "la": 431,
      "##ember": 432,
      "##pec": 433,
      "##titu": 434,
      "inform": 435,
      "##ications": 436,
      "##cial": 437,
      "ar": 438,
      "pl": 439,
      "data": 440,
      "##ag": 441,
      "co": 442,
      "##ty": 443,
      "their": 444,
      "ag": 445,
      "cent": 446,
      "##national": 447,
      "system": 448,
      "sh": 449,
      "satellite": 450,
      "##age": 451,
      "##sed": 452,
      "##ial": 453,
      "##enti": 454,
      "##iv": 455,
      "##ep": 456,
      "rel": 457,
      "##ia": 458,
      "198": 459,
      "##ers": 460,
      "United": 461,
      "##stitu": 462,
      "##ust": 463,
      "##nder": 464,
      "##mo": 465,
      "information": 466,
      "provid": 467,
      "also": 468,
      "##pres": 469,
      "ind": 470,
      "##gan": 471,
      "##ates": 472,
      "##ap": 473,
      "Space": 474,
      "##overn": 475,
      "##ose": 476,
      "it": 477,
      "commun": 478,
      "It": 479,
      "##ission": 480,
      "##vention": 481,
      "##ans": 482,
      "##ights": 483,
      "all": 484,
      "will": 485,
      "##der": 486,
      "##all": 487,
      "ch": 488,
      "se": 489,
      "under": 490,
      "##hed": 491,
      "##ision": 492,
      "programm": 493,
      "##oll": 494,
      "##lud": 495,
      "##ganiz": 496,
      "##ub": 497,
      "##ant": 498,
      "##ural": 499,
      "##ess": 500,
      "##able": 501,
      "##gh": 502,
      "##ble": 503,
      "##ist": 504,
      "other": 505,
      "##ight": 506,
      "##ON": 507,
      "activ": 508,
      "Convention": 509,
      "##ology": 510,
      "1994": 511,
      "not": 512,
      "##tries": 513,
      "Th": 514,
      "##ure": 515,
      "##ign": 516,
      "development": 517,
      "##overnment": 518,
      "conc": 519,
      "grou": 520,
      "sub": 521,
      "##fer": 522,
      "##jec": 523,
      "comp": 524,
      "pol": 525,
      "so": 526,
      "work": 527,
      "ab": 528,
      "##ticle": 529,
      "tra": 530,
      "State": 531,
      "such": 532,
      "##serv": 533,
      "##to": 534,
      "1995": 535,
      "parti": 536,
      "##ern": 537,
      "countries": 538,
      "##rop": 539,
      "##uman": 540,
      "man": 541,
      "##ome": 542,
      "##ru": 543,
      "##ord": 544,
      "##ari": 545,
      "##cri": 546,
      "this": 547,
      "includ": 548,
      "mo": 549,
      "##try": 550,
      "##est": 551,
      "##ph": 552,
      "international": 553,
      "##ative": 554,
      "national": 555,
      "laun": 556,
      "requ": 557,
      "dec": 558,
      "year": 559,
      "##ong": 560,
      "##cip": 561,
      "app": 562,
      "organiz": 563,
      "##ail": 564,
      "##eral": 565,
      "##ms": 566,
      "activities": 567,
      "pre": 568,
      "##lic": 569,
      "##embers": 570,
      "10": 571,
      "bas": 572,
      "##onom": 573,
      "##ility": 574,
      "whe": 575,
      "inv": 576,
      "sen": 577,
      "##ore": 578,
      "cont": 579,
      "##abl": 580,
      "un": 581,
      "article": 582,
      "##ue": 583,
      "##ection": 584,
      "##ade": 585,
      "##mote": 586,
      "Nations": 587,
      "##ervic": 588,
      "##ors": 589,
      "##tical": 590,
      "##earch": 591,
      "##pon": 592,
      "##eration": 593,
      "##TI": 594,
      "rights": 595,
      "region": 596,
      "##di": 597,
      "##mination": 598,
      "use": 599,
      "##ular": 600,
      "sup": 601,
      "##plement": 602,
      "Pro": 603,
      "##if": 604,
      "ne": 605,
      "appl": 606,
      "##we": 607,
      "##eld": 608,
      "##oun": 609,
      "would": 610,
      "oper": 611,
      "sci": 612,
      "##ish": 613,
      "##ree": 614,
      "pres": 615,
      "##bit": 616,
      "##cess": 617,
      "##ual": 618,
      "##rough": 619,
      "educ": 620,
      "repres": 621,
      "##ture": 622,
      "##lo": 623,
      "##ER": 624,
      "##ublic": 625,
      "Government": 626,
      "##ures": 627,
      "##uring": 628,
      "ter": 629,
      "em": 630,
      "observ": 631,
      "1993": 632,
      "satellites": 633,
      "num": 634,
      "##ace": 635,
      "servic": 636,
      "##stabl": 637,
      "##tud": 638,
      "vi": 639,
      "##ution": 640,
      "represent": 641,
      "he": 642,
      "##ian": 643,
      "##out": 644,
      "acc": 645,
      "technology": 646,
      "##onment": 647,
      "##crimination": 648,
      "car": 649,
      "##00": 650,
      "##eneral": 651,
      "pr": 652,
      "establ": 653,
      "number": 654,
      "##vir": 655,
      "areas": 656,
      "fac": 657,
      "##ip": 658,
      "##itor": 659,
      "ass": 660,
      "concern": 661,
      "##vironment": 662,
      "particip": 663,
      "members": 664,
      "##ine": 665,
      "##aster": 666,
      "##sider": 667,
      "fi": 668,
      "human": 669,
      "##ult": 670,
      "##ric": 671,
      "remote": 672,
      "spec": 673,
      "party": 674,
      "meas": 675,
      "##ase": 676,
      "those": 677,
      "tr": 678,
      "##ating": 679,
      "##pac": 680,
      "contin": 681,
      "made": 682,
      "should": 683,
      "des": 684,
      "po": 685,
      "rad": 686,
      "sensing": 687,
      "##ining": 688,
      "coop": 689,
      "##enc": 690,
      "##ten": 691,
      "##vent": 692,
      "NA": 693,
      "up": 694,
      "##iver": 695,
      "bet": 696,
      "implement": 697,
      "##ffec": 698,
      "##jects": 699,
      "##ject": 700,
      "States": 701,
      "##ulation": 702,
      "exper": 703,
      "group": 704,
      "ra": 705,
      "##ollow": 706,
      "##ris": 707,
      "consider": 708,
      "orbit": 709,
      "No": 710,
      "##arth": 711,
      "##IS": 712,
      "tak": 713,
      "##ants": 714,
      "Inter": 715,
      "op": 716,
      "stud": 717,
      "bo": 718,
      "##ys": 719,
      "cl": 720,
      "new": 721,
      "##TION": 722,
      "##ug": 723,
      "197": 724,
      "ec": 725,
      "follow": 726,
      "pers": 727,
      "##wo": 728,
      "##ely": 729,
      "mon": 730,
      "ca": 731,
      "there": 732,
      "polic": 733,
      "##plo": 734,
      "Ac": 735,
      "fu": 736,
      "##ific": 737,
      "leg": 738,
      "##eting": 739,
      "through": 740,
      "partic": 741,
      "programmes": 742,
      "##ful": 743,
      "##ently": 744,
      "##ang": 745,
      "##urr": 746,
      "organizations": 747,
      "Earth": 748,
      "##iod": 749,
      "##pos": 750,
      "plan": 751,
      "fir": 752,
      "Dec": 753,
      "##ile": 754,
      "##ication": 755,
      "form": 756,
      "##ild": 757,
      "research": 758,
      "##ession": 759,
      "##ommend": 760,
      "could": 761,
      "pop": 762,
      "being": 763,
      "##ced": 764,
      "##ched": 765,
      "##av": 766,
      "period": 767,
      "cour": 768,
      "##ween": 769,
      "##ency": 770,
      "Mar": 771,
      "out": 772,
      "repor": 773,
      "programme": 774,
      "str": 775,
      "##par": 776,
      "##ved": 777,
      "person": 778,
      "sec": 779,
      "inst": 780,
      "##ater": 781,
      "##ffic": 782,
      "into": 783,
      "provided": 784,
      "National": 785,
      "##stitution": 786,
      "between": 787,
      "over": 788,
      "two": 789,
      "econom": 790,
      "more": 791,
      "##ast": 792,
      "particular": 793,
      "sit": 794,
      "##ses": 795,
      "##trib": 796,
      "systems": 797,
      "education": 798,
      "Cent": 799,
      "pe": 800,
      "##ll": 801,
      "##RS": 802,
      "environment": 803,
      "recommend": 804,
      "years": 805,
      "##dition": 806,
      "pri": 807,
      "##ES": 808,
      "15": 809,
      "am": 810,
      "##eg": 811,
      "##mit": 812,
      "respon": 813,
      "services": 814,
      "11": 815,
      "sp": 816,
      "Me": 817,
      "##ond": 818,
      "##ory": 819,
      "communications": 820,
      "trans": 821,
      "first": 822,
      "high": 823,
      "##ft": 824,
      "##ati": 825,
      "tel": 826,
      "##str": 827,
      "##ized": 828,
      "cooperation": 829,
      "vari": 830,
      "##tain": 831,
      "##ND": 832,
      "regard": 833,
      "As": 834,
      "tim": 835,
      "##vi": 836,
      "they": 837,
      "used": 838,
      "This": 839,
      "training": 840,
      "mak": 841,
      "##uth": 842,
      "##ress": 843,
      "discrimination": 844,
      "developing": 845,
      "el": 846,
      "##urther": 847,
      "including": 848,
      "nat": 849,
      "##ally": 850,
      "who": 851,
      "experi": 852,
      "imp": 853,
      "##ages": 854,
      "level": 855,
      "need": 856,
      "viol": 857,
      "##uthor": 858,
      "ESA": 859,
      "##ters": 860,
      "##bal": 861,
      "##ected": 862,
      "noted": 863,
      "country": 864,
      "Am": 865,
      "##ange": 866,
      "law": 867,
      "scienti": 868,
      "can": 869,
      "land": 870,
      "min": 871,
      "mod": 872,
      "within": 873,
      "Per": 874,
      "##ning": 875,
      "Ad": 876,
      "one": 877,
      "population": 878,
      "author": 879,
      "##ources": 880,
      "pos": 881,
      "##ied": 882,
      "##ot": 883,
      "##ne": 884,
      "##ished": 885,
      "applications": 886,
      "effec": 887,
      "mission": 888,
      "##ef": 889,
      "incre": 890,
      "well": 891,
      "##osp": 892,
      "present": 893,
      "during": 894,
      "##mber": 895,
      "##bility": 896,
      "##uation": 897,
      "##ret": 898,
      "di": 899,
      "fl": 900,
      "expres": 901,
      "provide": 902,
      "projects": 903,
      "##sible": 904,
      "IN": 905,
      "Jan": 906,
      "##TE": 907,
      "##ogra": 908,
      "##tives": 909,
      "##ean": 910,
      "##rac": 911,
      "1992": 912,
      "racial": 913,
      "International": 914,
      "monitor": 915,
      "March": 916,
      "Min": 917,
      "##ach": 918,
      "about": 919,
      "than": 920,
      "rece": 921,
      "##lobal": 922,
      "Eu": 923,
      "loc": 924,
      "provision": 925,
      "Peru": 926,
      "14": 927,
      "Af": 928,
      "##ues": 929,
      "Ap": 930,
      "##au": 931,
      "##uary": 932,
      "##alth": 933,
      "import": 934,
      "support": 935,
      "implementation": 936,
      "January": 937,
      "##me": 938,
      "##olution": 939,
      "groups": 940,
      "Europ": 941,
      "General": 942,
      "##bris": 943,
      "part": 944,
      "##ame": 945,
      "##SAT": 946,
      "economic": 947,
      "ph": 948,
      "##row": 949,
      "##rol": 950,
      "order": 951,
      "##ack": 952,
      "reports": 953,
      "At": 954,
      "Rep": 955,
      "##uter": 956,
      "##thn": 957,
      "##ological": 958,
      "##ference": 959,
      "curr": 960,
      "may": 961,
      "##ev": 962,
      "##sh": 963,
      "institu": 964,
      "##ested": 965,
      "adv": 966,
      "sur": 967,
      "##ination": 968,
      "##ince": 969,
      "launch": 970,
      "##ploy": 971,
      "To": 972,
      "coll": 973,
      "##arge": 974,
      "invol": 975,
      "Sec": 976,
      "##ked": 977,
      "##igen": 978,
      "20": 979,
      "##ograph": 980,
      "17": 981,
      "using": 982,
      "these": 983,
      "OF": 984,
      "##ffor": 985,
      "natural": 986,
      "For": 987,
      "equ": 988,
      "ethn": 989,
      "pur": 990,
      "##AR": 991,
      "##reat": 992,
      "1991": 993,
      "disaster": 994,
      "Ag": 995,
      "representative": 996,
      "##igenous": 997,
      "De": 998,
      "es": 999,
      "##one": 1000,
      "debris": 1001,
      "time": 1002,
      "##ties": 1003,
      "establish": 1004,
      "Republic": 1005,
      "further": 1006,
      "held": 1007,
      "##ens": 1008,
      "social": 1009,
      "Minis": 1010,
      "dir": 1011,
      "##raft": 1012,
      "following": 1013,
      "av": 1014,
      "project": 1015,
      "cons": 1016,
      "ext": 1017,
      "again": 1018,
      "ground": 1019,
      "##venth": 1020,
      "II": 1021,
      "cover": 1022,
      "##AC": 1023,
      "most": 1024,
      "Aug": 1025,
      "Ch": 1026,
      "gi": 1027,
      "##ost": 1028,
      "1996": 1029,
      "adop": 1030,
      "decision": 1031,
      "Nor": 1032,
      "some": 1033,
      "##ock": 1034,
      "1990": 1035,
      "##ffer": 1036,
      "Afric": 1037,
      "August": 1038,
      "effor": 1039,
      "ge": 1040,
      "mar": 1041,
      "sign": 1042,
      "##als": 1043,
      "##ilities": 1044,
      "any": 1045,
      "Programm": 1046,
      "Centre": 1047,
      "ethnic": 1048,
      "main": 1049,
      "session": 1050,
      "##mall": 1051,
      "produc": 1052,
      "meeting": 1053,
      "launched": 1054,
      "impro": 1055,
      "ser": 1056,
      "expressed": 1057,
      "13": 1058,
      "12": 1059,
      "Satellit": 1060,
      "mat": 1061,
      "radar": 1062,
      "16": 1063,
      "Dis": 1064,
      "id": 1065,
      "##les": 1066,
      "##ren": 1067,
      "##here": 1068,
      "##ass": 1069,
      "instru": 1070,
      "Programme": 1071,
      "18": 1072,
      "Res": 1073,
      "##air": 1074,
      "##cep": 1075,
      "addition": 1076,
      "capa": 1077,
      "his": 1078,
      "##int": 1079,
      "##cho": 1080,
      "indigenous": 1081,
      "based": 1082,
      "NASA": 1083,
      "both": 1084,
      "institutions": 1085,
      "En": 1086,
      "##ide": 1087,
      "taken": 1088,
      "ro": 1089,
      "inf": 1090,
      "##ily": 1091,
      "det": 1092,
      "various": 1093,
      "ma": 1094,
      "##ix": 1095,
      "##gress": 1096,
      "them": 1097,
      "##eric": 1098,
      "related": 1099,
      "##ases": 1100,
      "Commission": 1101,
      "##agement": 1102,
      "monitoring": 1103,
      "##cil": 1104,
      "technical": 1105,
      "measures": 1106,
      "initi": 1107,
      "##vely": 1108,
      "##ained": 1109,
      "submit": 1110,
      "regional": 1111,
      "participants": 1112,
      "situation": 1113,
      "peop": 1114,
      "##ery": 1115,
      "dem": 1116,
      "field": 1117,
      "European": 1118,
      "red": 1119,
      "small": 1120,
      "##RO": 1121,
      "##erg": 1122,
      "##ences": 1123,
      "##fore": 1124,
      "December": 1125,
      "Americ": 1126,
      "sc": 1127,
      "##now": 1128,
      "##isl": 1129,
      "prot": 1130,
      "health": 1131,
      "avail": 1132,
      "25": 1133,
      "bec": 1134,
      "##EN": 1135,
      "##ents": 1136,
      "continu": 1137,
      "jo": 1138,
      "##ivers": 1139,
      "UN": 1140,
      "##ever": 1141,
      "El": 1142,
      "global": 1143,
      "##tle": 1144,
      "offic": 1145,
      "##ise": 1146,
      "##abor": 1147,
      "design": 1148,
      "against": 1149,
      "resources": 1150,
      "##ivil": 1151,
      "Constitution": 1152,
      "##ector": 1153,
      "developed": 1154,
      "appro": 1155,
      "persons": 1156,
      "men": 1157,
      "##elf": 1158,
      "station": 1159,
      "Act": 1160,
      "receiv": 1161,
      "An": 1162,
      "public": 1163,
      "##eb": 1164,
      "##ry": 1165,
      "##ATION": 1166,
      "##til": 1167,
      "##ization": 1168,
      "identi": 1169,
      "Coun": 1170,
      "ERS": 1171,
      "sol": 1172,
      "##wn": 1173,
      "##itical": 1174,
      "##man": 1175,
      "##sive": 1176,
      "where": 1177,
      "future": 1178,
      "set": 1179,
      "##ire": 1180,
      "resul": 1181,
      "resolution": 1182,
      "anal": 1183,
      "comple": 1184,
      "Satellite": 1185,
      "##atory": 1186,
      "disc": 1187,
      "##ety": 1188,
      "scientific": 1189,
      "21": 1190,
      "##tal": 1191,
      "##up": 1192,
      "ref": 1193,
      "##ize": 1194,
      "management": 1195,
      "terr": 1196,
      "accord": 1197,
      "increas": 1198,
      "but": 1199,
      "del": 1200,
      "end": 1201,
      "##AL": 1202,
      "conduc": 1203,
      "control": 1204,
      "##iversity": 1205,
      "Ind": 1206,
      "Oc": 1207,
      "##pect": 1208,
      "##teor": 1209,
      "def": 1210,
      "second": 1211,
      "Rights": 1212,
      "ev": 1213,
      "##ands": 1214,
      "political": 1215,
      "##ife": 1216,
      "study": 1217,
      "legisl": 1218,
      "differ": 1219,
      "given": 1220,
      "efforts": 1221,
      "map": 1222,
      "##ks": 1223,
      "three": 1224,
      "child": 1225,
      "prepar": 1226,
      "established": 1227,
      "Develop": 1228,
      "Or": 1229,
      "jud": 1230,
      "ur": 1231,
      "##yp": 1232,
      "rem": 1233,
      "##chool": 1234,
      "##OS": 1235,
      "proble": 1236,
      "##ired": 1237,
      "##ried": 1238,
      "##ential": 1239,
      "requested": 1240,
      "whether": 1241,
      "radi": 1242,
      "Jap": 1243,
      "With": 1244,
      "we": 1245,
      "##ned": 1246,
      "##HE": 1247,
      "##AN": 1248,
      "sever": 1249,
      "##tober": 1250,
      "assist": 1251,
      "provisions": 1252,
      "people": 1253,
      "October": 1254,
      "Japan": 1255,
      "000": 1256,
      "Al": 1257,
      "ve": 1258,
      "##ough": 1259,
      "contrib": 1260,
      "area": 1261,
      "##ards": 1262,
      "environmental": 1263,
      "Human": 1264,
      "Ma": 1265,
      "Offic": 1266,
      "##are": 1267,
      "##sition": 1268,
      "Sci": 1269,
      "general": 1270,
      "##iqu": 1271,
      "##mosp": 1272,
      "##IN": 1273,
      "process": 1274,
      "para": 1275,
      "operational": 1276,
      "adopted": 1277,
      "##unications": 1278,
      "impac": 1279,
      "special": 1280,
      "among": 1281,
      "violence": 1282,
      "Ar": 1283,
      "Techn": 1284,
      "rural": 1285,
      "##ood": 1286,
      "##hen": 1287,
      "int": 1288,
      "##cies": 1289,
      "important": 1290,
      "##shop": 1291,
      "Par": 1292,
      "Women": 1293,
      "fin": 1294,
      "ful": 1295,
      "right": 1296,
      "##ale": 1297,
      "##anced": 1298,
      "##teg": 1299,
      "exam": 1300,
      "observation": 1301,
      "GIS": 1302,
      "SP": 1303,
      "how": 1304,
      "low": 1305,
      "##work": 1306,
      "legal": 1307,
      "##tegr": 1308,
      "Jun": 1309,
      "THE": 1310,
      "##orld": 1311,
      "##ined": 1312,
      "196": 1313,
      "##etwork": 1314,
      "concerning": 1315,
      "specific": 1316,
      "large": 1317,
      "##led": 1318,
      "##mb": 1319,
      "##jor": 1320,
      "##ings": 1321,
      "##graph": 1322,
      "many": 1323,
      "observations": 1324,
      "##ultural": 1325,
      "available": 1326,
      "May": 1327,
      "must": 1328,
      "##TS": 1329,
      "##ays": 1330,
      "Council": 1331,
      "24": 1332,
      "Ex": 1333,
      "Feb": 1334,
      "long": 1335,
      "since": 1336,
      "school": 1337,
      "##red": 1338,
      "##tim": 1339,
      "##art": 1340,
      "##ars": 1341,
      "perform": 1342,
      "##ruary": 1343,
      "measure": 1344,
      "##pacec": 1345,
      "policy": 1346,
      "Development": 1347,
      "February": 1348,
      "28": 1349,
      "Outer": 1350,
      "##xt": 1351,
      "suc": 1352,
      "Conference": 1353,
      "indic": 1354,
      "##pacecraft": 1355,
      "26": 1356,
      "30": 1357,
      "mic": 1358,
      "##encies": 1359,
      "##ators": 1360,
      "##arly": 1361,
      "##ecomm": 1362,
      "##sian": 1363,
      "ens": 1364,
      "basis": 1365,
      "employ": 1366,
      "CON": 1367,
      "four": 1368,
      "government": 1369,
      "##iter": 1370,
      "thir": 1371,
      "promo": 1372,
      "iss": 1373,
      "when": 1374,
      "periodic": 1375,
      "Office": 1376,
      "22": 1377,
      "doc": 1378,
      "life": 1379,
      "oc": 1380,
      "spacecraft": 1381,
      "##OR": 1382,
      "##igin": 1383,
      "only": 1384,
      "objec": 1385,
      "plans": 1386,
      "abo": 1387,
      "major": 1388,
      "cre": 1389,
      "##atives": 1390,
      "propos": 1391,
      "##ability": 1392,
      "##ffair": 1393,
      "cost": 1394,
      "carried": 1395,
      "particularly": 1396,
      "occ": 1397,
      "ben": 1398,
      "cri": 1399,
      "##enth": 1400,
      "##pecial": 1401,
      "prin": 1402,
      "##tention": 1403,
      "June": 1404,
      "Cour": 1405,
      "Rus": 1406,
      "##ori": 1407,
      "##ital": 1408,
      "studies": 1409,
      "##ffairs": 1410,
      "Fed": 1411,
      "own": 1412,
      "##sts": 1413,
      "##OM": 1414,
      "##ecess": 1415,
      "##omes": 1416,
      "They": 1417,
      "23": 1418,
      "Sep": 1419,
      "fre": 1420,
      "grow": 1421,
      "##ban": 1422,
      "##IT": 1423,
      "##ilit": 1424,
      "conf": 1425,
      "action": 1426,
      "coord": 1427,
      "communities": 1428,
      "Africa": 1429,
      "La": 1430,
      "mul": 1431,
      "##ition": 1432,
      "##eng": 1433,
      "##tember": 1434,
      "compl": 1435,
      "continue": 1436,
      "##atis": 1437,
      "Ministry": 1438,
      "September": 1439,
      "On": 1440,
      "bod": 1441,
      "##fter": 1442,
      "##king": 1443,
      "##de": 1444,
      "total": 1445,
      "##read": 1446,
      "##uly": 1447,
      "##idual": 1448,
      "access": 1449,
      "respect": 1450,
      "##aced": 1451,
      "images": 1452,
      "##round": 1453,
      "##ended": 1454,
      "add": 1455,
      "allow": 1456,
      "science": 1457,
      "course": 1458,
      "local": 1459,
      "##ACE": 1460,
      "27": 1461,
      "gu": 1462,
      "know": 1463,
      "##pose": 1464,
      "##ving": 1465,
      "##ines": 1466,
      "##its": 1467,
      "##ism": 1468,
      "fact": 1469,
      "direct": 1470,
      "assistance": 1471,
      "Maori": 1472,
      "civil": 1473,
      "hig": 1474,
      "asked": 1475,
      "expl": 1476,
      "communication": 1477,
      "Secret": 1478,
      "submitted": 1479,
      "several": 1480,
      "impact": 1481,
      "success": 1482,
      "He": 1483,
      "each": 1484,
      "##fied": 1485,
      "##aci": 1486,
      "##tig": 1487,
      "conn": 1488,
      "Institu": 1489,
      "##ologies": 1490,
      "possible": 1491,
      "flight": 1492,
      "role": 1493,
      "analys": 1494,
      "Can": 1495,
      "after": 1496,
      "med": 1497,
      "non": 1498,
      "us": 1499,
      "atmosp": 1500,
      "##ima": 1501,
      "##ource": 1502,
      "working": 1503,
      "joint": 1504,
      "discus": 1505,
      "necess": 1506,
      "sim": 1507,
      "##sequ": 1508,
      "while": 1509,
      "considered": 1510,
      "##view": 1511,
      "##ause": 1512,
      "Research": 1513,
      "Russian": 1514,
      "Affairs": 1515,
      "##tice": 1516,
      "##ared": 1517,
      "##ances": 1518,
      "##vember": 1519,
      "##unc": 1520,
      "centres": 1521,
      "##ditions": 1522,
      "application": 1523,
      "November": 1524,
      "benef": 1525,
      "##fication": 1526,
      "due": 1527,
      "fam": 1528,
      "##fy": 1529,
      "##estig": 1530,
      "##ound": 1531,
      "##outh": 1532,
      "##heric": 1533,
      "eng": 1534,
      "agencies": 1535,
      "indust": 1536,
      "currently": 1537,
      "Agency": 1538,
      "AND": 1539,
      "##ged": 1540,
      "##ests": 1541,
      "deter": 1542,
      "technologies": 1543,
      "view": 1544,
      "make": 1545,
      "authorities": 1546,
      "##ixth": 1547,
      "docu": 1548,
      "above": 1549,
      "Canad": 1550,
      "29": 1551,
      "CER": 1552,
      "cos": 1553,
      "cases": 1554,
      "km": 1555,
      "##az": 1556,
      "##isting": 1557,
      "forty": 1558,
      "##semb": 1559,
      "origin": 1560,
      "##portun": 1561,
      "att": 1562,
      "##soci": 1563,
      "require": 1564,
      "opportun": 1565,
      "fund": 1566,
      "Discrimination": 1567,
      "July": 1568,
      "##eal": 1569,
      "##ie": 1570,
      "##med": 1571,
      "##mission": 1572,
      "##ov": 1573,
      "##ote": 1574,
      "##bilities": 1575,
      "##go": 1576,
      "before": 1577,
      "##tics": 1578,
      "chang": 1579,
      "##phas": 1580,
      "##cept": 1581,
      "contribu": 1582,
      "50": 1583,
      "Ob": 1584,
      "RE": 1585,
      "ele": 1586,
      "gre": 1587,
      "te": 1588,
      "##fac": 1589,
      "##hic": 1590,
      "##ics": 1591,
      "char": 1592,
      "service": 1593,
      "recommendations": 1594,
      "improve": 1595,
      "infr": 1596,
      "protection": 1597,
      "CERD": 1598,
      "Pe": 1599,
      "prac": 1600,
      "rock": 1601,
      "integr": 1602,
      "conditions": 1603,
      "admin": 1604,
      "##ials": 1605,
      "parties": 1606,
      "emphas": 1607,
      "multi": 1608,
      "##sembly": 1609,
      "##lu": 1610,
      "##ib": 1611,
      "##tively": 1612,
      "##ately": 1613,
      "University": 1614,
      "see": 1615,
      "soci": 1616,
      "investig": 1617,
      "needs": 1618,
      "Members": 1619,
      "Re": 1620,
      "pow": 1621,
      "There": 1622,
      "result": 1623,
      "##tric": 1624,
      "##truc": 1625,
      "##ividual": 1626,
      "Apr": 1627,
      "purpose": 1628,
      "##ecommunications": 1629,
      "##ather": 1630,
      "##istr": 1631,
      "##oman": 1632,
      "##anding": 1633,
      "police": 1634,
      "prim": 1635,
      "received": 1636,
      "Organiz": 1637,
      "paragraph": 1638,
      "April": 1639,
      "case": 1640,
      "fe": 1641,
      "fra": 1642,
      "func": 1643,
      "network": 1644,
      "##hip": 1645,
      "##hes": 1646,
      "##tern": 1647,
      "##ogn": 1648,
      "distrib": 1649,
      "individual": 1650,
      "community": 1651,
      "include": 1652,
      "minor": 1653,
      "signific": 1654,
      "legislation": 1655,
      "necessary": 1656,
      "Work": 1657,
      "lim": 1658,
      "ques": 1659,
      "##AO": 1660,
      "proced": 1661,
      "These": 1662,
      "meteor": 1663,
      "lead": 1664,
      "##alled": 1665,
      "care": 1666,
      "effective": 1667,
      "current": 1668,
      "establishment": 1669,
      "series": 1670,
      "instruments": 1671,
      "vehic": 1672,
      "Observ": 1673,
      "li": 1674,
      "pay": 1675,
      "war": 1676,
      "##ind": 1677,
      "##ok": 1678,
      "##RI": 1679,
      "##roduc": 1680,
      "proces": 1681,
      "##sibility": 1682,
      "associ": 1683,
      "required": 1684,
      "matters": 1685,
      "continued": 1686,
      "Co": 1687,
      "System": 1688,
      "early": 1689,
      "very": 1690,
      "##acial": 1691,
      "##ite": 1692,
      "exp": 1693,
      "reli": 1694,
      "included": 1695,
      "experiments": 1696,
      "involved": 1697,
      "accordance": 1698,
      "##omestic": 1699,
      "Institute": 1700,
      "significant": 1701,
      "Racial": 1702,
      "aim": 1703,
      "astr": 1704,
      "do": 1705,
      "mater": 1706,
      "typ": 1707,
      "off": 1708,
      "##cean": 1709,
      "##ode": 1710,
      "term": 1711,
      "prec": 1712,
      "Assembly": 1713,
      "##vious": 1714,
      "elec": 1715,
      "equip": 1716,
      "detail": 1717,
      "analysis": 1718,
      "31": 1719,
      "##tak": 1720,
      "##ral": 1721,
      "##xic": 1722,
      "##atus": 1723,
      "##ists": 1724,
      "##irc": 1725,
      "##imination": 1726,
      "displ": 1727,
      "Conc": 1728,
      "recogn": 1729,
      "interest": 1730,
      "means": 1731,
      "agree": 1732,
      "1981": 1733,
      "emerg": 1734,
      "ensure": 1735,
      "Pres": 1736,
      "sa": 1737,
      "sel": 1738,
      "##face": 1739,
      "##xim": 1740,
      "##ator": 1741,
      "##anc": 1742,
      "rep": 1743,
      "review": 1744,
      "enc": 1745,
      "undertak": 1746,
      "basic": 1747,
      "##ount": 1748,
      "take": 1749,
      "##ffici": 1750,
      "##ographic": 1751,
      "connection": 1752,
      "Com": 1753,
      "Dep": 1754,
      "ach": 1755,
      "met": 1756,
      "qual": 1757,
      "##esc": 1758,
      "##ice": 1759,
      "prof": 1760,
      "program": 1761,
      "promote": 1762,
      "##get": 1763,
      "attention": 1764,
      "show": 1765,
      "educational": 1766,
      "scientists": 1767,
      "Add": 1768,
      "different": 1769,
      "problems": 1770,
      "Lima": 1771,
      "Mr": 1772,
      "Sh": 1773,
      "aw": 1774,
      "##sions": 1775,
      "levels": 1776,
      "America": 1777,
      "Elimination": 1778,
      "##ready": 1779,
      "successful": 1780,
      "document": 1781,
      "Concern": 1782,
      "Paci": 1783,
      "sti": 1784,
      "vis": 1785,
      "##tur": 1786,
      "##gian": 1787,
      "##vey": 1788,
      "already": 1789,
      "imag": 1790,
      "decl": 1791,
      "concerned": 1792,
      "consideration": 1793,
      "recommends": 1794,
      "Meeting": 1795,
      "reduc": 1796,
      "because": 1797,
      "results": 1798,
      "territor": 1799,
      "Court": 1800,
      "changes": 1801,
      "Reg": 1802,
      "Sub": 1803,
      "gra": 1804,
      "master": 1805,
      "same": 1806,
      "world": 1807,
      "##ceed": 1808,
      "##old": 1809,
      "without": 1810,
      "explo": 1811,
      "comb": 1812,
      "obtain": 1813,
      "relev": 1814,
      "prior": 1815,
      "instrument": 1816,
      "children": 1817,
      "complain": 1818,
      "##istration": 1819,
      "Organization": 1820,
      "Rad": 1821,
      "Se": 1822,
      "South": 1823,
      "Tel": 1824,
      "domestic": 1825,
      "##ious": 1826,
      "##bile": 1827,
      "##ule": 1828,
      "##sia": 1829,
      "##ope": 1830,
      "acqu": 1831,
      "##acy": 1832,
      "previous": 1833,
      "##wegian": 1834,
      "participation": 1835,
      "effects": 1836,
      "Norwegian": 1837,
      "urban": 1838,
      "processing": 1839,
      "Pacific": 1840,
      "So": 1841,
      "Sup": 1842,
      "affec": 1843,
      "hel": 1844,
      "val": 1845,
      "##ons": 1846,
      "##els": 1847,
      "##elc": 1848,
      "##ateg": 1849,
      "##ighth": 1850,
      "what": 1851,
      "enh": 1852,
      "##illion": 1853,
      "struc": 1854,
      "Mexic": 1855,
      "making": 1856,
      "surface": 1857,
      "designed": 1858,
      "New": 1859,
      "Sen": 1860,
      "rate": 1861,
      "range": 1862,
      "##sec": 1863,
      "##yn": 1864,
      "##gation": 1865,
      "##erc": 1866,
      "offer": 1867,
      "##inth": 1868,
      "##ros": 1869,
      "##tem": 1870,
      "##ulations": 1871,
      "##acter": 1872,
      "providing": 1873,
      "workshop": 1874,
      "##rug": 1875,
      "representatives": 1876,
      "experiment": 1877,
      "disasters": 1878,
      "solar": 1879,
      "##artment": 1880,
      "Rem": 1881,
      "bel": 1882,
      "event": 1883,
      "sched": 1884,
      "welc": 1885,
      "##reme": 1886,
      "proper": 1887,
      "##urity": 1888,
      "Congress": 1889,
      "##used": 1890,
      "commit": 1891,
      "techniqu": 1892,
      "1980": 1893,
      "Ital": 1894,
      "regions": 1895,
      "phys": 1896,
      "Environment": 1897,
      "higher": 1898,
      "Secretary": 1899,
      "Department": 1900,
      "bro": 1901,
      "ever": 1902,
      "gen": 1903,
      "util": 1904,
      "##ner": 1905,
      "##uch": 1906,
      "exerc": 1907,
      "##gether": 1908,
      "stage": 1909,
      "##ffect": 1910,
      "activity": 1911,
      "##ropri": 1912,
      "assess": 1913,
      "missions": 1914,
      "conducted": 1915,
      "character": 1916,
      "Presid": 1917,
      "CO": 1918,
      "Fr": 1919,
      "ON": 1920,
      "US": 1921,
      "did": 1922,
      "lack": 1923,
      "##lig": 1924,
      "##rec": 1925,
      "##other": 1926,
      "##cher": 1927,
      "##gen": 1928,
      "##vate": 1929,
      "##aration": 1930,
      "##thern": 1931,
      "Station": 1932,
      "##ustice": 1933,
      "recent": 1934,
      "conclud": 1935,
      "##aceful": 1936,
      "facilities": 1937,
      "orbital": 1938,
      "importance": 1939,
      "capability": 1940,
      "American": 1941,
      "increased": 1942,
      "third": 1943,
      "objectives": 1944,
      "power": 1945,
      "relevant": 1946,
      "Bo": 1947,
      "UND": 1948,
      "haz": 1949,
      "ste": 1950,
      "##mis": 1951,
      "##ping": 1952,
      "##ort": 1953,
      "##asting": 1954,
      "##vement": 1955,
      "mother": 1956,
      "pot": 1957,
      "Appl": 1958,
      "collabor": 1959,
      "Remote": 1960,
      "AC": 1961,
      "All": 1962,
      "Educ": 1963,
      "sector": 1964,
      "##lan": 1965,
      "##ration": 1966,
      "##AA": 1967,
      "enti": 1968,
      "##formation": 1969,
      "##pects": 1970,
      "1989": 1971,
      "responsible": 1972,
      "additional": 1973,
      "increasing": 1974,
      "Scienti": 1975,
      "bodies": 1976,
      "determin": 1977,
      "Code": 1978,
      "age": 1979,
      "cor": 1980,
      "might": 1981,
      "##ua": 1982,
      "##gin": 1983,
      "##SS": 1984,
      "dep": 1985,
      "sust": 1986,
      "objects": 1987,
      "seventh": 1988,
      "appropri": 1989,
      "##iffic": 1990,
      "operation": 1991,
      "descri": 1992,
      "regarding": 1993,
      "violations": 1994,
      "advanced": 1995,
      "measurements": 1996,
      "##pecially": 1997,
      "requirements": 1998,
      "rocket": 1999,
      "equipment": 2000,
      "achie": 2001,
      "br": 2002,
      "cer": 2003,
      "dra": 2004,
      "near": 2005,
      "##the": 2006,
      "##cent": 2007,
      "##vian": 2008,
      "##ercial": 2009,
      "##ouse": 2010,
      "##ths": 2011,
      "##ressed": 2012,
      "image": 2013,
      "##uttle": 2014,
      "underst": 2015,
      "##load": 2016,
      "carry": 2017,
      "board": 2018,
      "Peruvian": 2019,
      "especially": 2020,
      "Technical": 2021,
      "##fficient": 2022,
      "potential": 2023,
      "46": 2024,
      "Gu": 2025,
      "bu": 2026,
      "diffic": 2027,
      "ill": 2028,
      "##eign": 2029,
      "##ier": 2030,
      "##iation": 2031,
      "##onau": 2032,
      "##atter": 2033,
      "##oura": 2034,
      "##igital": 2035,
      "##though": 2036,
      "Information": 2037,
      "stated": 2038,
      "stand": 2039,
      "status": 2040,
      "record": 2041,
      "relating": 2042,
      "1986": 2043,
      "1988": 2044,
      "organized": 2045,
      "terms": 2046,
      "cooper": 2047,
      "minim": 2048,
      "production": 2049,
      "eval": 2050,
      "example": 2051,
      "greater": 2052,
      "49": 2053,
      "lin": 2054,
      "qu": 2055,
      "##wards": 2056,
      "##TER": 2057,
      "##onstr": 2058,
      "##itation": 2059,
      "##ane": 2060,
      "##omed": 2061,
      "##ulture": 2062,
      "1997": 2063,
      "existing": 2064,
      "##ender": 2065,
      "##ending": 2066,
      "##pected": 2067,
      "planning": 2068,
      "private": 2069,
      "transfer": 2070,
      "##nex": 2071,
      "increase": 2072,
      "prepared": 2073,
      "introduc": 2074,
      "family": 2075,
      "distribution": 2076,
      "techniques": 2077,
      "appropriate": 2078,
      "40": 2079,
      "member": 2080,
      "sent": 2081,
      "vic": 2082,
      "##ke": 2083,
      "##na": 2084,
      "##TA": 2085,
      "##enting": 2086,
      "##ath": 2087,
      "together": 2088,
      "##rial": 2089,
      "exch": 2090,
      "oblig": 2091,
      "Thir": 2092,
      "position": 2093,
      "policies": 2094,
      "employment": 2095,
      "issues": 2096,
      "society": 2097,
      "agreement": 2098,
      "schedul": 2099,
      "Ger": 2100,
      "##ma": 2101,
      "##uce": 2102,
      "##ges": 2103,
      "##atab": 2104,
      "##ilar": 2105,
      "##echan": 2106,
      "commercial": 2107,
      "least": 2108,
      "mobile": 2109,
      "100": 2110,
      "telecommunications": 2111,
      "frequ": 2112,
      "growth": 2113,
      "broad": 2114,
      "Is": 2115,
      "Rec": 2116,
      "her": 2117,
      "##lav": 2118,
      "##ium": 2119,
      "##ina": 2120,
      "##cid": 2121,
      "acts": 2122,
      "ann": 2123,
      "agric": 2124,
      "next": 2125,
      "##angu": 2126,
      "courses": 2127,
      "response": 2128,
      "African": 2129,
      "terror": 2130,
      "judic": 2131,
      "Federation": 2132,
      "coordin": 2133,
      "German": 2134,
      "45": 2135,
      "Asia": 2136,
      "NO": 2137,
      "Tr": 2138,
      "drug": 2139,
      "effect": 2140,
      "foc": 2141,
      "hy": 2142,
      "mass": 2143,
      "mechan": 2144,
      "ris": 2145,
      "##ware": 2146,
      "##ive": 2147,
      "##UR": 2148,
      "##DA": 2149,
      "##edic": 2150,
      "##astruc": 2151,
      "##ided": 2152,
      "##izing": 2153,
      "stations": 2154,
      "##ically": 2155,
      "place": 2156,
      "centre": 2157,
      "shall": 2158,
      "subject": 2159,
      "compan": 2160,
      "optical": 2161,
      "##posed": 2162,
      "##stitutional": 2163,
      "extent": 2164,
      "scale": 2165,
      "completed": 2166,
      "however": 2167,
      "opportunities": 2168,
      "vehicle": 2169,
      "materials": 2170,
      "still": 2171,
      "help": 2172,
      "President": 2173,
      "sustain": 2174,
      "60": 2175,
      "Mir": 2176,
      "days": 2177,
      "liv": 2178,
      "langu": 2179,
      "mag": 2180,
      "nor": 2181,
      "sixth": 2182,
      "water": 2183,
      "##tor": 2184,
      "##aim": 2185,
      "##comm": 2186,
      "##EP": 2187,
      "##EM": 2188,
      "##orpor": 2189,
      "##ank": 2190,
      "progress": 2191,
      "proceed": 2192,
      "##iger": 2193,
      "##ectors": 2194,
      "former": 2195,
      "##part": 2196,
      "refl": 2197,
      "radio": 2198,
      "SPACE": 2199,
      "similar": 2200,
      "engine": 2201,
      "##going": 2202,
      "infrastruc": 2203,
      "Mexico": 2204,
      "During": 2205,
      "far": 2206,
      "gr": 2207,
      "satis": 2208,
      "treat": 2209,
      "vol": 2210,
      "##equ": 2211,
      "##oy": 2212,
      "##und": 2213,
      "##ption": 2214,
      "##arg": 2215,
      "towards": 2216,
      "foreign": 2217,
      "expected": 2218,
      "##ogue": 2219,
      "enter": 2220,
      "##overnments": 2221,
      "sex": 2222,
      "suppor": 2223,
      "meetings": 2224,
      "Applications": 2225,
      "NOAA": 2226,
      "34": 2227,
      "Data": 2228,
      "Ge": 2229,
      "Yug": 2230,
      "aut": 2231,
      "bi": 2232,
      "dial": 2233,
      "datab": 2234,
      "if": 2235,
      "kil": 2236,
      "miti": 2237,
      "##aff": 2238,
      "##use": 2239,
      "##IR": 2240,
      "##edom": 2241,
      "ins": 2242,
      "top": 2243,
      "##isted": 2244,
      "force": 2245,
      "##oslav": 2246,
      "##enda": 2247,
      "meth": 2248,
      "##minal": 2249,
      "useful": 2250,
      "five": 2251,
      "posi": 2252,
      "planned": 2253,
      "##ography": 2254,
      "##ergy": 2255,
      "1969": 2256,
      "payload": 2257,
      "Yugoslav": 2258,
      "44": 2259,
      "Bel": 2260,
      "back": 2261,
      "circ": 2262,
      "digital": 2263,
      "##welf": 2264,
      "##ness": 2265,
      "##co": 2266,
      "##EX": 2267,
      "##ister": 2268,
      "##idence": 2269,
      "##own": 2270,
      "##ods": 2271,
      "state": 2272,
      "change": 2273,
      "##arian": 2274,
      "request": 2275,
      "contrac": 2276,
      "contained": 2277,
      "streng": 2278,
      "needed": 2279,
      "##ensus": 2280,
      "deleg": 2281,
      "performed": 2282,
      "atmospheric": 2283,
      "limited": 2284,
      "associated": 2285,
      "astronom": 2286,
      "displaced": 2287,
      "profession": 2288,
      "Shuttle": 2289,
      "Italy": 2290,
      "Education": 2291,
      "##welfth": 2292,
      "37": 2293,
      "aver": 2294,
      "go": 2295,
      "larg": 2296,
      "##iting": 2297,
      "##val": 2298,
      "##AP": 2299,
      "##CP": 2300,
      "##tioned": 2301,
      "refer": 2302,
      "ongoing": 2303,
      "##oph": 2304,
      "deg": 2305,
      "depart": 2306,
      "active": 2307,
      "trac": 2308,
      "contain": 2309,
      "univer": 2310,
      "##TEL": 2311,
      "Second": 2312,
      "equal": 2313,
      "estim": 2314,
      "mark": 2315,
      "demonstr": 2316,
      "fields": 2317,
      "promotion": 2318,
      "proposed": 2319,
      "princip": 2320,
      "fram": 2321,
      "minorities": 2322,
      "meteorological": 2323,
      "electr": 2324,
      "welcomed": 2325,
      "exchange": 2326,
      "scheduled": 2327,
      "39": 2328,
      "NG": 2329,
      "Niger": 2330,
      "Sw": 2331,
      "cle": 2332,
      "cultural": 2333,
      "dam": 2334,
      "fail": 2335,
      "less": 2336,
      "pen": 2337,
      "rac": 2338,
      "##OT": 2339,
      "##ala": 2340,
      "##rees": 2341,
      "sum": 2342,
      "##tual": 2343,
      "##ework": 2344,
      "##ifth": 2345,
      "observed": 2346,
      "account": 2347,
      "participate": 2348,
      "elected": 2349,
      "Technology": 2350,
      "detailed": 2351,
      "emergency": 2352,
      "quality": 2353,
      "Scientific": 2354,
      "understanding": 2355,
      "sustainable": 2356,
      "Further": 2357,
      "Fren": 2358,
      "Global": 2359,
      "around": 2360,
      "cam": 2361,
      "fem": 2362,
      "section": 2363,
      "way": 2364,
      "##way": 2365,
      "##tes": 2366,
      "##ior": 2367,
      "##AS": 2368,
      "##ored": 2369,
      "##ancial": 2370,
      "##ison": 2371,
      "##pati": 2372,
      "super": 2373,
      "star": 2374,
      "1982": 2375,
      "organization": 2376,
      "facility": 2377,
      "facilit": 2378,
      "##struc": 2379,
      "presented": 2380,
      "##ATIONS": 2381,
      "full": 2382,
      "Canada": 2383,
      "dialogue": 2384,
      "French": 2385,
      "Roman": 2386,
      "Uses": 2387,
      "air": 2388,
      "spon": 2389,
      "##ible": 2390,
      "##ron": 2391,
      "##IC": 2392,
      "##ID": 2393,
      "##ured": 2394,
      "##cipl": 2395,
      "respec": 2396,
      "##titude": 2397,
      "##epend": 2398,
      "accur": 2399,
      "claim": 2400,
      "Adv": 2401,
      "identify": 2402,
      "problem": 2403,
      "Article": 2404,
      "costs": 2405,
      "Peaceful": 2406,
      "Workshop": 2407,
      "warning": 2408,
      "encoura": 2409,
      "Subcomm": 2410,
      "every": 2411,
      "exercise": 2412,
      "framework": 2413,
      "FAO": 2414,
      "How": 2415,
      "Servic": 2416,
      "Stud": 2417,
      "called": 2418,
      "few": 2419,
      "found": 2420,
      "##sors": 2421,
      "##ED": 2422,
      "##UC": 2423,
      "##ME": 2424,
      "##ering": 2425,
      "##ationary": 2426,
      "##reed": 2427,
      "real": 2428,
      "retur": 2429,
      "dist": 2430,
      "##anda": 2431,
      "regular": 2432,
      "1983": 2433,
      "workers": 2434,
      "##ometer": 2435,
      "NATION": 2436,
      "implemented": 2437,
      "spe": 2438,
      "experience": 2439,
      "##osphere": 2440,
      "##ostationary": 2441,
      "fully": 2442,
      "occurr": 2443,
      "explained": 2444,
      "benefits": 2445,
      "industrial": 2446,
      "undertaken": 2447,
      "territory": 2448,
      "certain": 2449,
      "illiter": 2450,
      "infrastructure": 2451,
      "However": 2452,
      "200": 2453,
      "32": 2454,
      "Ari": 2455,
      "Ele": 2456,
      "Since": 2457,
      "SAR": 2458,
      "Vi": 2459,
      "million": 2460,
      "sources": 2461,
      "sectors": 2462,
      "tas": 2463,
      "upon": 2464,
      "##atic": 2465,
      "##uge": 2466,
      "##pe": 2467,
      "##ps": 2468,
      "##EO": 2469,
      "##TRO": 2470,
      "##ecting": 2471,
      "concept": 2472,
      "disse": 2473,
      "agreed": 2474,
      "1985": 2475,
      "poin": 2476,
      "rati": 2477,
      "Decree": 2478,
      "security": 2479,
      "involving": 2480,
      "ess": 2481,
      "capabilities": 2482,
      "identified": 2483,
      "mapping": 2484,
      "judge": 2485,
      "SPOT": 2486,
      "##ledge": 2487,
      "##arsat": 2488,
      "governmental": 2489,
      "Federal": 2490,
      "coordination": 2491,
      "feat": 2492,
      "function": 2493,
      "procedures": 2494,
      "Sensing": 2495,
      "workshops": 2496,
      "UNDCP": 2497,
      "describ": 2498,
      "average": 2499,
      "date": 2500,
      "even": 2501,
      "phen": 2502,
      "##land": 2503,
      "##io": 2504,
      "##bia": 2505,
      "##ply": 2506,
      "##SC": 2507,
      "##AM": 2508,
      "##tims": 2509,
      "##arily": 2510,
      "took": 2511,
      "##ised": 2512,
      "##teenth": 2513,
      "##rib": 2514,
      "deal": 2515,
      "aspects": 2516,
      "sug": 2517,
      "alle": 2518,
      "1987": 2519,
      "109": 2520,
      "NAS": 2521,
      "therefore": 2522,
      "##aving": 2523,
      "amend": 2524,
      "responsibility": 2525,
      "atmosphere": 2526,
      "elements": 2527,
      "selected": 2528,
      "complaints": 2529,
      "affected": 2530,
      "France": 2531,
      "proceedings": 2532,
      "delegation": 2533,
      "##TELSAT": 2534,
      "35": 2535,
      "42": 2536,
      "Lands": 2537,
      "Mo": 2538,
      "Man": 2539,
      "Wh": 2540,
      "ii": 2541,
      "size": 2542,
      "##mar": 2543,
      "##ots": 2544,
      "##net": 2545,
      "##vity": 2546,
      "##DUC": 2547,
      "##aran": 2548,
      "##sibilities": 2549,
      "expa": 2550,
      "##ides": 2551,
      "##abour": 2552,
      "whose": 2553,
      "anten": 2554,
      "another": 2555,
      "##ional": 2556,
      "##ariat": 2557,
      "open": 2558,
      "strateg": 2559,
      "phase": 2560,
      "geostationary": 2561,
      "serious": 2562,
      "##aboratory": 2563,
      "mentioned": 2564,
      "receiving": 2565,
      "settle": 2566,
      "urg": 2567,
      "Exper": 2568,
      "performance": 2569,
      "indicated": 2570,
      "users": 2571,
      "primary": 2572,
      "victims": 2573,
      "judicial": 2574,
      "principal": 2575,
      "Eleventh": 2576,
      "phenomen": 2577,
      "NASDA": 2578,
      "36": 2579,
      "Special": 2580,
      "World": 2581,
      "good": 2582,
      "now": 2583,
      "ver": 2584,
      "##osition": 2585,
      "##ute": 2586,
      "##ground": 2587,
      "##ves": 2588,
      "##AD": 2589,
      "##time": 2590,
      "##isms": 2591,
      "##ased": 2592,
      "dev": 2593,
      "recently": 2594,
      "play": 2595,
      "provides": 2596,
      "courts": 2597,
      "nature": 2598,
      "model": 2599,
      "##ENT": 2600,
      "Science": 2601,
      "financial": 2602,
      "cosm": 2603,
      "relief": 2604,
      "priority": 2605,
      "risk": 2606,
      "NGO": 2607,
      "essential": 2608,
      "expand": 2609,
      "AR": 2610,
      "BY": 2611,
      "Other": 2612,
      "Sal": 2613,
      "Tenth": 2614,
      "light": 2615,
      "mand": 2616,
      "tem": 2617,
      "##wide": 2618,
      "##know": 2619,
      "##OL": 2620,
      "##inary": 2621,
      "##alf": 2622,
      "##anti": 2623,
      "##isc": 2624,
      "##oud": 2625,
      "##raz": 2626,
      "##rative": 2627,
      "##ries": 2628,
      "##ador": 2629,
      "annex": 2630,
      "interp": 2631,
      "technological": 2632,
      "short": 2633,
      "operations": 2634,
      "press": 2635,
      "better": 2636,
      "1972": 2637,
      "Acc": 2638,
      "##rowave": 2639,
      "survey": 2640,
      "coverage": 2641,
      "refuge": 2642,
      "weather": 2643,
      "objective": 2644,
      "created": 2645,
      "guaran": 2646,
      "##ancing": 2647,
      "declaration": 2648,
      "##reciation": 2649,
      "##chers": 2650,
      "hazard": 2651,
      "broadc": 2652,
      "Yugoslavia": 2653,
      "Swed": 2654,
      "Landsat": 2655,
      "guarante": 2656,
      "43": 2657,
      "CN": 2658,
      "One": 2659,
      "Sun": 2660,
      "band": 2661,
      "et": 2662,
      "food": 2663,
      "great": 2664,
      "hour": 2665,
      "sep": 2666,
      "##by": 2667,
      "##II": 2668,
      "tool": 2669,
      "##rehen": 2670,
      "remo": 2671,
      "forces": 2672,
      "const": 2673,
      "##emic": 2674,
      "##ticles": 2675,
      "energy": 2676,
      "note": 2677,
      "##ancement": 2678,
      "aged": 2679,
      "central": 2680,
      "1984": 2681,
      "##istrative": 2682,
      "concent": 2683,
      "manag": 2684,
      "105": 2685,
      "##rought": 2686,
      "find": 2687,
      "##pacity": 2688,
      "##poses": 2689,
      "transmission": 2690,
      "INTELSAT": 2691,
      "##TED": 2692,
      "purposes": 2693,
      "maintain": 2694,
      "improved": 2695,
      "maxim": 2696,
      "according": 2697,
      "India": 2698,
      "veget": 2699,
      "conflic": 2700,
      "Latin": 2701,
      "knowledge": 2702,
      "jointly": 2703,
      "##sequently": 2704,
      "Canadian": 2705,
      "questions": 2706,
      "Supreme": 2707,
      "physical": 2708,
      "assessment": 2709,
      "collaboration": 2710,
      "achieve": 2711,
      "terrorist": 2712,
      "mitigation": 2713,
      "38": 2714,
      "Civil": 2715,
      "Four": 2716,
      "Grou": 2717,
      "Im": 2718,
      "Rw": 2719,
      "Twelfth": 2720,
      "bir": 2721,
      "cust": 2722,
      "day": 2723,
      "him": 2724,
      "test": 2725,
      "##ets": 2726,
      "##lia": 2727,
      "##less": 2728,
      "##oid": 2729,
      "##istic": 2730,
      "##itiz": 2731,
      "##rome": 2732,
      "##veness": 2733,
      "adequ": 2734,
      "income": 2735,
      "articles": 2736,
      "relations": 2737,
      "##app": 2738,
      "polar": 2739,
      "##ropical": 2740,
      "prevention": 2741,
      "strong": 2742,
      "##ployment": 2743,
      "freedom": 2744,
      "benefit": 2745,
      "practical": 2746,
      "question": 2747,
      "aimed": 2748,
      "imagery": 2749,
      "build": 2750,
      "NGOs": 2751,
      "etc": 2752,
      "##liament": 2753,
      "Cl": 2754,
      "EN": 2755,
      "Eighth": 2756,
      "Fin": 2757,
      "ISA": 2758,
      "Ninth": 2759,
      "Ocean": 2760,
      "PRO": 2761,
      "har": 2762,
      "ocean": 2763,
      "self": 2764,
      "tre": 2765,
      "targe": 2766,
      "wind": 2767,
      "##ians": 2768,
      "##nel": 2769,
      "##ued": 2770,
      "##dic": 2771,
      "##LE": 2772,
      "##joy": 2773,
      "##onic": 2774,
      "##orne": 2775,
      "thus": 2776,
      "##urn": 2777,
      "constitutional": 2778,
      "parts": 2779,
      "##act": 2780,
      "percent": 2781,
      "enjoy": 2782,
      "##ends": 2783,
      "meet": 2784,
      "incorpor": 2785,
      "informed": 2786,
      "independ": 2787,
      "submission": 2788,
      "##oung": 2789,
      "1979": 2790,
      "court": 2791,
      "##ditional": 2792,
      "makers": 2793,
      "##ship": 2794,
      "initial": 2795,
      "UNEP": 2796,
      "legislative": 2797,
      "micro": 2798,
      "##ilitary": 2799,
      "##faction": 2800,
      "Coop": 2801,
      "Seventh": 2802,
      "offered": 2803,
      "determine": 2804,
      "agricultural": 2805,
      "Germany": 2806,
      "##ribun": 2807,
      "Rwanda": 2808,
      "Ec": 2809,
      "Governments": 2810,
      "Member": 2811,
      "PR": 2812,
      "SU": 2813,
      "cal": 2814,
      "census": 2815,
      "fig": 2816,
      "las": 2817,
      "nation": 2818,
      "pa": 2819,
      "past": 2820,
      "young": 2821,
      "##uted": 2822,
      "##utions": 2823,
      "forms": 2824,
      "conte": 2825,
      "##ached": 2826,
      "##tral": 2827,
      "##overty": 2828,
      "common": 2829,
      "coast": 2830,
      "##jected": 2831,
      "##ording": 2832,
      "presence": 2833,
      "head": 2834,
      "transmit": 2835,
      "Admin": 2836,
      "receive": 2837,
      "Forms": 2838,
      "covered": 2839,
      "Eng": 2840,
      "become": 2841,
      "preparation": 2842,
      "contribute": 2843,
      "team": 2844,
      "primarily": 2845,
      "individuals": 2846,
      "type": 2847,
      "saf": 2848,
      "Social": 2849,
      "struct": 2850,
      "property": 2851,
      "Board": 2852,
      "obligations": 2853,
      "Subcommittee": 2854,
      "##rehensive": 2855,
      "context": 2856,
      "41": 2857,
      "COM": 2858,
      "SR": 2859,
      "Sixth": 2860,
      "che": 2861,
      "our": 2862,
      "pil": 2863,
      "##ibility": 2864,
      "##rit": 2865,
      "##rel": 2866,
      "##menting": 2867,
      "##nia": 2868,
      "##OP": 2869,
      "##po": 2870,
      "##ticip": 2871,
      "##ones": 2872,
      "##ese": 2873,
      "incid": 2874,
      "##atform": 2875,
      "##itan": 2876,
      "##ingle": 2877,
      "##mental": 2878,
      "prosec": 2879,
      "construc": 2880,
      "exc": 2881,
      "actions": 2882,
      "acknow": 2883,
      "##ably": 2884,
      "##osm": 2885,
      "platform": 2886,
      "Those": 2887,
      "subst": 2888,
      "compon": 2889,
      "appeal": 2890,
      "prevent": 2891,
      "Prot": 2892,
      "upper": 2893,
      "1970": 2894,
      "capacity": 2895,
      "telesc": 2896,
      "Europe": 2897,
      "collision": 2898,
      "establishing": 2899,
      "defence": 2900,
      "remain": 2901,
      "promoting": 2902,
      "body": 2903,
      "Third": 2904,
      "annual": 2905,
      "hyd": 2906,
      "mechanisms": 2907,
      "damage": 2908,
      "respectively": 2909,
      "tasks": 2910,
      "ISAS": 2911,
      "33": 2912,
      "Em": 2913,
      "Sur": 2914,
      "bud": 2915,
      "cr": 2916,
      "cap": 2917,
      "flo": 2918,
      "having": 2919,
      "ray": 2920,
      "rap": 2921,
      "woman": 2922,
      "##ners": 2923,
      "##uate": 2924,
      "##IV": 2925,
      "##tiveness": 2926,
      "then": 2927,
      "##itarian": 2928,
      "##isition": 2929,
      "reference": 2930,
      "forest": 2931,
      "dismis": 2932,
      "##grad": 2933,
      "##plementing": 2934,
      "##ubl": 2935,
      "abs": 2936,
      "cloud": 2937,
      "Center": 2938,
      "recommendation": 2939,
      "Meteor": 2940,
      "##ftware": 2941,
      "##atively": 2942,
      "consult": 2943,
      "decisions": 2944,
      "approved": 2945,
      "resulting": 2946,
      "##ING": 2947,
      "criminal": 2948,
      "Law": 2949,
      "directly": 2950,
      "media": 2951,
      "recognized": 2952,
      "said": 2953,
      "successfully": 2954,
      "Concerning": 2955,
      "evaluation": 2956,
      "living": 2957,
      "database": 2958,
      "Belar": 2959,
      "interpret": 2960,
      "According": 2961,
      "broadcasting": 2962,
      "hours": 2963,
      "Group": 2964,
      "Braz": 2965,
      "EU": 2966,
      "Mon": 2967,
      "Nic": 2968,
      "Such": 2969,
      "Tan": 2970,
      "Under": 2971,
      "Wa": 2972,
      "Zeal": 2973,
      "crop": 2974,
      "mid": 2975,
      "outer": 2976,
      "single": 2977,
      "##ward": 2978,
      "##ls": 2979,
      "##hold": 2980,
      "##ped": 2981,
      "##gment": 2982,
      "##xy": 2983,
      "##erve": 2984,
      "##eness": 2985,
      "##ither": 2986,
      "##arag": 2987,
      "constitu": 2988,
      "##ules": 2989,
      "orb": 2990,
      "##portion": 2991,
      "##ung": 2992,
      "exist": 2993,
      "resource": 2994,
      "##force": 2995,
      "##ions": 2996,
      "enabl": 2997,
      "statis": 2998,
      "##eph": 2999,
      "relig": 3000,
      "computer": 3001,
      "composition": 3002,
      "decided": 3003,
      "university": 3004,
      "suppl": 3005,
      "##ified": 3006,
      "predic": 3007,
      "spect": 3008,
      "transport": 3009,
      "module": 3010,
      "III": 3011,
      "give": 3012,
      "office": 3013,
      "deliver": 3014,
      "microwave": 3015,
      "industry": 3016,
      "opportunity": 3017,
      "##medi": 3018,
      "administration": 3019,
      "emphasis": 3020,
      "functions": 3021,
      "leaders": 3022,
      "types": 3023,
      "committed": 3024,
      "bring": 3025,
      "methods": 3026,
      "market": 3027,
      "started": 3028,
      "Ariane": 3029,
      "sugg": 3030,
      "vegetation": 3031,
      "pilot": 3032,
      "Brazil": 3033,
      "Nicarag": 3034,
      "Zealand": 3035,
      "Mission": 3036,
      "More": 3037,
      "Pol": 3038,
      "Ros": 3039,
      "hand": 3040,
      "house": 3041,
      "justice": 3042,
      "ke": 3043,
      "military": 3044,
      "poverty": 3045,
      "publ": 3046,
      "six": 3047,
      "##kild": 3048,
      "##ym": 3049,
      "##put": 3050,
      "##ana": 3051,
      "proportion": 3052,
      "begin": 3053,
      "##lying": 3054,
      "exten": 3055,
      "developments": 3056,
      "compared": 3057,
      "comprehensive": 3058,
      "software": 3059,
      "##rises": 3060,
      "clas": 3061,
      "##ification": 3062,
      "111": 3063,
      "teleph": 3064,
      "variety": 3065,
      "Norway": 3066,
      "matter": 3067,
      "##ectoral": 3068,
      "thirty": 3069,
      "growing": 3070,
      "guid": 3071,
      "user": 3072,
      "administrative": 3073,
      "procedure": 3074,
      "acquisition": 3075,
      "events": 3076,
      "mothers": 3077,
      "difficul": 3078,
      "##onauts": 3079,
      "companies": 3080,
      "Nigeria": 3081,
      "Romania": 3082,
      "features": 3083,
      "maximum": 3084,
      "Belarus": 3085,
      "Roskild": 3086,
      "Roskilde": 3087,
      "48": 3088,
      "Justice": 3089,
      "Network": 3090,
      "PER": 3091,
      "Source": 3092,
      "Ter": 3093,
      "col": 3094,
      "citiz": 3095,
      "eighth": 3096,
      "gir": 3097,
      "mig": 3098,
      "sl": 3099,
      "wave": 3100,
      "##ya": 3101,
      "##ole": 3102,
      "##uable": 3103,
      "##ION": 3104,
      "##EOS": 3105,
      "##ST": 3106,
      "##MM": 3107,
      "##esting": 3108,
      "##ature": 3109,
      "##itable": 3110,
      "##istics": 3111,
      "##asc": 3112,
      "reas": 3113,
      "along": 3114,
      "itself": 3115,
      "That": 3116,
      "appreciation": 3117,
      "##enced": 3118,
      "months": 3119,
      "throughout": 3120,
      "highly": 3121,
      "laws": 3122,
      "##netic": 3123,
      "phot": 3124,
      "Ministers": 3125,
      "sessions": 3126,
      "products": 3127,
      "maps": 3128,
      "issue": 3129,
      "critical": 3130,
      "addressed": 3131,
      "##ximately": 3132,
      "obtained": 3133,
      "concluding": 3134,
      "minimum": 3135,
      "language": 3136,
      "satisfaction": 3137,
      "treatment": 3138,
      "referred": 3139,
      "degrees": 3140,
      "departments": 3141,
      "summ": 3142,
      "NATIONS": 3143,
      "described": 3144,
      "conflict": 3145,
      "acknowled": 3146,
      "budget": 3147,
      "girls": 3148,
      "47": 3149,
      "61": 3150,
      "95": 3151,
      "Bos": 3152,
      "Cari": 3153,
      "Ser": 3154,
      "able": 3155,
      "cm": 3156,
      "latter": 3157,
      "ninth": 3158,
      "rates": 3159,
      "ten": 3160,
      "uses": 3161,
      "##ease": 3162,
      "##bean": 3163,
      "##uts": 3164,
      "##AT": 3165,
      "##hest": 3166,
      "##ona": 3167,
      "often": 3168,
      "##areness": 3169,
      "##ica": 3170,
      "##isory": 3171,
      "##reak": 3172,
      "##urs": 3173,
      "##uration": 3174,
      "##sities": 3175,
      "##paign": 3176,
      "##restri": 3177,
      "altitude": 3178,
      "immedi": 3179,
      "Communications": 3180,
      "regret": 3181,
      "##ouses": 3182,
      "appear": 3183,
      "expert": 3184,
      "peace": 3185,
      "spouses": 3186,
      "Among": 3187,
      "located": 3188,
      "Atlan": 3189,
      "purs": 3190,
      "Agric": 3191,
      "effort": 3192,
      "roots": 3193,
      "initiated": 3194,
      "UNI": 3195,
      "official": 3196,
      "remed": 3197,
      "Although": 3198,
      "Particip": 3199,
      "discussion": 3200,
      "##sequent": 3201,
      "infrared": 3202,
      "integration": 3203,
      "Observation": 3204,
      "awareness": 3205,
      "Regional": 3206,
      "##ross": 3207,
      "gener": 3208,
      "focus": 3209,
      "supported": 3210,
      "autonom": 3211,
      "positions": 3212,
      "##patial": 3213,
      "facilitate": 3214,
      "Experi": 3215,
      "##appear": 3216,
      "##ribunal": 3217,
      "Carib": 3218,
      "##restrial": 3219,
      "59": 3220,
      "500": 3221,
      "Astr": 3222,
      "Dir": 3223,
      "FY": 3224,
      "Tra": 3225,
      "call": 3226,
      "fell": 3227,
      "hard": 3228,
      "item": 3229,
      "lo": 3230,
      "late": 3231,
      "last": 3232,
      "son": 3233,
      "serv": 3234,
      "via": 3235,
      "yet": 3236,
      "##iary": 3237,
      "##nov": 3238,
      "##borne": 3239,
      "##dom": 3240,
      "##duce": 3241,
      "##zone": 3242,
      "##iness": 3243,
      "##aring": 3244,
      "##outhern": 3245,
      "read": 3246,
      "repl": 3247,
      "##igation": 3248,
      "act": 3249,
      "although": 3250,
      "##imate": 3251,
      "##earchers": 3252,
      "staff": 3253,
      "Union": 3254,
      "##ocra": 3255,
      "##ived": 3256,
      "travel": 3257,
      "invest": 3258,
      "orbits": 3259,
      "1971": 3260,
      "Decade": 3261,
      "reporting": 3262,
      "personnel": 3263,
      "possibility": 3264,
      "##evision": 3265,
      "influ": 3266,
      "continuing": 3267,
      "job": 3268,
      "analy": 3269,
      "complex": 3270,
      "final": 3271,
      "address": 3272,
      "known": 3273,
      "highest": 3274,
      "Secretariat": 3275,
      "REP": 3276,
      "integrated": 3277,
      "emphasized": 3278,
      "generation": 3279,
      "steps": 3280,
      "##ierra": 3281,
      "introduced": 3282,
      "professional": 3283,
      "campaign": 3284,
      "Cooperation": 3285,
      "COMM": 3286,
      "UNITED": 3287,
      "Caribbean": 3288,
      "AD": 3289,
      "And": 3290,
      "Cro": 3291,
      "From": 3292,
      "FOR": 3293,
      "Fifth": 3294,
      "GP": 3295,
      "King": 3296,
      "Ph": 3297,
      "Some": 3298,
      "Sierra": 3299,
      "Tribunal": 3300,
      "aer": 3301,
      "down": 3302,
      "jur": 3303,
      "labour": 3304,
      "mor": 3305,
      "spatial": 3306,
      "##tely": 3307,
      "##pt": 3308,
      "##LO": 3309,
      "##RR": 3310,
      "##UL": 3311,
      "##oration": 3312,
      "##itang": 3313,
      "##elines": 3314,
      "beh": 3315,
      "##cipa": 3316,
      "##porte": 3317,
      "restric": 3318,
      "##osed": 3319,
      "permit": 3320,
      "imm": 3321,
      "##umin": 3322,
      "##udic": 3323,
      "agency": 3324,
      "agenda": 3325,
      "##ives": 3326,
      "relatively": 3327,
      "traffic": 3328,
      "participa": 3329,
      "sensors": 3330,
      "Project": 3331,
      "operating": 3332,
      "students": 3333,
      "##aties": 3334,
      "television": 3335,
      "lands": 3336,
      "launching": 3337,
      "Minister": 3338,
      "serve": 3339,
      "lower": 3340,
      "proposals": 3341,
      "##ength": 3342,
      "factors": 3343,
      "famil": 3344,
      "funding": 3345,
      "REC": 3346,
      "Radar": 3347,
      "enhance": 3348,
      "structure": 3349,
      "below": 3350,
      "racism": 3351,
      "Service": 3352,
      "return": 3353,
      "##iscal": 3354,
      "Waitang": 3355,
      "acknowledged": 3356,
      "Kingdom": 3357,
      "participating": 3358,
      "Waitangi": 3359,
      "65": 3360,
      "68": 3361,
      "70": 3362,
      "AV": 3363,
      "AG": 3364,
      "Aer": 3365,
      "By": 3366,
      "Cosm": 3367,
      "Land": 3368,
      "Laboratory": 3369,
      "Mor": 3370,
      "Treat": 3371,
      "ast": 3372,
      "fle": 3373,
      "free": 3374,
      "syn": 3375,
      "wished": 3376,
      "wide": 3377,
      "##eti": 3378,
      "##hab": 3379,
      "##mal": 3380,
      "##amental": 3381,
      "##zan": 3382,
      "##SO": 3383,
      "##PE": 3384,
      "##CO": 3385,
      "##MS": 3386,
      "##omin": 3387,
      "##reg": 3388,
      "##olesc": 3389,
      "began": 3390,
      "##emin": 3391,
      "##unic": 3392,
      "actual": 3393,
      "implementing": 3394,
      "Commun": 3395,
      "regulations": 3396,
      "armed": 3397,
      "##aged": 3398,
      "others": 3399,
      "##crimin": 3400,
      "##TIC": 3401,
      "assum": 3402,
      "follows": 3403,
      "caused": 3404,
      "Activ": 3405,
      "formulation": 3406,
      "recommended": 3407,
      "Ass": 3408,
      "models": 3409,
      "effectiveness": 3410,
      "INTRO": 3411,
      "##TEN": 3412,
      "margin": 3413,
      "mainly": 3414,
      "detection": 3415,
      "initiatives": 3416,
      "officials": 3417,
      "approach": 3418,
      "Course": 3419,
      "medical": 3420,
      "networks": 3421,
      "combat": 3422,
      "##ynam": 3423,
      "difficult": 3424,
      "standard": 3425,
      "reflected": 3426,
      "tracking": 3427,
      "penal": 3428,
      "##DUCTION": 3429,
      "mandate": 3430,
      "temper": 3431,
      "adequate": 3432,
      "treaties": 3433,
      "laser": 3434,
      "interpretation": 3435,
      "orbiting": 3436,
      "##ocratic": 3437,
      "Treaty": 3438,
      "INTRODUCTION": 3439,
      "63": 3440,
      "64": 3441,
      "80": 3442,
      "82": 3443,
      "Aust": 3444,
      "Her": 3445,
      "If": 3446,
      "Its": 3447,
      "Plan": 3448,
      "SEX": 3449,
      "TR": 3450,
      "ball": 3451,
      "der": 3452,
      "either": 3453,
      "half": 3454,
      "line": 3455,
      "nav": 3456,
      "sk": 3457,
      "##lands": 3458,
      "##marsat": 3459,
      "##vador": 3460,
      "##TH": 3461,
      "##era": 3462,
      "##arc": 3463,
      "##assive": 3464,
      "reform": 3465,
      "##ray": 3466,
      "##rain": 3467,
      "exec": 3468,
      "##tices": 3469,
      "researchers": 3470,
      "Inmarsat": 3471,
      "##ime": 3472,
      "interac": 3473,
      "placed": 3474,
      "##ivision": 3475,
      "chan": 3476,
      "sets": 3477,
      "Through": 3478,
      "manned": 3479,
      "107": 3480,
      "supplement": 3481,
      "supply": 3482,
      "##ishing": 3483,
      "##ishment": 3484,
      "represented": 3485,
      "post": 3486,
      "populations": 3487,
      "reported": 3488,
      "personal": 3489,
      "overall": 3490,
      "situ": 3491,
      "respond": 3492,
      "##ospheric": 3493,
      "##ameter": 3494,
      "advant": 3495,
      "demand": 3496,
      "reduce": 3497,
      "availability": 3498,
      "offices": 3499,
      "approximately": 3500,
      "solid": 3501,
      "Indian": 3502,
      "occup": 3503,
      "discussed": 3504,
      "fundamental": 3505,
      "Report": 3506,
      "Observatory": 3507,
      "Telecommunications": 3508,
      "utilization": 3509,
      "recorded": 3510,
      "cooperative": 3511,
      "universities": 3512,
      "equality": 3513,
      "female": 3514,
      "spons": 3515,
      "Studies": 3516,
      "points": 3517,
      "antenna": 3518,
      "phenomena": 3519,
      "Salvador": 3520,
      "Administration": 3521,
      "Tanzan": 3522,
      "telephone": 3523,
      "difficulties": 3524,
      "Bosnia": 3525,
      "Croati": 3526,
      "66": 3527,
      "90": 3528,
      "Dem": 3529,
      "GO": 3530,
      "High": 3531,
      "Page": 3532,
      "Public": 3533,
      "STA": 3534,
      "Two": 3535,
      "bur": 3536,
      "bus": 3537,
      "break": 3538,
      "cand": 3539,
      "ear": 3540,
      "much": 3541,
      "pat": 3542,
      "put": 3543,
      "##ek": 3544,
      "##ta": 3545,
      "##iance": 3546,
      "##rated": 3547,
      "##yc": 3548,
      "##aw": 3549,
      "##zeg": 3550,
      "##MO": 3551,
      "proh": 3552,
      "confer": 3553,
      "sufficient": 3554,
      "exposed": 3555,
      "acad": 3556,
      "##owship": 3557,
      "discrimin": 3558,
      "enforce": 3559,
      "##ocity": 3560,
      "##ills": 3561,
      "##ape": 3562,
      "subs": 3563,
      "decade": 3564,
      "appar": 3565,
      "applied": 3566,
      "sciences": 3567,
      "representation": 3568,
      "##ISP": 3569,
      "close": 3570,
      "fuel": 3571,
      "site": 3572,
      "sites": 3573,
      "110": 3574,
      "whole": 3575,
      "flow": 3576,
      "##ameters": 3577,
      "involvement": 3578,
      "##ographical": 3579,
      "grounds": 3580,
      "capable": 3581,
      "initiative": 3582,
      "identification": 3583,
      "conduct": 3584,
      "##ique": 3585,
      "Argen": 3586,
      "attend": 3587,
      "##ovina": 3588,
      "minority": 3589,
      "vehicles": 3590,
      "imaging": 3591,
      "COP": 3592,
      "concluded": 3593,
      "frequency": 3594,
      "strengthe": 3595,
      "illiteracy": 3596,
      "settlement": 3597,
      "PERU": 3598,
      "Participants": 3599,
      "Herzeg": 3600,
      "Argentin": 3601,
      "Herzegovina": 3602,
      "62": 3603,
      "Ay": 3604,
      "Cam": 3605,
      "OU": 3606,
      "PE": 3607,
      "aid": 3608,
      "best": 3609,
      "done": 3610,
      "gender": 3611,
      "gala": 3612,
      "home": 3613,
      "hold": 3614,
      "kg": 3615,
      "led": 3616,
      "ways": 3617,
      "##tled": 3618,
      "##iber": 3619,
      "##ield": 3620,
      "##more": 3621,
      "##pan": 3622,
      "##vil": 3623,
      "##tification": 3624,
      "##estern": 3625,
      "##ins": 3626,
      "inten": 3627,
      "##isdic": 3628,
      "rev": 3629,
      "threat": 3630,
      "##olved": 3631,
      "##urric": 3632,
      "suffer": 3633,
      "parameters": 3634,
      "##gravity": 3635,
      "##uses": 3636,
      "register": 3637,
      "obs": 3638,
      "##aging": 3639,
      "##eption": 3640,
      "##atest": 3641,
      "##overning": 3642,
      "alloc": 3643,
      "sea": 3644,
      "Thail": 3645,
      "traditional": 3646,
      "manner": 3647,
      "includes": 3648,
      "launcher": 3649,
      "requests": 3650,
      "until": 3651,
      "operated": 3652,
      "concerns": 3653,
      "participated": 3654,
      "humanitarian": 3655,
      "taking": 3656,
      "economy": 3657,
      "diameter": 3658,
      "INE": 3659,
      "collection": 3660,
      "direction": 3661,
      "adoption": 3662,
      "North": 3663,
      "improving": 3664,
      "##tality": 3665,
      "endor": 3666,
      "radiation": 3667,
      "Also": 3668,
      "micros": 3669,
      "creation": 3670,
      "Health": 3671,
      "contributions": 3672,
      "meteorology": 3673,
      "exped": 3674,
      "reduction": 3675,
      "reduced": 3676,
      "commitment": 3677,
      "characteristics": 3678,
      "standards": 3679,
      "sentence": 3680,
      "grass": 3681,
      "contracts": 3682,
      "accuracy": 3683,
      "claims": 3684,
      "occurred": 3685,
      "dissemination": 3686,
      "While": 3687,
      "refugees": 3688,
      "household": 3689,
      "jurisdic": 3690,
      "##porteur": 3691,
      "Moroc": 3692,
      "Activities": 3693,
      "academic": 3694,
      "OUTER": 3695,
      "##ville": 3696,
      "Thailand": 3697,
      "EC": 3698,
      "EAP": 3699,
      "Jord": 3700,
      "Mus": 3701,
      "Nat": 3702,
      "Pen": 3703,
      "Pri": 3704,
      "Rap": 3705,
      "Sol": 3706,
      "billion": 3707,
      "host": 3708,
      "outs": 3709,
      "ren": 3710,
      "sw": 3711,
      "source": 3712,
      "tropical": 3713,
      "vital": 3714,
      "##ling": 3715,
      "##lim": 3716,
      "##turing": 3717,
      "##mon": 3718,
      "##gn": 3719,
      "##EC": 3720,
      "##SL": 3721,
      "##LI": 3722,
      "thems": 3723,
      "institution": 3724,
      "##roll": 3725,
      "##ented": 3726,
      "##elves": 3727,
      "##olitan": 3728,
      "consequ": 3729,
      "##rid": 3730,
      "##idad": 3731,
      "resid": 3732,
      "ang": 3733,
      "##acu": 3734,
      "disappear": 3735,
      "Cont": 3736,
      "##amma": 3737,
      "stressed": 3738,
      "##overy": 3739,
      "adj": 3740,
      "committee": 3741,
      "commission": 3742,
      "reception": 3743,
      "subjected": 3744,
      "subsequent": 3745,
      "compet": 3746,
      "competi": 3747,
      "soil": 3748,
      "##ropolitan": 3749,
      "operate": 3750,
      "prison": 3751,
      "raised": 3752,
      "followed": 3753,
      "timely": 3754,
      "lawy": 3755,
      "authority": 3756,
      "extended": 3757,
      "extreme": 3758,
      "##oster": 3759,
      "matern": 3760,
      "UNISP": 3761,
      "resulted": 3762,
      "defined": 3763,
      "secondary": 3764,
      "radiometer": 3765,
      "Japanese": 3766,
      "proposal": 3767,
      "##ITY": 3768,
      "allowed": 3769,
      "rockets": 3770,
      "Working": 3771,
      "like": 3772,
      "does": 3773,
      "##ircraft": 3774,
      "previously": 3775,
      "valuable": 3776,
      "topics": 3777,
      "universe": 3778,
      "Furthermore": 3779,
      "Advanced": 3780,
      "speak": 3781,
      "Swedish": 3782,
      "Fourth": 3783,
      "safety": 3784,
      "rapid": 3785,
      "Nicaragua": 3786,
      "##ympo": 3787,
      "classi": 3788,
      "remedies": 3789,
      "autonomous": 3790,
      "Experiment": 3791,
      "fellowship": 3792,
      "GPS": 3793,
      "immig": 3794,
      "marginal": 3795,
      "Tanzania": 3796,
      "microsatellit": 3797,
      "Jordan": 3798,
      "Muslim": 3799,
      "themselves": 3800,
      "UNISPACE": 3801,
      "AM": 3802,
      "Col": 3803,
      "Fund": 3804,
      "IRS": 3805,
      "Pre": 3806,
      "Pop": 3807,
      "Str": 3808,
      "SAC": 3809,
      "Sender": 3810,
      "aff": 3811,
      "brought": 3812,
      "cities": 3813,
      "gl": 3814,
      "gap": 3815,
      "hat": 3816,
      "ir": 3817,
      "los": 3818,
      "ozone": 3819,
      "vul": 3820,
      "##ees": 3821,
      "##fil": 3822,
      "##mes": 3823,
      "##avel": 3824,
      "##can": 3825,
      "##ches": 3826,
      "##ders": 3827,
      "##pul": 3828,
      "##HRR": 3829,
      "##GS": 3830,
      "##ories": 3831,
      "##inidad": 3832,
      "##rew": 3833,
      "##rael": 3834,
      "##sively": 3835,
      "##ciple": 3836,
      "1998": 3837,
      "organ": 3838,
      "##elling": 3839,
      "##itime": 3840,
      "attem": 3841,
      "##acher": 3842,
      "##uction": 3843,
      "##imb": 3844,
      "##etary": 3845,
      "comments": 3846,
      "adolesc": 3847,
      "compar": 3848,
      "##onomic": 3849,
      "sensed": 3850,
      "##tically": 3851,
      "##ipal": 3852,
      "upd": 3853,
      "opin": 3854,
      "thereby": 3855,
      "secret": 3856,
      "regards": 3857,
      "location": 3858,
      "partners": 3859,
      "##rolog": 3860,
      "advisory": 3861,
      "Security": 3862,
      "Northern": 3863,
      "peoples": 3864,
      "continuous": 3865,
      "approval": 3866,
      "Orbit": 3867,
      "contribution": 3868,
      "##iquid": 3869,
      "processes": 3870,
      "intended": 3871,
      "Expl": 3872,
      "schools": 3873,
      "CONTEN": 3874,
      "principle": 3875,
      "discussions": 3876,
      "practices": 3877,
      "reliability": 3878,
      "material": 3879,
      "shown": 3880,
      "exploitation": 3881,
      "hazards": 3882,
      "entitled": 3883,
      "cooperate": 3884,
      "Israel": 3885,
      "Trinidad": 3886,
      "languages": 3887,
      "engineering": 3888,
      "sexual": 3889,
      "larger": 3890,
      "electronic": 3891,
      "expanded": 3892,
      "remotely": 3893,
      "custom": 3894,
      "building": 3895,
      "components": 3896,
      "Survey": 3897,
      "Meteorological": 3898,
      "existence": 3899,
      "investment": 3900,
      "AVHRR": 3901,
      "##unicipal": 3902,
      "candid": 3903,
      "strengthening": 3904,
      "endorsed": 3905,
      "jurisdiction": 3906,
      "Natural": 3907,
      "Rapporteur": 3908,
      "Sendero": 3909,
      "vulner": 3910,
      "CONTENTS": 3911,
      "67": 3912,
      "Ara": 3913,
      "Bur": 3914,
      "CC": 3915,
      "DE": 3916,
      "LA": 3917,
      "Nam": 3918,
      "SA": 3919,
      "Te": 3920,
      "WOM": 3921,
      "aircraft": 3922,
      "don": 3923,
      "earth": 3924,
      "fiscal": 3925,
      "hist": 3926,
      "liquid": 3927,
      "ori": 3928,
      "rang": 3929,
      "rise": 3930,
      "rules": 3931,
      "wid": 3932,
      "##ring": 3933,
      "##yond": 3934,
      "##oon": 3935,
      "##agraph": 3936,
      "##ufac": 3937,
      "##cur": 3938,
      "##ging": 3939,
      "##EL": 3940,
      "##TO": 3941,
      "##oles": 3942,
      "conference": 3943,
      "death": 3944,
      "##cities": 3945,
      "##unication": 3946,
      "accept": 3947,
      "Integr": 3948,
      "entry": 3949,
      "##utes": 3950,
      "conclu": 3951,
      "manufac": 3952,
      "movement": 3953,
      "##estation": 3954,
      "launches": 3955,
      "appo": 3956,
      "##aily": 3957,
      "fire": 3958,
      "considerable": 3959,
      "1975": 3960,
      "112": 3961,
      "tele": 3962,
      "possibilities": 3963,
      "After": 3964,
      "##ensation": 3965,
      "directed": 3966,
      "produced": 3967,
      "protect": 3968,
      "conducting": 3969,
      "judges": 3970,
      "Parliament": 3971,
      "specifically": 3972,
      "employed": 3973,
      "compliance": 3974,
      "medium": 3975,
      "Peop": 3976,
      "leading": 3977,
      "lik": 3978,
      "precise": 3979,
      "elections": 3980,
      "repe": 3981,
      "Environmental": 3982,
      "nearly": 3983,
      "circum": 3984,
      "contract": 3985,
      "astronomy": 3986,
      "failure": 3987,
      "encourage": 3988,
      "urgent": 3989,
      "separ": 3990,
      "birth": 3991,
      "target": 3992,
      "independent": 3993,
      "microgravity": 3994,
      "nationwide": 3995,
      "paper": 3996,
      "Protection": 3997,
      "telescope": 3998,
      "guidelines": 3999,
      "summary": 4000,
      "ADEOS": 4001,
      "mortality": 4002,
      "families": 4003,
      "sponsored": 4004,
      "Croatia": 4005,
      "discriminatory": 4006,
      "Morocco": 4007,
      "Arab": 4008,
      "WOMEN": 4009,
      "55": 4010,
      "58": 4011,
      "75": 4012,
      "AID": 4013,
      "CR": 4014,
      "cred": 4015,
      "culture": 4016,
      "diver": 4017,
      "daily": 4018,
      "fifth": 4019,
      "gas": 4020,
      "ion": 4021,
      "lines": 4022,
      "municipal": 4023,
      "##men": 4024,
      "##nal": 4025,
      "##ger": 4026,
      "##LIS": 4027,
      "##GR": 4028,
      "##UN": 4029,
      "##tis": 4030,
      "##eding": 4031,
      "##ites": 4032,
      "##ental": 4033,
      "reached": 4034,
      "produce": 4035,
      "##ilt": 4036,
      "beyond": 4037,
      "concep": 4038,
      "##ades": 4039,
      "actively": 4040,
      "rest": 4041,
      "Inc": 4042,
      "Initi": 4043,
      "perpe": 4044,
      "##ucle": 4045,
      "##ittees": 4046,
      "##ama": 4047,
      "complement": 4048,
      "states": 4049,
      "provin": 4050,
      "interests": 4051,
      "segment": 4052,
      "abuse": 4053,
      "trade": 4054,
      "decre": 4055,
      "units": 4056,
      "##astern": 4057,
      "trend": 4058,
      "experts": 4059,
      "Note": 4060,
      "##ysics": 4061,
      "clos": 4062,
      "climate": 4063,
      "1974": 4064,
      "1978": 4065,
      "1977": 4066,
      "##avour": 4067,
      "installed": 4068,
      "responsibilities": 4069,
      "times": 4070,
      "Atmosp": 4071,
      "consist": 4072,
      "##ocket": 4073,
      "geographical": 4074,
      "demographic": 4075,
      "redress": 4076,
      "##ENC": 4077,
      "evidence": 4078,
      "remained": 4079,
      "##ANE": 4080,
      "financing": 4081,
      "##ecommunication": 4082,
      "fourth": 4083,
      "principl": 4084,
      "owners": 4085,
      "views": 4086,
      "##faces": 4087,
      "improvement": 4088,
      "feas": 4089,
      "significantly": 4090,
      "recognition": 4091,
      "undertake": 4092,
      "visible": 4093,
      "acquired": 4094,
      "1980s": 4095,
      "entire": 4096,
      "increasingly": 4097,
      "drawn": 4098,
      "carrying": 4099,
      "Thirteenth": 4100,
      "coordinating": 4101,
      "positive": 4102,
      "statement": 4103,
      "demonstrated": 4104,
      "clear": 4105,
      "racist": 4106,
      "accurate": 4107,
      "dissemin": 4108,
      "alleged": 4109,
      "CNES": 4110,
      "Engine": 4111,
      "religious": 4112,
      "published": 4113,
      "extensive": 4114,
      "citizens": 4115,
      "hardware": 4116,
      "navigation": 4117,
      "situations": 4118,
      "conferences": 4119,
      "hatred": 4120,
      "principles": 4121,
      "300": 4122,
      "400": 4123,
      "78": 4124,
      "92": 4125,
      "Cyp": 4126,
      "Each": 4127,
      "Great": 4128,
      "IV": 4129,
      "Lank": 4130,
      "Red": 4131,
      "Rocket": 4132,
      "Sri": 4133,
      "TM": 4134,
      "categ": 4135,
      "draft": 4136,
      "dynam": 4137,
      "eight": 4138,
      "fil": 4139,
      "gamma": 4140,
      "length": 4141,
      "mail": 4142,
      "rain": 4143,
      "rather": 4144,
      "semin": 4145,
      "vel": 4146,
      "vote": 4147,
      "##where": 4148,
      "##light": 4149,
      "##ming": 4150,
      "##cue": 4151,
      "##prises": 4152,
      "##gun": 4153,
      "##VEN": 4154,
      "##US": 4155,
      "##onal": 4156,
      "##enna": 4157,
      "##ortion": 4158,
      "inqu": 4159,
      "##atem": 4160,
      "##ateral": 4161,
      "##anes": 4162,
      "##anted": 4163,
      "##ansion": 4164,
      "##ansition": 4165,
      "##ishes": 4166,
      "##oming": 4167,
      "##rem": 4168,
      "##ash": 4169,
      "begun": 4170,
      "##ula": 4171,
      "##emed": 4172,
      "extern": 4173,
      "alia": 4174,
      "##quak": 4175,
      "stars": 4176,
      "regul": 4177,
      "regime": 4178,
      "##uds": 4179,
      "##ousing": 4180,
      "object": 4181,
      "council": 4182,
      "arch": 4183,
      "##ago": 4184,
      "##istan": 4185,
      "##istance": 4186,
      "motion": 4187,
      "##onomy": 4188,
      "##ually": 4189,
      "fix": 4190,
      "continues": 4191,
      "##IST": 4192,
      "Action": 4193,
      "outl": 4194,
      "peas": 4195,
      "spouse": 4196,
      "cann": 4197,
      "posts": 4198,
      "##TEE": 4199,
      "App": 4200,
      "surve": 4201,
      "##ARSAT": 4202,
      "Agenda": 4203,
      "Child": 4204,
      "131": 4205,
      "Disaster": 4206,
      "Indust": 4207,
      "defin": 4208,
      "differences": 4209,
      "##INE": 4210,
      "##mbuds": 4211,
      "lifetime": 4212,
      "majority": 4213,
      "crimes": 4214,
      "##ITTEE": 4215,
      "added": 4216,
      "factor": 4217,
      "practice": 4218,
      "investigation": 4219,
      "expansion": 4220,
      "metres": 4221,
      "metropolitan": 4222,
      "Guatem": 4223,
      "##onautical": 4224,
      "link": 4225,
      "linked": 4226,
      "quanti": 4227,
      "magnet": 4228,
      "volun": 4229,
      "payloads": 4230,
      "goals": 4231,
      "largest": 4232,
      "track": 4233,
      "containing": 4234,
      "estimated": 4235,
      "femin": 4236,
      "speed": 4237,
      "Vienna": 4238,
      "judgement": 4239,
      "amendment": 4240,
      "iii": 4241,
      "cosmonauts": 4242,
      "Economic": 4243,
      "figure": 4244,
      "structures": 4245,
      "chem": 4246,
      "hydrolog": 4247,
      "consultation": 4248,
      "Monitor": 4249,
      "suggested": 4250,
      "Director": 4251,
      "Training": 4252,
      "COMMITTEE": 4253,
      "Cosmos": 4254,
      "chann": 4255,
      "enforcement": 4256,
      "Ayacu": 4257,
      "perpetr": 4258,
      "Ayacucho": 4259,
      "69": 4260,
      "600": 4261,
      "Bec": 4262,
      "Back": 4263,
      "Division": 4264,
      "GRI": 4265,
      "Leg": 4266,
      "Lib": 4267,
      "Most": 4268,
      "Ne": 4269,
      "PC": 4270,
      "Rel": 4271,
      "VI": 4272,
      "Ven": 4273,
      "Vol": 4274,
      "VIT": 4275,
      "WMO": 4276,
      "Zimb": 4277,
      "cat": 4278,
      "drew": 4279,
      "efficient": 4280,
      "gained": 4281,
      "nine": 4282,
      "pan": 4283,
      "pun": 4284,
      "rule": 4285,
      "##ee": 4286,
      "##lam": 4287,
      "##hol": 4288,
      "##sy": 4289,
      "##sal": 4290,
      "##my": 4291,
      "##oted": 4292,
      "##ax": 4293,
      "##bago": 4294,
      "##gres": 4295,
      "##FUL": 4296,
      "##AE": 4297,
      "##GAN": 4298,
      "##BER": 4299,
      "ther": 4300,
      "##erous": 4301,
      "##estry": 4302,
      "##ali": 4303,
      "##arter": 4304,
      "##aries": 4305,
      "##ict": 4306,
      "##ising": 4307,
      "reve": 4308,
      "reiter": 4309,
      "though": 4310,
      "##ilk": 4311,
      "conform": 4312,
      "once": 4313,
      "##sium": 4314,
      "##ria": 4315,
      "##riev": 4316,
      "deple": 4317,
      "orally": 4318,
      "except": 4319,
      "reserv": 4320,
      "##tually": 4321,
      "##abwe": 4322,
      "##oso": 4323,
      "##etres": 4324,
      "##tivity": 4325,
      "##iving": 4326,
      "notes": 4327,
      "unl": 4328,
      "nego": 4329,
      "##ounter": 4330,
      "##ysical": 4331,
      "formal": 4332,
      "peaceful": 4333,
      "150": 4334,
      "amount": 4335,
      "mode": 4336,
      "modern": 4337,
      "flights": 4338,
      "INSAT": 4339,
      "Tobago": 4340,
      "consists": 4341,
      "signed": 4342,
      "signals": 4343,
      "Satellites": 4344,
      "scen": 4345,
      "scan": 4346,
      "Annex": 4347,
      "complete": 4348,
      "generally": 4349,
      "specialized": 4350,
      "indicates": 4351,
      "ensuring": 4352,
      "occur": 4353,
      "##ACEFUL": 4354,
      "contributed": 4355,
      "eleventh": 4356,
      "teacher": 4357,
      "live": 4358,
      "Coord": 4359,
      "encounter": 4360,
      "Radarsat": 4361,
      "properties": 4362,
      "USES": 4363,
      "##theless": 4364,
      "built": 4365,
      "introduction": 4366,
      "agriculture": 4367,
      "focused": 4368,
      "treaty": 4369,
      "autom": 4370,
      "background": 4371,
      "degree": 4372,
      "##mark": 4373,
      "findings": 4374,
      "Finally": 4375,
      "statistics": 4376,
      "beginning": 4377,
      "##onaut": 4378,
      "regretted": 4379,
      "calls": 4380,
      "influence": 4381,
      "Argentina": 4382,
      "PEACEFUL": 4383,
      "INEI": 4384,
      "renew": 4385,
      "lawyer": 4386,
      "##ymposium": 4387,
      "earthquak": 4388,
      "Initial": 4389,
      "Lanka": 4390,
      "external": 4391,
      "cannot": 4392,
      "##mbudsman": 4393,
      "Monitoring": 4394,
      "channels": 4395,
      "Because": 4396,
      "Background": 4397,
      "GRID": 4398,
      "Zimbabwe": 4399,
      "negoti": 4400,
      "56": 4401,
      "AP": 4402,
      "Crow": 4403,
      "EOS": 4404,
      "GSO": 4405,
      "IM": 4406,
      "Judic": 4407,
      "Lumin": 4408,
      "Rural": 4409,
      "RAD": 4410,
      "Sever": 4411,
      "Symposium": 4412,
      "bil": 4413,
      "came": 4414,
      "cyc": 4415,
      "dated": 4416,
      "drop": 4417,
      "fer": 4418,
      "just": 4419,
      "lit": 4420,
      "lay": 4421,
      "massive": 4422,
      "nur": 4423,
      "nucle": 4424,
      "run": 4425,
      "sam": 4426,
      "search": 4427,
      "tenth": 4428,
      "zones": 4429,
      "##wing": 4430,
      "##lor": 4431,
      "##tary": 4432,
      "##ran": 4433,
      "##rus": 4434,
      "##oe": 4435,
      "##oked": 4436,
      "##nes": 4437,
      "##be": 4438,
      "##utri": 4439,
      "##uties": 4440,
      "##dle": 4441,
      "##pell": 4442,
      "##pite": 4443,
      "##AG": 4444,
      "##TES": 4445,
      "##BS": 4446,
      "##onia": 4447,
      "##erance": 4448,
      "inhab": 4449,
      "##ick": 4450,
      "##ices": 4451,
      "##ecu": 4452,
      "##ections": 4453,
      "forestry": 4454,
      "##stances": 4455,
      "conj": 4456,
      "condition": 4457,
      "Their": 4458,
      "##teos": 4459,
      "##irmed": 4460,
      "##ports": 4461,
      "##tinc": 4462,
      "expect": 4463,
      "ali": 4464,
      "parliament": 4465,
      "##forestation": 4466,
      "##aches": 4467,
      "##trum": 4468,
      "Standing": 4469,
      "stages": 4470,
      "relative": 4471,
      "##ollution": 4472,
      "Thus": 4473,
      "soon": 4474,
      "invent": 4475,
      "unc": 4476,
      "unit": 4477,
      "##adequ": 4478,
      "##ounted": 4479,
      "terrestrial": 4480,
      "1976": 4481,
      "Meteos": 4482,
      "elabor": 4483,
      "effectively": 4484,
      "presentation": 4485,
      "locations": 4486,
      "extrem": 4487,
      "Chad": 4488,
      "Chile": 4489,
      "Chair": 4490,
      "China": 4491,
      "marine": 4492,
      "Disc": 4493,
      "Electoral": 4494,
      "setting": 4495,
      "impacts": 4496,
      "specialists": 4497,
      "examined": 4498,
      "indicate": 4499,
      "CONAE": 4500,
      "issued": 4501,
      "crew": 4502,
      "attended": 4503,
      "socio": 4504,
      "##RIG": 4505,
      "offences": 4506,
      "details": 4507,
      "showed": 4508,
      "aware": 4509,
      "grad": 4510,
      "worldwide": 4511,
      "explosions": 4512,
      "instrumentation": 4513,
      "valid": 4514,
      "value": 4515,
      "belong": 4516,
      "determined": 4517,
      "evaluate": 4518,
      "announ": 4519,
      "hyper": 4520,
      "entered": 4521,
      "databases": 4522,
      "kilom": 4523,
      "professionals": 4524,
      "superv": 4525,
      "Study": 4526,
      "ratified": 4527,
      "functioning": 4528,
      "amendments": 4529,
      "Management": 4530,
      "Sweden": 4531,
      "separation": 4532,
      "constell": 4533,
      "concentration": 4534,
      "concentrated": 4535,
      "calib": 4536,
      "figures": 4537,
      "transmitted": 4538,
      "structural": 4539,
      "exclu": 4540,
      "substanti": 4541,
      "criter": 4542,
      "dismissal": 4543,
      "Serb": 4544,
      "immediately": 4545,
      "Atlantic": 4546,
      "Agriculture": 4547,
      "flex": 4548,
      "temperature": 4549,
      "derived": 4550,
      "GOES": 4551,
      "business": 4552,
      "earl": 4553,
      "pattern": 4554,
      "attendance": 4555,
      "##SLV": 4556,
      "consequences": 4557,
      "opinion": 4558,
      "candidates": 4559,
      "##agraphs": 4560,
      "circumstances": 4561,
      "AIDS": 4562,
      "Cyprus": 4563,
      "seminars": 4564,
      "##VENTION": 4565,
      "chemical": 4566,
      "Luminoso": 4567,
      "RADARSAT": 4568,
      "little": 4569,
      "Meteosat": 4570,
      "57": 4571,
      "93": 4572,
      "Brit": 4573,
      "Cor": 4574,
      "Corpor": 4575,
      "Den": 4576,
      "Des": 4577,
      "Del": 4578,
      "Def": 4579,
      "Irel": 4580,
      "Jo": 4581,
      "LEO": 4582,
      "Mic": 4583,
      "Mul": 4584,
      "Oper": 4585,
      "Ombudsman": 4586,
      "ORIG": 4587,
      "TO": 4588,
      "Trom": 4589,
      "TSS": 4590,
      "VII": 4591,
      "bri": 4592,
      "era": 4593,
      "gave": 4594,
      "governments": 4595,
      "griev": 4596,
      "housing": 4597,
      "ice": 4598,
      "jung": 4599,
      "nam": 4600,
      "old": 4601,
      "oxy": 4602,
      "race": 4603,
      "solution": 4604,
      "sound": 4605,
      "south": 4606,
      "tests": 4607,
      "turn": 4608,
      "##ez": 4609,
      "##lock": 4610,
      "##sø": 4611,
      "##oice": 4612,
      "##nas": 4613,
      "##ai": 4614,
      "##bour": 4615,
      "##uz": 4616,
      "##da": 4617,
      "##gal": 4618,
      "##EA": 4619,
      "##RIS": 4620,
      "##51": 4621,
      "##hel": 4622,
      "##ertification": 4623,
      "inadequ": 4624,
      "##ective": 4625,
      "##ela": 4626,
      "forec": 4627,
      "prom": 4628,
      "propell": 4629,
      "##ury": 4630,
      "contr": 4631,
      "conven": 4632,
      "##opes": 4633,
      "##irm": 4634,
      "##ires": 4635,
      "##riage": 4636,
      "##ulating": 4637,
      "sus": 4638,
      "existed": 4639,
      "accep": 4640,
      "altime": 4641,
      "resum": 4642,
      "residence": 4643,
      "##ples": 4644,
      "impl": 4645,
      "imposed": 4646,
      "distinc": 4647,
      "Consider": 4648,
      "enable": 4649,
      "committees": 4650,
      "recon": 4651,
      "internal": 4652,
      "##ude": 4653,
      "mean": 4654,
      "##utor": 4655,
      "leave": 4656,
      "left": 4657,
      "##pectral": 4658,
      "plac": 4659,
      "##most": 4660,
      "compris": 4661,
      "composed": 4662,
      "##roph": 4663,
      "controll": 4664,
      "union": 4665,
      "unique": 4666,
      "##pond": 4667,
      "##TIV": 4668,
      "Prosec": 4669,
      "##ERATION": 4670,
      "##acement": 4671,
      "heav": 4672,
      "accel": 4673,
      "accom": 4674,
      "assign": 4675,
      "##inea": 4676,
      "measuring": 4677,
      "transition": 4678,
      "particles": 4679,
      "format": 4680,
      "##aves": 4681,
      "economically": 4682,
      "amoun": 4683,
      "Meas": 4684,
      "##tained": 4685,
      "partly": 4686,
      "##ARY": 4687,
      "##ocking": 4688,
      "product": 4689,
      "detect": 4690,
      "Commissioner": 4691,
      "became": 4692,
      "##manent": 4693,
      "discover": 4694,
      "Indigenous": 4695,
      "weight": 4696,
      "##INAL": 4697,
      "measurement": 4698,
      "CONF": 4699,
      "aboard": 4700,
      "allowance": 4701,
      "civilian": 4702,
      "analyses": 4703,
      "documents": 4704,
      "greatest": 4705,
      "multis": 4706,
      "powers": 4707,
      "limit": 4708,
      "gravity": 4709,
      "experimental": 4710,
      "Italian": 4711,
      "Both": 4712,
      "depth": 4713,
      "achieved": 4714,
      "Guinea": 4715,
      "links": 4716,
      "frequently": 4717,
      "magnetic": 4718,
      "##undi": 4719,
      "insu": 4720,
      "astronomical": 4721,
      "goal": 4722,
      "sponsors": 4723,
      "distance": 4724,
      "antennas": 4725,
      "strategy": 4726,
      "ARTIC": 4727,
      "pressure": 4728,
      "guarantee": 4729,
      "custod": 4730,
      "##rometer": 4731,
      "ENG": 4732,
      "enjoyment": 4733,
      "floods": 4734,
      "absence": 4735,
      "keep": 4736,
      "reason": 4737,
      "REPOR": 4738,
      "skills": 4739,
      "Democratic": 4740,
      "COPINE": 4741,
      "Penal": 4742,
      "adjust": 4743,
      "competence": 4744,
      "comparison": 4745,
      "Exploration": 4746,
      "Burundi": 4747,
      "ranging": 4748,
      "##LISH": 4749,
      "fixed": 4750,
      "definition": 4751,
      "Several": 4752,
      "##utrition": 4753,
      "kilometres": 4754,
      "Britain": 4755,
      "Ireland": 4756,
      "ORIGINAL": 4757,
      "Tromsø": 4758,
      "jungle": 4759,
      "oxygen": 4760,
      "ARTICLE": 4761,
      "53": 4762,
      "Aut": 4763,
      "ARI": 4764,
      "Bank": 4765,
      "ES": 4766,
      "Establ": 4767,
      "GEO": 4768,
      "ILO": 4769,
      "Leb": 4770,
      "Mad": 4771,
      "Mag": 4772,
      "Of": 4773,
      "Op": 4774,
      "PL": 4775,
      "Qu": 4776,
      "RC": 4777,
      "cop": 4778,
      "cris": 4779,
      "fall": 4780,
      "governing": 4781,
      "hear": 4782,
      "let": 4783,
      "laboratory": 4784,
      "sal": 4785,
      "stu": 4786,
      "southern": 4787,
      "ul": 4788,
      "vide": 4789,
      "wavel": 4790,
      "xen": 4791,
      "##etr": 4792,
      "##eased": 4793,
      "##lish": 4794,
      "##tra": 4795,
      "##tarc": 4796,
      "##ibit": 4797,
      "##sw": 4798,
      "##sor": 4799,
      "##oge": 4800,
      "##uv": 4801,
      "##uela": 4802,
      "##day": 4803,
      "##pas": 4804,
      "##gations": 4805,
      "##IA": 4806,
      "##ITI": 4807,
      "##AF": 4808,
      "##TU": 4809,
      "##PA": 4810,
      "##MA": 4811,
      "##heries": 4812,
      "##itude": 4813,
      "##arb": 4814,
      "##isp": 4815,
      "##isheries": 4816,
      "##oma": 4817,
      "forum": 4818,
      "pros": 4819,
      "##olid": 4820,
      "195": 4821,
      "conv": 4822,
      "##ulg": 4823,
      "deployment": 4824,
      "deforestation": 4825,
      "##chron": 4826,
      "oral": 4827,
      "##unar": 4828,
      "##respond": 4829,
      "altern": 4830,
      "residual": 4831,
      "Inv": 4832,
      "##ospace": 4833,
      "discipl": 4834,
      "##perture": 4835,
      "stri": 4836,
      "start": 4837,
      "incite": 4838,
      "##ously": 4839,
      "obst": 4840,
      "informal": 4841,
      "arr": 4842,
      "##agnetic": 4843,
      "charge": 4844,
      "aband": 4845,
      "ability": 4846,
      "##ometers": 4847,
      "nationality": 4848,
      "##ailing": 4849,
      "preven": 4850,
      "108": 4851,
      "base": 4852,
      "invoked": 4853,
      "content": 4854,
      "contra": 4855,
      "##died": 4856,
      "##ERS": 4857,
      "point": 4858,
      "NAL": 4859,
      "considering": 4860,
      "Internet": 4861,
      "class": 4862,
      "cause": 4863,
      "causes": 4864,
      "##ifications": 4865,
      "fires": 4866,
      "instance": 4867,
      "##ditionally": 4868,
      "minutes": 4869,
      "presentations": 4870,
      "##ployed": 4871,
      "extra": 4872,
      "covering": 4873,
      "##assment": 4874,
      "capacities": 4875,
      "demands": 4876,
      "scope": 4877,
      "scatter": 4878,
      "UNAM": 4879,
      "Antarc": 4880,
      "##tility": 4881,
      "whereas": 4882,
      "studying": 4883,
      "Alger": 4884,
      "Paragraphs": 4885,
      "fulfil": 4886,
      "indicators": 4887,
      "allowing": 4888,
      "determination": 4889,
      "attached": 4890,
      "funded": 4891,
      "investigations": 4892,
      "investigate": 4893,
      "Reports": 4894,
      "equipped": 4895,
      "agreements": 4896,
      "reproduc": 4897,
      "reviewed": 4898,
      "stipul": 4899,
      "visual": 4900,
      "territories": 4901,
      "Support": 4902,
      "affecting": 4903,
      "enhanced": 4904,
      "USGS": 4905,
      "terrorism": 4906,
      "coordinated": 4907,
      "method": 4908,
      "department": 4909,
      "failed": 4910,
      "Services": 4911,
      "2000": 4912,
      "allegations": 4913,
      "strategies": 4914,
      "phenomenon": 4915,
      "played": 4916,
      "tools": 4917,
      "maintained": 4918,
      "births": 4919,
      "harassment": 4920,
      "paid": 4921,
      "English": 4922,
      "##ritten": 4923,
      "construction": 4924,
      "flood": 4925,
      "Moreover": 4926,
      "key": 4927,
      "migr": 4928,
      "reasons": 4929,
      "##nova": 4930,
      "Communities": 4931,
      "Austria": 4932,
      "##awful": 4933,
      "observe": 4934,
      "allocated": 4935,
      "Population": 4936,
      "glass": 4937,
      "attemp": 4938,
      "oriented": 4939,
      "ownership": 4940,
      "peasant": 4941,
      "Children": 4942,
      "Legisl": 4943,
      "unlawful": 4944,
      "inhabit": 4945,
      "##ecutive": 4946,
      "extremely": 4947,
      "Chairman": 4948,
      "constellation": 4949,
      "Corporation": 4950,
      "brief": 4951,
      "ENGLISH": 4952,
      "Leban": 4953,
      "crisis": 4954,
      "studied": 4955,
      "##chronous": 4956,
      "UNAMIR": 4957,
      "Antarctic": 4958,
      "Algeria": 4959,
      "51": 4960,
      "Are": 4961,
      "CH": 4962,
      "CS": 4963,
      "Cri": 4964,
      "Es": 4965,
      "EDUC": 4966,
      "Fam": 4967,
      "Food": 4968,
      "Gen": 4969,
      "Hung": 4970,
      "Le": 4971,
      "Labour": 4972,
      "RT": 4973,
      "Sim": 4974,
      "Spe": 4975,
      "Southern": 4976,
      "Where": 4977,
      "When": 4978,
      "Western": 4979,
      "aperture": 4980,
      "cell": 4981,
      "dim": 4982,
      "docking": 4983,
      "eas": 4984,
      "fishing": 4985,
      "pul": 4986,
      "pollution": 4987,
      "rou": 4988,
      "roles": 4989,
      "tur": 4990,
      "tri": 4991,
      "testing": 4992,
      "waves": 4993,
      "written": 4994,
      "zone": 4995,
      "##ex": 4996,
      "##eases": 4997,
      "##fall": 4998,
      "##tors": 4999,
      "##then": 5000,
      "##hood": 5001,
      "##iev": 5002,
      "##IL": 5003,
      "##vation": 5004,
      "##RU": 5005,
      "##án": 5006,
      "##BRIS": 5007,
      "##health": 5008,
      "##erated": 5009,
      "##inted": 5010,
      "##aled": 5011,
      "institutional": 5012,
      "##ises": 5013,
      "##omal": 5014,
      "reach": 5015,
      "convention": 5016,
      "##iring": 5017,
      "##ulated": 5018,
      "deb": 5019,
      "deep": 5020,
      "degrad": 5021,
      "##idar": 5022,
      "acces": 5023,
      "##abil": 5024,
      "##ighbour": 5025,
      "whom": 5026,
      "##pled": 5027,
      "anti": 5028,
      "answ": 5029,
      "##iminary": 5030,
      "diss": 5031,
      "distric": 5032,
      "env": 5033,
      "stor": 5034,
      "adap": 5035,
      "##minals": 5036,
      "arc": 5037,
      "array": 5038,
      "aggress": 5039,
      "##ival": 5040,
      "relation": 5041,
      "##ubs": 5042,
      "subjects": 5043,
      "compensation": 5044,
      "trained": 5045,
      "manoe": 5046,
      "##ometry": 5047,
      "##ometric": 5048,
      "##ruit": 5049,
      "##ords": 5050,
      "decades": 5051,
      "apply": 5052,
      "prej": 5053,
      "pregn": 5054,
      "##ables": 5055,
      "##ify": 5056,
      "neg": 5057,
      "applic": 5058,
      "operators": 5059,
      "educators": 5060,
      "observatory": 5061,
      "cart": 5062,
      "membership": 5063,
      "spectral": 5064,
      "desertification": 5065,
      "month": 5066,
      "##posure": 5067,
      "formed": 5068,
      "formation": 5069,
      "install": 5070,
      "Central": 5071,
      "##ESENT": 5072,
      "telem": 5073,
      "##NDATIONS": 5074,
      "elect": 5075,
      "violation": 5076,
      "cante": 5077,
      "modelling": 5078,
      "advancement": 5079,
      "surfaces": 5080,
      "collected": 5081,
      "Debris": 5082,
      "avoid": 5083,
      "consisted": 5084,
      "1990s": 5085,
      "officers": 5086,
      "Countries": 5087,
      "completion": 5088,
      "defend": 5089,
      "difference": 5090,
      "Within": 5091,
      "1967": 5092,
      "CONVENTION": 5093,
      "##OMME": 5094,
      "confidence": 5095,
      "funds": 5096,
      "element": 5097,
      "charged": 5098,
      "improvements": 5099,
      "administer": 5100,
      "associations": 5101,
      "Coast": 5102,
      "expen": 5103,
      "selection": 5104,
      "##ancy": 5105,
      "shows": 5106,
      "complaint": 5107,
      "enhancing": 5108,
      "Mexican": 5109,
      "belie": 5110,
      "physic": 5111,
      "step": 5112,
      "correspond": 5113,
      "minimize": 5114,
      "Recommend": 5115,
      "coordinate": 5116,
      "Trans": 5117,
      "volum": 5118,
      "##opho": 5119,
      "estimates": 5120,
      "marketing": 5121,
      "supernova": 5122,
      "##MET": 5123,
      "NATIONAL": 5124,
      "dealt": 5125,
      "dealing": 5126,
      "urgently": 5127,
      "devoted": 5128,
      "harmon": 5129,
      "enjoyed": 5130,
      "PRESENT": 5131,
      "coastal": 5132,
      "incident": 5133,
      "platforms": 5134,
      "Employment": 5135,
      "constitute": 5136,
      "delivery": 5137,
      "colour": 5138,
      "generated": 5139,
      "RECOMME": 5140,
      "advantage": 5141,
      "prohib": 5142,
      "ECA": 5143,
      "maternal": 5144,
      "classification": 5145,
      "immigration": 5146,
      "vulnerable": 5147,
      "DEBRIS": 5148,
      "People": 5149,
      "CRTS": 5150,
      "feasibility": 5151,
      "Guatemala": 5152,
      "VITA": 5153,
      "conformity": 5154,
      "Crown": 5155,
      "Judiciary": 5156,
      "earlier": 5157,
      "Denmark": 5158,
      "altimeter": 5159,
      "Prosecutor": 5160,
      "insufficient": 5161,
      "ARIANE": 5162,
      "video": 5163,
      "xenopho": 5164,
      "##ogee": 5165,
      "inhabitants": 5166,
      "RTG": 5167,
      "manoeuv": 5168,
      "PRESENTATIONS": 5169,
      "RECOMMENDATIONS": 5170,
      "AT": 5171,
      "Bas": 5172,
      "Do": 5173,
      "DRU": 5174,
      "Eg": 5175,
      "ESC": 5176,
      "FGAN": 5177,
      "Gh": 5178,
      "Mal": 5179,
      "Never": 5180,
      "Range": 5181,
      "Sa": 5182,
      "Su": 5183,
      "Spa": 5184,
      "Slo": 5185,
      "Small": 5186,
      "School": 5187,
      "Tur": 5188,
      "Tropical": 5189,
      "Ur": 5190,
      "Uk": 5191,
      "bor": 5192,
      "bands": 5193,
      "core": 5194,
      "drought": 5195,
      "duration": 5196,
      "fly": 5197,
      "gain": 5198,
      "gives": 5199,
      "hum": 5200,
      "il": 5201,
      "kind": 5202,
      "list": 5203,
      "later": 5204,
      "listed": 5205,
      "male": 5206,
      "milk": 5207,
      "night": 5208,
      "nomin": 5209,
      "oil": 5210,
      "port": 5211,
      "rose": 5212,
      "##line": 5213,
      "##ha": 5214,
      "##ief": 5215,
      "##ror": 5216,
      "##bo": 5217,
      "##uan": 5218,
      "##come": 5219,
      "##des": 5220,
      "##gments": 5221,
      "##AB": 5222,
      "##CT": 5223,
      "##URS": 5224,
      "##øya": 5225,
      "##oned": 5226,
      "##orities": 5227,
      "input": 5228,
      "innov": 5229,
      "##ark": 5230,
      "##arters": 5231,
      "##reville": 5232,
      "rein": 5233,
      "thous": 5234,
      "forward": 5235,
      "prob": 5236,
      "##urized": 5237,
      "conver": 5238,
      "##igee": 5239,
      "##sewhere": 5240,
      "##porary": 5241,
      "##emn": 5242,
      "##velocity": 5243,
      "almost": 5244,
      "rescue": 5245,
      "attitude": 5246,
      "##osh": 5247,
      "##therlands": 5248,
      "##izes": 5249,
      "stabil": 5250,
      "##usti": 5251,
      "spaceborne": 5252,
      "interested": 5253,
      "##uda": 5254,
      "Unit": 5255,
      "##illed": 5256,
      "##illing": 5257,
      "##arded": 5258,
      "##pective": 5259,
      "systematic": 5260,
      "shape": 5261,
      "comply": 5262,
      "manif": 5263,
      "decrees": 5264,
      "prev": 5265,
      "invited": 5266,
      "contact": 5267,
      "Prov": 5268,
      "neighbour": 5269,
      "preserv": 5270,
      "emb": 5271,
      "numerous": 5272,
      "heat": 5273,
      "height": 5274,
      "spectrum": 5275,
      "measured": 5276,
      "destruc": 5277,
      "poor": 5278,
      "takes": 5279,
      "boys": 5280,
      "newly": 5281,
      "periods": 5282,
      "Centres": 5283,
      "##viation": 5284,
      "makes": 5285,
      "elsewhere": 5286,
      "diff": 5287,
      "Minorities": 5288,
      "advice": 5289,
      "involve": 5290,
      "consisting": 5291,
      "consolid": 5292,
      "geographic": 5293,
      "marriage": 5294,
      "signal": 5295,
      "##ROM": 5296,
      "protecting": 5297,
      "Another": 5298,
      "##ATIONAL": 5299,
      "deliber": 5300,
      "evolution": 5301,
      "Origin": 5302,
      "##ypt": 5303,
      "remun": 5304,
      "week": 5305,
      "Sciences": 5306,
      "2851": 5307,
      "Laun": 5308,
      "discuss": 5309,
      "emphasize": 5310,
      "fragment": 5311,
      "distributed": 5312,
      "astronauts": 5313,
      "Comp": 5314,
      "reducing": 5315,
      "explosion": 5316,
      "combined": 5317,
      "Sea": 5318,
      "physics": 5319,
      "COURS": 5320,
      "powerful": 5321,
      "stead": 5322,
      "Scientists": 5323,
      "corr": 5324,
      "depend": 5325,
      "##thetic": 5326,
      "northern": 5327,
      "enterprises": 5328,
      "supporting": 5329,
      "kilometers": 5330,
      "##IRA": 5331,
      "circular": 5332,
      "strengthen": 5333,
      "demonstrate": 5334,
      "electron": 5335,
      "clean": 5336,
      "encouraging": 5337,
      "Mobile": 5338,
      "settlements": 5339,
      "guaranteed": 5340,
      "relationship": 5341,
      "incorporated": 5342,
      "component": 5343,
      "telescopes": 5344,
      "remains": 5345,
      "capital": 5346,
      "clouds": 5347,
      "EUMET": 5348,
      "enabled": 5349,
      "statistical": 5350,
      "supplies": 5351,
      "transportation": 5352,
      "immediate": 5353,
      "Atlantis": 5354,
      "pursued": 5355,
      "Agricultural": 5356,
      "analysed": 5357,
      "campaigns": 5358,
      "Andøya": 5359,
      "aerial": 5360,
      "behalf": 5361,
      "trafficking": 5362,
      "STATES": 5363,
      "outside": 5364,
      "Control": 5365,
      "loss": 5366,
      "adolescents": 5367,
      "secretariat": 5368,
      "LAND": 5369,
      "histor": 5370,
      "appointed": 5371,
      "credit": 5372,
      "Atmospheric": 5373,
      "voluntary": 5374,
      "feminist": 5375,
      "Libreville": 5376,
      "Netherlands": 5377,
      "##sych": 5378,
      "Coordination": 5379,
      "earthquakes": 5380,
      "belonging": 5381,
      "Delta": 5382,
      "Consideration": 5383,
      "incitement": 5384,
      "contracep": 5385,
      "Lebanon": 5386,
      "conventional": 5387,
      "xenophobia": 5388,
      "Egypt": 5389,
      "Ghana": 5390,
      "Nevertheless": 5391,
      "Spain": 5392,
      "EUMETSAT": 5393,
      "52": 5394,
      "54": 5395,
      "72": 5396,
      "89": 5397,
      "800": 5398,
      "91": 5399,
      "Ab": 5400,
      "Be": 5401,
      "Bi": 5402,
      "Cost": 5403,
      "ETS": 5404,
      "Fac": 5405,
      "Follow": 5406,
      "Fisheries": 5407,
      "GRO": 5408,
      "GTO": 5409,
      "HE": 5410,
      "HIV": 5411,
      "HST": 5412,
      "ID": 5413,
      "JEM": 5414,
      "JERS": 5415,
      "Long": 5416,
      "ME": 5417,
      "MEM": 5418,
      "Over": 5419,
      "Pl": 5420,
      "Pu": 5421,
      "Pan": 5422,
      "Pak": 5423,
      "Pap": 5424,
      "PSLV": 5425,
      "Roma": 5426,
      "SC": 5427,
      "Sval": 5428,
      "Span": 5429,
      "den": 5430,
      "div": 5431,
      "dens": 5432,
      "ep": 5433,
      "fr": 5434,
      "fair": 5435,
      "gather": 5436,
      "ling": 5437,
      "lear": 5438,
      "lasting": 5439,
      "lidar": 5440,
      "send": 5441,
      "sav": 5442,
      "sough": 5443,
      "twelfth": 5444,
      "##ways": 5445,
      "##etry": 5446,
      "##lination": 5447,
      "##ient": 5448,
      "##ira": 5449,
      "##iated": 5450,
      "##rin": 5451,
      "##bly": 5452,
      "##band": 5453,
      "##bard": 5454,
      "##vant": 5455,
      "##NG": 5456,
      "##xies": 5457,
      "##PL": 5458,
      "##COM": 5459,
      "##UT": 5460,
      "##UM": 5461,
      "##UB": 5462,
      "##UOS": 5463,
      "##MENT": 5464,
      "##7th": 5465,
      "##ered": 5466,
      "##erative": 5467,
      "##eroid": 5468,
      "##ening": 5469,
      "##ales": 5470,
      "##atri": 5471,
      "##oug": 5472,
      "reor": 5473,
      "reaff": 5474,
      "proc": 5475,
      "propa": 5476,
      "##olic": 5477,
      "contem": 5478,
      "##irates": 5479,
      "depl": 5480,
      "suitable": 5481,
      "resol": 5482,
      "Inf": 5483,
      "attrib": 5484,
      "##osystem": 5485,
      "##actic": 5486,
      "##quarters": 5487,
      "dispar": 5488,
      "##ettle": 5489,
      "apogee": 5490,
      "##tivated": 5491,
      "##arding": 5492,
      "##titudes": 5493,
      "arres": 5494,
      "army": 5495,
      "plas": 5496,
      "share": 5497,
      "sharing": 5498,
      "indication": 5499,
      "chall": 5500,
      "seven": 5501,
      "##uba": 5502,
      "subsequently": 5503,
      "##servation": 5504,
      "prefer": 5505,
      "sensor": 5506,
      "unem": 5507,
      "Procur": 5508,
      "never": 5509,
      "observing": 5510,
      "numbers": 5511,
      "options": 5512,
      "clari": 5513,
      "##urrent": 5514,
      "sections": 5515,
      "instr": 5516,
      "##egal": 5517,
      "spent": 5518,
      "spread": 5519,
      "##viole": 5520,
      "minis": 5521,
      "posed": 5522,
      "expression": 5523,
      "expresses": 5524,
      "phases": 5525,
      "institutes": 5526,
      "advances": 5527,
      "##ographs": 5528,
      "##ARE": 5529,
      "mostly": 5530,
      "Charter": 5531,
      "geology": 5532,
      "maritime": 5533,
      "Resources": 5534,
      "solutions": 5535,
      "##manned": 5536,
      "whereby": 5537,
      "prepare": 5538,
      "##oughly": 5539,
      "examine": 5540,
      "Executive": 5541,
      "longer": 5542,
      "employees": 5543,
      "CONS": 5544,
      "##ORM": 5545,
      "config": 5546,
      "exploration": 5547,
      "Instituto": 5548,
      "engaged": 5549,
      "REG": 5550,
      "text": 5551,
      "paragraphs": 5552,
      "Systems": 5553,
      "reliable": 5554,
      "astronaut": 5555,
      "display": 5556,
      "achiev": 5557,
      "Senegal": 5558,
      "utilize": 5559,
      "collaborative": 5560,
      "ACTIV": 5561,
      "description": 5562,
      "draf": 5563,
      "##gestions": 5564,
      "Islam": 5565,
      "judiciary": 5566,
      "##edicated": 5567,
      "lives": 5568,
      "north": 5569,
      "engineers": 5570,
      "satisfy": 5571,
      "volcan": 5572,
      "foreigners": 5573,
      "Geographic": 5574,
      "kilogra": 5575,
      "mitig": 5576,
      "astronomers": 5577,
      "clearly": 5578,
      "Romanian": 5579,
      "Advancement": 5580,
      "ratify": 5581,
      "hazardous": 5582,
      "managers": 5583,
      "strongly": 5584,
      "SUN": 5585,
      "SUMM": 5586,
      "collisions": 5587,
      "hydro": 5588,
      "Emirates": 5589,
      "dismissed": 5590,
      "enabling": 5591,
      "spectrometer": 5592,
      "slight": 5593,
      "##ascar": 5594,
      "photographs": 5595,
      "serving": 5596,
      "Aerospace": 5597,
      "interactive": 5598,
      "advantages": 5599,
      "flows": 5600,
      "galaxy": 5601,
      "galaxies": 5602,
      "suffered": 5603,
      "speaking": 5604,
      "fellowships": 5605,
      "microsatellites": 5606,
      "organs": 5607,
      "updating": 5608,
      "SAAO": 5609,
      "conclusion": 5610,
      "manufacturing": 5611,
      "velocity": 5612,
      "outlined": 5613,
      "hydrology": 5614,
      "revealed": 5615,
      "scenari": 5616,
      "parliamentary": 5617,
      "hypervelocity": 5618,
      "calibration": 5619,
      "grievances": 5620,
      "forecasting": 5621,
      "susp": 5622,
      "places": 5623,
      "comprising": 5624,
      "controlled": 5625,
      "accompl": 5626,
      "custodial": 5627,
      "RCS": 5628,
      "##traviole": 5629,
      "arrange": 5630,
      "Family": 5631,
      "turb": 5632,
      "aggressors": 5633,
      "canteens": 5634,
      "ESCAP": 5635,
      "prevailing": 5636,
      "LANDSAT": 5637,
      "MEMBER": 5638,
      "Papua": 5639,
      "Svalbard": 5640,
      "sought": 5641,
      "achieving": 5642,
      "SUMMARY": 5643,
      "##traviolet": 5644,
      "74": 5645,
      "98": 5646,
      "AS": 5647,
      "Bang": 5648,
      "Boug": 5649,
      "Cz": 5650,
      "COS": 5651,
      "Di": 5652,
      "Det": 5653,
      "Eastern": 5654,
      "Fif": 5655,
      "FROM": 5656,
      "Gre": 5657,
      "Gab": 5658,
      "GMS": 5659,
      "Hu": 5660,
      "IS": 5661,
      "Mod": 5662,
      "MOS": 5663,
      "Sp": 5664,
      "TD": 5665,
      "TRS": 5666,
      "Vice": 5667,
      "WOR": 5668,
      "WIT": 5669,
      "dust": 5670,
      "dedicated": 5671,
      "face": 5672,
      "foster": 5673,
      "hab": 5674,
      "ite": 5675,
      "justi": 5676,
      "log": 5677,
      "lunar": 5678,
      "mess": 5679,
      "nutrition": 5680,
      "psych": 5681,
      "side": 5682,
      "und": 5683,
      "wides": 5684,
      "yield": 5685,
      "##tures": 5686,
      "##iec": 5687,
      "##inder": 5688,
      "##yuz": 5689,
      "##ox": 5690,
      "##uador": 5691,
      "##uistic": 5692,
      "##dra": 5693,
      "##OC": 5694,
      "##OSAT": 5695,
      "##ptions": 5696,
      "##pread": 5697,
      "##IG": 5698,
      "##ISAT": 5699,
      "##48": 5700,
      "##4th": 5701,
      "##VER": 5702,
      "##MIN": 5703,
      "##head": 5704,
      "##tise": 5705,
      "##tific": 5706,
      "##ont": 5707,
      "##erge": 5708,
      "##ertain": 5709,
      "##orth": 5710,
      "##eded": 5711,
      "intention": 5712,
      "inequ": 5713,
      "##atures": 5714,
      "##ingual": 5715,
      "##oms": 5716,
      "##omic": 5717,
      "retri": 5718,
      "##olerance": 5719,
      "##ils": 5720,
      "beam": 5721,
      "bearing": 5722,
      "##raine": 5723,
      "##vements": 5724,
      "ones": 5725,
      "##sim": 5726,
      "##sibly": 5727,
      "##ulate": 5728,
      "##ulsion": 5729,
      "defic": 5730,
      "1999": 5731,
      "withdra": 5732,
      "##verse": 5733,
      "##unity": 5734,
      "suit": 5735,
      "exceed": 5736,
      "exact": 5737,
      "##ticular": 5738,
      "##heres": 5739,
      "restruc": 5740,
      "##fort": 5741,
      "why": 5742,
      "perigee": 5743,
      "dispos": 5744,
      "distur": 5745,
      "##romagnetic": 5746,
      "##ainville": 5747,
      "Consequently": 5748,
      "ent": 5749,
      "enough": 5750,
      "come": 5751,
      "compati": 5752,
      "command": 5753,
      "interfer": 5754,
      "##utors": 5755,
      "arbit": 5756,
      "##agascar": 5757,
      "shif": 5758,
      "ship": 5759,
      "##entially": 5760,
      "release": 5761,
      "released": 5762,
      "comprises": 5763,
      "##ruption": 5764,
      "motor": 5765,
      "launchers": 5766,
      "organize": 5767,
      "101": 5768,
      "invitation": 5769,
      "unmanned": 5770,
      "##TING": 5771,
      "##reement": 5772,
      "representing": 5773,
      "##ERV": 5774,
      "terminals": 5775,
      "emission": 5776,
      "accused": 5777,
      "carb": 5778,
      "facto": 5779,
      "##tenance": 5780,
      "boost": 5781,
      "1973": 5782,
      "planet": 5783,
      "planetary": 5784,
      "Mars": 5785,
      "151": 5786,
      "responses": 5787,
      "119": 5788,
      "spin": 5789,
      "telecommunication": 5790,
      "electoral": 5791,
      "impunity": 5792,
      "minors": 5793,
      "possibly": 5794,
      "INF": 5795,
      "INTER": 5796,
      "Force": 5797,
      "Forest": 5798,
      "equator": 5799,
      "equitable": 5800,
      "Agreement": 5801,
      "Deep": 5802,
      "consent": 5803,
      "consum": 5804,
      "120": 5805,
      "169": 5806,
      "Energy": 5807,
      "detected": 5808,
      "##ixed": 5809,
      "democratic": 5810,
      "smaller": 5811,
      "protected": 5812,
      "becoming": 5813,
      "Any": 5814,
      "delay": 5815,
      "conducts": 5816,
      "weigh": 5817,
      "##ANS": 5818,
      "severe": 5819,
      "intolerance": 5820,
      "Particular": 5821,
      "1968": 5822,
      "263": 5823,
      "crime": 5824,
      "guard": 5825,
      "deterior": 5826,
      "Peace": 5827,
      "integrity": 5828,
      "##ibia": 5829,
      "seek": 5830,
      "seeking": 5831,
      "Observing": 5832,
      "Observations": 5833,
      "precision": 5834,
      "##ralia": 5835,
      "recognizing": 5836,
      "emerging": 5837,
      "Comb": 5838,
      "##tured": 5839,
      "declared": 5840,
      "territorial": 5841,
      "Subsequently": 5842,
      "priorities": 5843,
      "Radio": 5844,
      "Soyuz": 5845,
      "Supplement": 5846,
      "enhancement": 5847,
      "exercises": 5848,
      "correl": 5849,
      "victim": 5850,
      "positioning": 5851,
      "##URE": 5852,
      "normal": 5853,
      "reflect": 5854,
      "topography": 5855,
      "strength": 5856,
      "contains": 5857,
      "penetr": 5858,
      "##ciplinary": 5859,
      "Many": 5860,
      "version": 5861,
      "cosmic": 5862,
      "pressurized": 5863,
      "refugee": 5864,
      "guarantees": 5865,
      "greatly": 5866,
      "managed": 5867,
      "##rometeor": 5868,
      "ENV": 5869,
      "percentage": 5870,
      "incorporation": 5871,
      "independence": 5872,
      "Ecuador": 5873,
      "incidence": 5874,
      "prosecution": 5875,
      "religion": 5876,
      "leadership": 5877,
      "suggests": 5878,
      "citizen": 5879,
      "Serbia": 5880,
      "jobs": 5881,
      "astroph": 5882,
      "asteroid": 5883,
      "assumed": 5884,
      "penalty": 5885,
      "Australia": 5886,
      "prohibit": 5887,
      "apparatus": 5888,
      "intensive": 5889,
      "##urricula": 5890,
      "registered": 5891,
      "expedition": 5892,
      "Solar": 5893,
      "swath": 5894,
      "microsatellite": 5895,
      "Namibia": 5896,
      "Integration": 5897,
      "repeated": 5898,
      "papers": 5899,
      "concepts": 5900,
      "provincial": 5901,
      "Engineering": 5902,
      "rainfall": 5903,
      "magnetosphere": 5904,
      "perpetrators": 5905,
      "Relations": 5906,
      "depletion": 5907,
      "teachers": 5908,
      "encountered": 5909,
      "fertility": 5910,
      "nuclear": 5911,
      "Discovery": 5912,
      "announced": 5913,
      "criteria": 5914,
      "Defence": 5915,
      "namely": 5916,
      "accepted": 5917,
      "distinction": 5918,
      "multispectral": 5919,
      "Establishment": 5920,
      "Madagascar": 5921,
      "letter": 5922,
      "obstac": 5923,
      "abandoned": 5924,
      "attempts": 5925,
      "CSP": 5926,
      "envis": 5927,
      "electromagnetic": 5928,
      "Ukraine": 5929,
      "Original": 5930,
      "COURSE": 5931,
      "historical": 5932,
      "Pakistan": 5933,
      "Spanish": 5934,
      "density": 5935,
      "linguistic": 5936,
      "reorganiz": 5937,
      "##ettlement": 5938,
      "CONSID": 5939,
      "Bougainville": 5940,
      "Czech": 5941,
      "Gabon": 5942,
      "TRSC": 5943,
      "WITH": 5944,
      "items": 5945,
      "widespread": 5946,
      "73": 5947,
      "94": 5948,
      "AF": 5949,
      "Ast": 5950,
      "ATS": 5951,
      "Asian": 5952,
      "Car": 5953,
      "Cle": 5954,
      "Census": 5955,
      "Dan": 5956,
      "END": 5957,
      "Ethn": 5958,
      "Fore": 5959,
      "GD": 5960,
      "Har": 5961,
      "Ida": 5962,
      "IAF": 5963,
      "ITU": 5964,
      "Jup": 5965,
      "Jama": 5966,
      "Ken": 5967,
      "Liber": 5968,
      "Maced": 5969,
      "NS": 5970,
      "Nav": 5971,
      "OBS": 5972,
      "Ro": 5973,
      "Sc": 5974,
      "SF": 5975,
      "San": 5976,
      "Session": 5977,
      "Six": 5978,
      "Tam": 5979,
      "Us": 5980,
      "Using": 5981,
      "Val": 5982,
      "affairs": 5983,
      "affect": 5984,
      "bound": 5985,
      "cru": 5986,
      "cope": 5987,
      "curricula": 5988,
      "dest": 5989,
      "fa": 5990,
      "fel": 5991,
      "favour": 5992,
      "glo": 5993,
      "gross": 5994,
      "giving": 5995,
      "hot": 5996,
      "nations": 5997,
      "name": 5998,
      "sil": 5999,
      "ton": 6000,
      "wing": 6001,
      "##ey": 6002,
      "##tory": 6003,
      "##ik": 6004,
      "##iro": 6005,
      "##iop": 6006,
      "##yana": 6007,
      "##oting": 6008,
      "##oons": 6009,
      "##ah": 6010,
      "##bir": 6011,
      "##back": 6012,
      "##dis": 6013,
      "##pro": 6014,
      "##gre": 6015,
      "##HS": 6016,
      "##0th": 6017,
      "##IF": 6018,
      "##IZ": 6019,
      "##EF": 6020,
      "##vals": 6021,
      "##9th": 6022,
      "##RIN": 6023,
      "##5th": 6024,
      "##erted": 6025,
      "##alys": 6026,
      "intr": 6027,
      "##itted": 6028,
      "##iss": 6029,
      "##eliminary": 6030,
      "thin": 6031,
      "##legal": 6032,
      "cond": 6033,
      "deemed": 6034,
      "##thing": 6035,
      "##set": 6036,
      "##emisp": 6037,
      "##tine": 6038,
      "exposure": 6039,
      "##ogen": 6040,
      "##uced": 6041,
      "diseases": 6042,
      "Cons": 6043,
      "Conservation": 6044,
      "Stock": 6045,
      "##ventions": 6046,
      "##endum": 6047,
      "commended": 6048,
      "recalled": 6049,
      "interesting": 6050,
      "##aker": 6051,
      "inclination": 6052,
      "art": 6053,
      "shared": 6054,
      "shuttle": 6055,
      "relate": 6056,
      "##iapas": 6057,
      "index": 6058,
      "##alls": 6059,
      "seen": 6060,
      "seem": 6061,
      "seism": 6062,
      "##essels": 6063,
      "##ureau": 6064,
      "subreg": 6065,
      "abortion": 6066,
      "##oretical": 6067,
      "unw": 6068,
      "unions": 6069,
      "Prof": 6070,
      "Proced": 6071,
      "Progress": 6072,
      "preserve": 6073,
      "preliminary": 6074,
      "asses": 6075,
      "assisting": 6076,
      "Notes": 6077,
      "##ISS": 6078,
      "optim": 6079,
      "##TIONS": 6080,
      "ecosystem": 6081,
      "Maritime": 6082,
      "instances": 6083,
      "156": 6084,
      "spheres": 6085,
      "highl": 6086,
      "Additionally": 6087,
      "##TEC": 6088,
      "##aching": 6089,
      "phy": 6090,
      "instituted": 6091,
      "Tok": 6092,
      "involves": 6093,
      "201": 6094,
      "Forty": 6095,
      "extend": 6096,
      "Chiapas": 6097,
      "marked": 6098,
      "married": 6099,
      "productive": 6100,
      "180": 6101,
      "themes": 6102,
      "approaches": 6103,
      "##tilateral": 6104,
      "identity": 6105,
      "Developing": 6106,
      "##ANC": 6107,
      "severely": 6108,
      "Alban": 6109,
      "Park": 6110,
      "Parties": 6111,
      "examination": 6112,
      "schooling": 6113,
      "ensured": 6114,
      "employer": 6115,
      "promotes": 6116,
      "create": 6117,
      "owned": 6118,
      "allows": 6119,
      "##unction": 6120,
      "industries": 6121,
      "multiple": 6122,
      "investigated": 6123,
      "fragments": 6124,
      "doing": 6125,
      "offence": 6126,
      "offers": 6127,
      "displacement": 6128,
      "##atories": 6129,
      "repatri": 6130,
      "decline": 6131,
      "grav": 6132,
      "affects": 6133,
      "welcomes": 6134,
      "characterized": 6135,
      "Frasc": 6136,
      "UNDP": 6137,
      "depending": 6138,
      "bright": 6139,
      "draw": 6140,
      "obliged": 6141,
      "Island": 6142,
      "mechanism": 6143,
      "risks": 6144,
      "##URAL": 6145,
      "company": 6146,
      "magn": 6147,
      "sexes": 6148,
      "##ophone": 6149,
      "##ophysical": 6150,
      "electrical": 6151,
      "summar": 6152,
      "airborne": 6153,
      "respective": 6154,
      "identifying": 6155,
      "Subcommission": 6156,
      "regularly": 6157,
      "illiterate": 6158,
      "illiterates": 6159,
      "Viol": 6160,
      "Viet": 6161,
      "##TROL": 6162,
      "pointed": 6163,
      "ratification": 6164,
      "Movement": 6165,
      "strategic": 6166,
      "expanding": 6167,
      "manager": 6168,
      "maintaining": 6169,
      "PROGR": 6170,
      "calc": 6171,
      "censuses": 6172,
      "teams": 6173,
      "incidents": 6174,
      "prosecuted": 6175,
      "constructive": 6176,
      "substances": 6177,
      "##graduate": 6178,
      "supplied": 6179,
      "predict": 6180,
      "delivered": 6181,
      "guidance": 6182,
      "migration": 6183,
      "##ATES": 6184,
      "pursue": 6185,
      "Astronomy": 6186,
      "served": 6187,
      "behav": 6188,
      "restricted": 6189,
      "AGENC": 6190,
      "synthetic": 6191,
      "Assistance": 6192,
      "penalties": 6193,
      "TRMM": 6194,
      "supplementary": 6195,
      "Camb": 6196,
      "##LIES": 6197,
      "residing": 6198,
      "disappearances": 6199,
      "competitive": 6200,
      "marginalized": 6201,
      "Muslims": 6202,
      "Colom": 6203,
      "affil": 6204,
      "jurisdictional": 6205,
      "acceptance": 6206,
      "telehealth": 6207,
      "decrease": 6208,
      "closely": 6209,
      "surveys": 6210,
      "Industry": 6211,
      "##holm": 6212,
      "thermal": 6213,
      "bilingual": 6214,
      "cycle": 6215,
      "conjunction": 6216,
      "inventory": 6217,
      "exclusively": 6218,
      "flexible": 6219,
      "eradic": 6220,
      "assigned": 6221,
      "discovered": 6222,
      "REPORT": 6223,
      "ultraviolet": 6224,
      "Legislative": 6225,
      "Criminal": 6226,
      "Leone": 6227,
      "easily": 6228,
      "degradation": 6229,
      "cartography": 6230,
      "telemetry": 6231,
      "Launch": 6232,
      "Costa": 6233,
      "challeng": 6234,
      "configuration": 6235,
      "Islamic": 6236,
      "mitigate": 6237,
      "TDRS": 6238,
      "WORK": 6239,
      "restructuring": 6240,
      "disposal": 6241,
      "carbon": 6242,
      "deterioration": 6243,
      "ATSR": 6244,
      "ENDES": 6245,
      "Ethnic": 6246,
      "Foreign": 6247,
      "Jupiter": 6248,
      "Macedonia": 6249,
      "NSF": 6250,
      "destro": 6251,
      "felt": 6252,
      "##disciplinary": 6253,
      "##gregation": 6254,
      "intrins": 6255,
      "##emisphere": 6256,
      "Stockholm": 6257,
      "Frascati": 6258,
      "PROGRAM": 6259,
      "71": 6260,
      "76": 6261,
      "77": 6262,
      "96": 6263,
      "97": 6264,
      "Air": 6265,
      "Aid": 6266,
      "Bu": 6267,
      "Bet": 6268,
      "Barb": 6269,
      "Bureau": 6270,
      "CD": 6271,
      "Coll": 6272,
      "Cuba": 6273,
      "DA": 6274,
      "Date": 6275,
      "Digital": 6276,
      "DAM": 6277,
      "ESO": 6278,
      "EPA": 6279,
      "Governing": 6280,
      "Ku": 6281,
      "Kore": 6282,
      "LE": 6283,
      "Met": 6284,
      "MAS": 6285,
      "OR": 6286,
      "PAR": 6287,
      "Post": 6288,
      "Path": 6289,
      "POL": 6290,
      "Race": 6291,
      "Rica": 6292,
      "Spec": 6293,
      "STS": 6294,
      "SAO": 6295,
      "TIRA": 6296,
      "Up": 6297,
      "XV": 6298,
      "bal": 6299,
      "bul": 6300,
      "craft": 6301,
      "dual": 6302,
      "duties": 6303,
      "ed": 6304,
      "effici": 6305,
      "eastern": 6306,
      "fo": 6307,
      "hos": 6308,
      "hands": 6309,
      "hurric": 6310,
      "iv": 6311,
      "mind": 6312,
      "mounted": 6313,
      "nar": 6314,
      "owing": 6315,
      "pas": 6316,
      "pack": 6317,
      "pending": 6318,
      "passive": 6319,
      "rational": 6320,
      "rot": 6321,
      "render": 6322,
      "ster": 6323,
      "sized": 6324,
      "stim": 6325,
      "shel": 6326,
      "tend": 6327,
      "tru": 6328,
      "tested": 6329,
      "vir": 6330,
      "voice": 6331,
      "vessels": 6332,
      "wat": 6333,
      "west": 6334,
      "western": 6335,
      "##worth": 6336,
      "##eth": 6337,
      "##eks": 6338,
      "##eavour": 6339,
      "##life": 6340,
      "##fe": 6341,
      "##iar": 6342,
      "##rary": 6343,
      "##ktr": 6344,
      "##sc": 6345,
      "##yo": 6346,
      "##of": 6347,
      "##ob": 6348,
      "##uting": 6349,
      "##usion": 6350,
      "##cend": 6351,
      "##down": 6352,
      "##pris": 6353,
      "##gium": 6354,
      "##HO": 6355,
      "##EIV": 6356,
      "##AIN": 6357,
      "##LA": 6358,
      "##RATION": 6359,
      "##UP": 6360,
      "##6th": 6361,
      "##8th": 6362,
      "##QU": 6363,
      "##ón": 6364,
      "##tium": 6365,
      "##tieth": 6366,
      "##ony": 6367,
      "##onn": 6368,
      "##onduc": 6369,
      "##erver": 6370,
      "##ena": 6371,
      "##ened": 6372,
      "##oral": 6373,
      "##inter": 6374,
      "##inity": 6375,
      "##alactic": 6376,
      "##ats": 6377,
      "##atospheric": 6378,
      "##roduce": 6379,
      "##entations": 6380,
      "##isation": 6381,
      "##eless": 6382,
      "##rete": 6383,
      "##asing": 6384,
      "##ourou": 6385,
      "reac": 6386,
      "rehab": 6387,
      "##ley": 6388,
      "proven": 6389,
      "prostitution": 6390,
      "promis": 6391,
      "##olute": 6392,
      "192": 6393,
      "##ilation": 6394,
      "##ilarly": 6395,
      "##urí": 6396,
      "##urch": 6397,
      "detention": 6398,
      "assim": 6399,
      "exha": 6400,
      "accid": 6401,
      "actually": 6402,
      "always": 6403,
      "permanent": 6404,
      "impos": 6405,
      "disease": 6406,
      "##odia": 6407,
      "##ambia": 6408,
      "##echua": 6409,
      "store": 6410,
      "stored": 6411,
      "##usp": 6412,
      "recip": 6413,
      "recruit": 6414,
      "interference": 6415,
      "##ologists": 6416,
      "meant": 6417,
      "##ake": 6418,
      "##aking": 6419,
      "Univer": 6420,
      "##illance": 6421,
      "##ewise": 6422,
      "aggra": 6423,
      "relay": 6424,
      "##pression": 6425,
      "indemn": 6426,
      "induced": 6427,
      "chlor": 6428,
      "seas": 6429,
      "seemed": 6430,
      "##essment": 6431,
      "Three": 6432,
      "worked": 6433,
      "##arious": 6434,
      "movements": 6435,
      "sensi": 6436,
      "Program": 6437,
      "operates": 6438,
      "carries": 6439,
      "##ipitation": 6440,
      "assured": 6441,
      "specim": 6442,
      "specified": 6443,
      "trends": 6444,
      "##pact": 6445,
      "##encing": 6446,
      "upgrad": 6447,
      "expertise": 6448,
      "##ISC": 6449,
      "booster": 6450,
      "clust": 6451,
      "clubs": 6452,
      "money": 6453,
      "Decision": 6454,
      "##ildlife": 6455,
      "output": 6456,
      "strict": 6457,
      "secure": 6458,
      "peti": 6459,
      "##ESCO": 6460,
      "amb": 6461,
      "transform": 6462,
      "Amaz": 6463,
      "modules": 6464,
      "Adop": 6465,
      "Additional": 6466,
      "##otes": 6467,
      "flu": 6468,
      "receiver": 6469,
      "143": 6470,
      "##acks": 6471,
      "##eva": 6472,
      "collect": 6473,
      "##ARA": 6474,
      "covers": 6475,
      "maintenance": 6476,
      "infant": 6477,
      "thematic": 6478,
      "##ciliation": 6479,
      "initially": 6480,
      "scales": 6481,
      "UNESCO": 6482,
      "approve": 6483,
      "ended": 6484,
      "define": 6485,
      "evolved": 6486,
      "differenti": 6487,
      "childbir": 6488,
      "weak": 6489,
      "##ANT": 6490,
      "introduce": 6491,
      "financed": 6492,
      "##times": 6493,
      "indicating": 6494,
      "CONTROL": 6495,
      "promoted": 6496,
      "Once": 6497,
      "##acional": 6498,
      "simple": 6499,
      "simulation": 6500,
      "original": 6501,
      "attrac": 6502,
      "investigating": 6503,
      "processed": 6504,
      "preceding": 6505,
      "visibility": 6506,
      "Regarding": 6507,
      "grave": 6508,
      "Radi": 6509,
      "Telecommunication": 6510,
      "acquire": 6511,
      "Soci": 6512,
      "schedule": 6513,
      "utilizing": 6514,
      "entities": 6515,
      "drama": 6516,
      "Guyana": 6517,
      "##kets": 6518,
      "frequent": 6519,
      "Recent": 6520,
      "##edicine": 6521,
      "companion": 6522,
      "grants": 6523,
      "usefulness": 6524,
      "Belgium": 6525,
      "demonstration": 6526,
      "Nigerian": 6527,
      "encouraged": 6528,
      "fewer": 6529,
      "founded": 6530,
      "returned": 6531,
      "distant": 6532,
      "occurring": 6533,
      "occurrence": 6534,
      "task": 6535,
      "Moon": 6536,
      "device": 6537,
      "ARR": 6538,
      "tempor": 6539,
      "constant": 6540,
      "Fourteenth": 6541,
      "adequately": 6542,
      "Climate": 6543,
      "targets": 6544,
      "chec": 6545,
      "cryst": 6546,
      "EURO": 6547,
      "middle": 6548,
      "constituted": 6549,
      "predicted": 6550,
      "spectra": 6551,
      "Nicaraguan": 6552,
      "classes": 6553,
      "slow": 6554,
      "appears": 6555,
      "Astronom": 6556,
      "REPLIES": 6557,
      "RECEIV": 6558,
      "Community": 6559,
      "assume": 6560,
      "Assessment": 6561,
      "temperatures": 6562,
      "Planning": 6563,
      "reforms": 6564,
      "occupation": 6565,
      "bursts": 6566,
      "subsystem": 6567,
      "expedite": 6568,
      "##ECH": 6569,
      "angle": 6570,
      "Contrac": 6571,
      "commissions": 6572,
      "maternity": 6573,
      "speakers": 6574,
      "immigr": 6575,
      "AMI": 6576,
      "gaps": 6577,
      "Orbital": 6578,
      "CCD": 6579,
      "donor": 6580,
      "widely": 6581,
      "Integrated": 6582,
      "diversi": 6583,
      "diverse": 6584,
      "provinces": 6585,
      "consistent": 6586,
      "Reduction": 6587,
      "categories": 6588,
      "dynamic": 6589,
      "dynamics": 6590,
      "councils": 6591,
      "##ISTRATION": 6592,
      "Appreciation": 6593,
      "surveillance": 6594,
      "Venez": 6595,
      "catal": 6596,
      "panel": 6597,
      "punish": 6598,
      "##gression": 6599,
      "automated": 6600,
      "aliens": 6601,
      "substantial": 6602,
      "Despite": 6603,
      "Multi": 6604,
      "older": 6605,
      "sounding": 6606,
      "inadequate": 6607,
      "contrary": 6608,
      "resumption": 6609,
      "reconciliation": 6610,
      "meaning": 6611,
      "heavy": 6612,
      "amounts": 6613,
      "ESRIN": 6614,
      "Optical": 6615,
      "PLANS": 6616,
      "Quechua": 6617,
      "prospects": 6618,
      "disciplines": 6619,
      "preventive": 6620,
      "reproduced": 6621,
      "Geneva": 6622,
      "Spektr": 6623,
      "puls": 6624,
      "debate": 6625,
      "answers": 6626,
      "adapt": 6627,
      "arcsec": 6628,
      "pregnant": 6629,
      "expenses": 6630,
      "Transport": 6631,
      "Basic": 6632,
      "DRUG": 6633,
      "Urban": 6634,
      "illegal": 6635,
      "stabilized": 6636,
      "Facility": 6637,
      "SCD": 6638,
      "epid": 6639,
      "savings": 6640,
      "propagation": 6641,
      "deplored": 6642,
      "plasma": 6643,
      "SUNSAT": 6644,
      "hydrogen": 6645,
      "slightly": 6646,
      "COSP": 6647,
      "habit": 6648,
      "##oxide": 6649,
      "##ergetic": 6650,
      "##ERVATIONS": 6651,
      "Combat": 6652,
      "envisaged": 6653,
      "CONSIDERATION": 6654,
      "Danish": 6655,
      "Kenya": 6656,
      "OBSERVATIONS": 6657,
      "AGENCY": 6658,
      "Cambodia": 6659,
      "challenges": 6660,
      "destroy": 6661,
      "ESOC": 6662,
      "Korea": 6663,
      "Pathf": 6664,
      "rehabilit": 6665,
      "impossible": 6666,
      "recruitment": 6667,
      "Amazon": 6668,
      "childbirth": 6669,
      "RECEIVED": 6670,
      "Venezuela": 6671,
      "84": 6672,
      "81": 6673,
      "86": 6674,
      "87": 6675,
      "AN": 6676,
      "Author": 6677,
      "Bol": 6678,
      "Block": 6679,
      "Bulg": 6680,
      "Cus": 6681,
      "CSA": 6682,
      "Cali": 6683,
      "Doc": 6684,
      "Domestic": 6685,
      "Drug": 6686,
      "DISC": 6687,
      "Eth": 6688,
      "Equ": 6689,
      "FS": 6690,
      "Fre": 6691,
      "Hug": 6692,
      "Kourou": 6693,
      "Life": 6694,
      "MA": 6695,
      "MT": 6696,
      "Men": 6697,
      "Map": 6698,
      "MER": 6699,
      "Mother": 6700,
      "NR": 6701,
      "Nation": 6702,
      "Near": 6703,
      "Nacional": 6704,
      "Pun": 6705,
      "Prom": 6706,
      "Rac": 6707,
      "Ret": 6708,
      "Ram": 6709,
      "RES": 6710,
      "Sy": 6711,
      "SO": 6712,
      "Somal": 6713,
      "Settlement": 6714,
      "TE": 6715,
      "Tit": 6716,
      "Ver": 6717,
      "WW": 6718,
      "ax": 6719,
      "ausp": 6720,
      "bl": 6721,
      "big": 6722,
      "city": 6723,
      "dou": 6724,
      "dig": 6725,
      "dang": 6726,
      "diversity": 6727,
      "domin": 6728,
      "east": 6729,
      "fav": 6730,
      "father": 6731,
      "fron": 6732,
      "govern": 6733,
      "galactic": 6734,
      "hal": 6735,
      "hund": 6736,
      "latest": 6737,
      "mu": 6738,
      "mer": 6739,
      "mis": 6740,
      "mir": 6741,
      "mill": 6742,
      "native": 6743,
      "pic": 6744,
      "pad": 6745,
      "portion": 6746,
      "sch": 6747,
      "sun": 6748,
      "soph": 6749,
      "tor": 6750,
      "vac": 6751,
      "vary": 6752,
      "vill": 6753,
      "votes": 6754,
      "wal": 6755,
      "wages": 6756,
      "wishes": 6757,
      "##wh": 6758,
      "##wal": 6759,
      "##har": 6760,
      "##ritor": 6761,
      "##son": 6762,
      "##mac": 6763,
      "##oth": 6764,
      "##aur": 6765,
      "##bur": 6766,
      "##uates": 6767,
      "##ctic": 6768,
      "##ganda": 6769,
      "##HIC": 6770,
      "##vak": 6771,
      "##30": 6772,
      "##ATE": 6773,
      "##VEL": 6774,
      "##CR": 6775,
      "##DES": 6776,
      "##BI": 6777,
      "##ía": 6778,
      "theory": 6779,
      "##erate": 6780,
      "##erto": 6781,
      "##ensions": 6782,
      "##esign": 6783,
      "##orm": 6784,
      "##inant": 6785,
      "##arm": 6786,
      "##arity": 6787,
      "##ano": 6788,
      "tol": 6789,
      "town": 6790,
      "today": 6791,
      "##isons": 6792,
      "##rep": 6793,
      "retain": 6794,
      "procur": 6795,
      "##olving": 6796,
      "194": 6797,
      "##urance": 6798,
      "##rating": 6799,
      "##rays": 6800,
      "conce": 6801,
      "##sid": 6802,
      "##side": 6803,
      "##opum": 6804,
      "##ommod": 6805,
      "##rier": 6806,
      "##rian": 6807,
      "##ada": 6808,
      "##advant": 6809,
      "assembly": 6810,
      "##una": 6811,
      "##resses": 6812,
      "particle": 6813,
      "parents": 6814,
      "##tingu": 6815,
      "waste": 6816,
      "##fornia": 6817,
      "##pling": 6818,
      "##osen": 6819,
      "##osis": 6820,
      "##osyn": 6821,
      "coupled": 6822,
      "##imin": 6823,
      "##atellite": 6824,
      "disadvant": 6825,
      "distingu": 6826,
      "##velope": 6827,
      "##aint": 6828,
      "energetic": 6829,
      "enorm": 6830,
      "##amb": 6831,
      "##amber": 6832,
      "coming": 6833,
      "comet": 6834,
      "stat": 6835,
      "recour": 6836,
      "proved": 6837,
      "registration": 6838,
      "##ocol": 6839,
      "##uty": 6840,
      "counter": 6841,
      "arg": 6842,
      "arrays": 6843,
      "shar": 6844,
      "##aps": 6845,
      "communal": 6846,
      "##alling": 6847,
      "chap": 6848,
      "chosen": 6849,
      "segregation": 6850,
      "compare": 6851,
      "partial": 6852,
      "##arians": 6853,
      "motivated": 6854,
      "##estations": 6855,
      "requiring": 6856,
      "apprec": 6857,
      "applying": 6858,
      "102": 6859,
      "inval": 6860,
      "contends": 6861,
      "##plementation": 6862,
      "accommod": 6863,
      "predom": 6864,
      "##ultane": 6865,
      "despite": 6866,
      "descend": 6867,
      "NASS": 6868,
      "considerations": 6869,
      "considerably": 6870,
      "clima": 6871,
      "persist": 6872,
      "Access": 6873,
      "##essionist": 6874,
      "popular": 6875,
      "secessionist": 6876,
      "overview": 6877,
      "##egas": 6878,
      "spending": 6879,
      "transl": 6880,
      "highlight": 6881,
      "variation": 6882,
      "variables": 6883,
      "Associ": 6884,
      "elimin": 6885,
      "experienced": 6886,
      "mineral": 6887,
      "##otrop": 6888,
      "racially": 6889,
      "Apurí": 6890,
      "collecting": 6891,
      "205": 6892,
      "equival": 6893,
      "purch": 6894,
      "##ART": 6895,
      "director": 6896,
      "geom": 6897,
      "signing": 6898,
      "anyone": 6899,
      "producing": 6900,
      "129": 6901,
      "250": 6902,
      "259": 6903,
      "continuity": 6904,
      "receives": 6905,
      "Analys": 6906,
      "##ALTH": 6907,
      "##ALITY": 6908,
      "Independ": 6909,
      "preparations": 6910,
      "weeks": 6911,
      "Humanitarian": 6912,
      "Maur": 6913,
      "Arctic": 6914,
      "examining": 6915,
      "260": 6916,
      "##iteracy": 6917,
      "##bances": 6918,
      "confirmed": 6919,
      "civilians": 6920,
      "Head": 6921,
      "connected": 6922,
      "usually": 6923,
      "originally": 6924,
      "attacks": 6925,
      "requirement": 6926,
      "changing": 6927,
      "contributing": 6928,
      "elevation": 6929,
      "teaching": 6930,
      "integral": 6931,
      "Organizations": 6932,
      "association": 6933,
      "preced": 6934,
      "precipitation": 6935,
      "Presentations": 6936,
      "reply": 6937,
      "qualified": 6938,
      "qualifications": 6939,
      "##escope": 6940,
      "programs": 6941,
      "awarded": 6942,
      "visit": 6943,
      "reductions": 6944,
      "combining": 6945,
      "Tele": 6946,
      "Telescope": 6947,
      "helium": 6948,
      "offering": 6949,
      "commitments": 6950,
      "technique": 6951,
      "assessments": 6952,
      "##missible": 6953,
      "##onautics": 6954,
      "##ourable": 6955,
      "records": 6956,
      "evalu": 6957,
      "transferred": 6958,
      "sentences": 6959,
      "exchang": 6960,
      "obligation": 6961,
      "Records": 6962,
      "granted": 6963,
      "supports": 6964,
      "biological": 6965,
      "largely": 6966,
      "estimate": 6967,
      "camera": 6968,
      "distress": 6969,
      "SARSAT": 6970,
      "feature": 6971,
      "Whole": 6972,
      "opening": 6973,
      "Expert": 6974,
      "verification": 6975,
      "modeling": 6976,
      "constrain": 6977,
      "conflicts": 6978,
      "Implementation": 6979,
      "##isticated": 6980,
      "polarization": 6981,
      "PROTEC": 6982,
      "oceanography": 6983,
      "incorporate": 6984,
      "excell": 6985,
      "##osmos": 6986,
      "1970s": 6987,
      "absolute": 6988,
      "consultations": 6989,
      "crops": 6990,
      "enables": 6991,
      "bringing": 6992,
      "Brazilian": 6993,
      "##IONS": 6994,
      "tension": 6995,
      "appeared": 6996,
      "Astronautical": 6997,
      "readiness": 6998,
      "replies": 6999,
      "replace": 7000,
      "Andean": 7001,
      "##pton": 7002,
      "landsl": 7003,
      "flew": 7004,
      "synchronous": 7005,
      "##PEAN": 7006,
      "sky": 7007,
      "execution": 7008,
      "executions": 7009,
      "breakdown": 7010,
      "intensi": 7011,
      "revision": 7012,
      "suffering": 7013,
      "observer": 7014,
      "residents": 7015,
      "disappeared": 7016,
      "rapidly": 7017,
      "marginalization": 7018,
      "Funds": 7019,
      "Prevention": 7020,
      "adolescent": 7021,
      "vulnerability": 7022,
      "history": 7023,
      "likely": 7024,
      "likewise": 7025,
      "ionosphere": 7026,
      "disseminated": 7027,
      "allegedly": 7028,
      "inquir": 7029,
      "inquired": 7030,
      "regulates": 7031,
      "Industrial": 7032,
      "reiterated": 7033,
      "renewable": 7034,
      "negotiations": 7035,
      "layers": 7036,
      "nursing": 7037,
      "patterns": 7038,
      "Operational": 7039,
      "implications": 7040,
      "Measures": 7041,
      "limitations": 7042,
      "copies": 7043,
      "wavelength": 7044,
      "##ITIES": 7045,
      "Similarly": 7046,
      "dimensions": 7047,
      "believe": 7048,
      "Recommendations": 7049,
      "volume": 7050,
      "Saf": 7051,
      "born": 7052,
      "preservation": 7053,
      "steadily": 7054,
      "Following": 7055,
      "HEALTH": 7056,
      "Puerto": 7057,
      "contemporary": 7058,
      "resolutions": 7059,
      "Infr": 7060,
      "Procurator": 7061,
      "instruction": 7062,
      "ministries": 7063,
      "volcanic": 7064,
      "kilograms": 7065,
      "scenarios": 7066,
      "suspended": 7067,
      "turbopum": 7068,
      "psychological": 7069,
      "##fortun": 7070,
      "disturbances": 7071,
      "guardians": 7072,
      "astrophysics": 7073,
      "obstacles": 7074,
      "AFRI": 7075,
      "Jamaica": 7076,
      "crucial": 7077,
      "##iopia": 7078,
      "physi": 7079,
      "magnitude": 7080,
      "Colombia": 7081,
      "intrinsic": 7082,
      "PROGRAMME": 7083,
      "DAMA": 7084,
      "MASTER": 7085,
      "hurricanes": 7086,
      "rotation": 7087,
      "virtually": 7088,
      "##worthy": 7089,
      "specimens": 7090,
      "EUROPEAN": 7091,
      "COSPAS": 7092,
      "Pathfinder": 7093,
      "Boliv": 7094,
      "Cusco": 7095,
      "California": 7096,
      "Ethiopia": 7097,
      "MTPE": 7098,
      "MERC": 7099,
      "Racism": 7100,
      "Syrian": 7101,
      "Somalia": 7102,
      "WWW": 7103,
      "axis": 7104,
      "auspices": 7105,
      "hundred": 7106,
      "schol": 7107,
      "sophisticated": 7108,
      "##while": 7109,
      "##vakia": 7110,
      "recourse": 7111,
      "climatic": 7112,
      "Association": 7113,
      "Apurímac": 7114,
      "constraints": 7115,
      "turbopump": 7116,
      "83": 7117,
      "85": 7118,
      "AL": 7119,
      "AB": 7120,
      "Ben": 7121,
      "Based": 7122,
      "Bah": 7123,
      "Cath": 7124,
      "EV": 7125,
      "Fu": 7126,
      "Fly": 7127,
      "FON": 7128,
      "Fiscal": 7129,
      "Flor": 7130,
      "Gi": 7131,
      "Gal": 7132,
      "Iran": 7133,
      "ICT": 7134,
      "KSC": 7135,
      "Low": 7136,
      "Loc": 7137,
      "Med": 7138,
      "Mich": 7139,
      "Mari": 7140,
      "MOR": 7141,
      "MAG": 7142,
      "NI": 7143,
      "Neg": 7144,
      "Ozone": 7145,
      "Po": 7146,
      "Prop": 7147,
      "PAC": 7148,
      "Pole": 7149,
      "Pegas": 7150,
      "Rev": 7151,
      "Rio": 7152,
      "Si": 7153,
      "Sources": 7154,
      "Saint": 7155,
      "TOP": 7156,
      "Titan": 7157,
      "UR": 7158,
      "Use": 7159,
      "Very": 7160,
      "Various": 7161,
      "Zambia": 7162,
      "aur": 7163,
      "ahead": 7164,
      "ban": 7165,
      "bric": 7166,
      "batter": 7167,
      "burn": 7168,
      "cur": 7169,
      "cease": 7170,
      "cross": 7171,
      "dri": 7172,
      "doll": 7173,
      "drough": 7174,
      "division": 7175,
      "dark": 7176,
      "fine": 7177,
      "gases": 7178,
      "hor": 7179,
      "hop": 7180,
      "hope": 7181,
      "iron": 7182,
      "lif": 7183,
      "pati": 7184,
      "pass": 7185,
      "path": 7186,
      "river": 7187,
      "squ": 7188,
      "tong": 7189,
      "vers": 7190,
      "vap": 7191,
      "won": 7192,
      "wri": 7193,
      "welf": 7194,
      "your": 7195,
      "##wid": 7196,
      "##wise": 7197,
      "##wives": 7198,
      "##eo": 7199,
      "##eed": 7200,
      "##eved": 7201,
      "##eiro": 7202,
      "##las": 7203,
      "##laration": 7204,
      "##laim": 7205,
      "##tt": 7206,
      "##tanding": 7207,
      "##han": 7208,
      "##ij": 7209,
      "##iour": 7210,
      "##iers": 7211,
      "##itics": 7212,
      "##ike": 7213,
      "##iya": 7214,
      "##yl": 7215,
      "##mally": 7216,
      "##oti": 7217,
      "##aA": 7218,
      "##aug": 7219,
      "##uve": 7220,
      "##pir": 7221,
      "##pted": 7222,
      "##gor": 7223,
      "##Hz": 7224,
      "##zed": 7225,
      "##IES": 7226,
      "##IAL": 7227,
      "##2nd": 7228,
      "##MI": 7229,
      "##MP": 7230,
      "##JEC": 7231,
      "##heid": 7232,
      "theoretical": 7233,
      "##enh": 7234,
      "##enary": 7235,
      "##estim": 7236,
      "##orer": 7237,
      "##ita": 7238,
      "##itational": 7239,
      "##road": 7240,
      "##icit": 7241,
      "##ectr": 7242,
      "##ecture": 7243,
      "##isk": 7244,
      "##isible": 7245,
      "##eli": 7246,
      "##eline": 7247,
      "##omatic": 7248,
      "##ream": 7249,
      "thor": 7250,
      "forth": 7251,
      "forests": 7252,
      "forese": 7253,
      "propose": 7254,
      "progen": 7255,
      "191": 7256,
      "##sies": 7257,
      "##rived": 7258,
      "detained": 7259,
      "deployed": 7260,
      "##ading": 7261,
      "##cia": 7262,
      "##ithms": 7263,
      "##paid": 7264,
      "##lys": 7265,
      "isol": 7266,
      "exem": 7267,
      "excep": 7268,
      "##respective": 7269,
      "across": 7270,
      "alumin": 7271,
      "algor": 7272,
      "restor": 7273,
      "resistance": 7274,
      "##ighting": 7275,
      "Int": 7276,
      "attain": 7277,
      "##quis": 7278,
      "##odes": 7279,
      "##eto": 7280,
      "##etre": 7281,
      "##ectures": 7282,
      "noting": 7283,
      "stability": 7284,
      "##overeign": 7285,
      "recover": 7286,
      "reconstr": 7287,
      "recovery": 7288,
      "recurrent": 7289,
      "province": 7290,
      "interim": 7291,
      "interior": 7292,
      "##udice": 7293,
      "##ologic": 7294,
      "apart": 7295,
      "##akers": 7296,
      "##ocational": 7297,
      "couns": 7298,
      "laid": 7299,
      "arise": 7300,
      "artific": 7301,
      "plus": 7302,
      "plenary": 7303,
      "cool": 7304,
      "ago": 7305,
      "century": 7306,
      "shop": 7307,
      "##iaison": 7308,
      "##usted": 7309,
      "communic": 7310,
      "chief": 7311,
      "underlying": 7312,
      "otherwise": 7313,
      "subcomm": 7314,
      "##jection": 7315,
      "compos": 7316,
      "worker": 7317,
      "abuses": 7318,
      "trace": 7319,
      "manage": 7320,
      "manip": 7321,
      "moved": 7322,
      "nationals": 7323,
      "decay": 7324,
      "decree": 7325,
      "decide": 7326,
      "organizing": 7327,
      "organizational": 7328,
      "##ails": 7329,
      "106": 7330,
      "baseline": 7331,
      "unp": 7332,
      "##TIES": 7333,
      "supplementing": 7334,
      "presid": 7335,
      "terrain": 7336,
      "accounted": 7337,
      "pred": 7338,
      "establishes": 7339,
      "file": 7340,
      "continuation": 7341,
      "descent": 7342,
      "desira": 7343,
      "##teneg": 7344,
      "##risonment": 7345,
      "option": 7346,
      "closed": 7347,
      "##ugg": 7348,
      "##ugal": 7349,
      "ecological": 7350,
      "therein": 7351,
      "Active": 7352,
      "Decides": 7353,
      "Declaration": 7354,
      "##ileo": 7355,
      "overcome": 7356,
      "##tribution": 7357,
      "##egu": 7358,
      "variations": 7359,
      "regarded": 7360,
      "election": 7361,
      "imped": 7362,
      "impover": 7363,
      "imprisonment": 7364,
      "modifications": 7365,
      "Permanent": 7366,
      "##ney": 7367,
      "##never": 7368,
      "dipl": 7369,
      "flown": 7370,
      "express": 7371,
      "Janeiro": 7372,
      "##TEM": 7373,
      "140": 7374,
      "146": 7375,
      "##rols": 7376,
      "Attor": 7377,
      "advance": 7378,
      "Together": 7379,
      "170": 7380,
      "179": 7381,
      "ethnically": 7382,
      "directions": 7383,
      "consor": 7384,
      "extending": 7385,
      "Church": 7386,
      "adopt": 7387,
      "geosyn": 7388,
      "markets": 7389,
      "mainland": 7390,
      "matri": 7391,
      "Disappear": 7392,
      "ide": 7393,
      "Envelope": 7394,
      "detecting": 7395,
      "initiate": 7396,
      "submits": 7397,
      "submitting": 7398,
      "redesign": 7399,
      "Constitutional": 7400,
      "210": 7401,
      "refers": 7402,
      "refused": 7403,
      "evid": 7404,
      "remar": 7405,
      "##HED": 7406,
      "contributors": 7407,
      "Official": 7408,
      "##tegration": 7409,
      "1960": 7410,
      "247": 7411,
      "longitude": 7412,
      "performing": 7413,
      "261": 7414,
      "thirteenth": 7415,
      "2248": 7416,
      "occas": 7417,
      "occurs": 7418,
      "bene": 7419,
      "238": 7420,
      "237": 7421,
      "confron": 7422,
      "Lao": 7423,
      "multilateral": 7424,
      "##engths": 7425,
      "279": 7426,
      "explan": 7427,
      "explore": 7428,
      "medic": 7429,
      "benefited": 7430,
      "engines": 7431,
      "##ovo": 7432,
      "changed": 7433,
      "emphasizing": 7434,
      "##lusion": 7435,
      "investigators": 7436,
      "investigator": 7437,
      "##istrates": 7438,
      "limits": 7439,
      "##odetic": 7440,
      "##anches": 7441,
      "undertaking": 7442,
      "profit": 7443,
      "away": 7444,
      "Regions": 7445,
      "combating": 7446,
      "combination": 7447,
      "obtaining": 7448,
      "complains": 7449,
      "values": 7450,
      "utilized": 7451,
      "thirds": 7452,
      "powered": 7453,
      "UNDER": 7454,
      "Educational": 7455,
      "entity": 7456,
      "sustained": 7457,
      "understand": 7458,
      "cooperating": 7459,
      "minimal": 7460,
      "quas": 7461,
      "##omedical": 7462,
      "introducing": 7463,
      "scheduling": 7464,
      "Islands": 7465,
      "helped": 7466,
      "lived": 7467,
      "infrastructures": 7468,
      "farm": 7469,
      "##oyal": 7470,
      "biology": 7471,
      "biomedical": 7472,
      "kilo": 7473,
      "referendum": 7474,
      "principally": 7475,
      "damages": 7476,
      "starting": 7477,
      "facilitated": 7478,
      "##ICATIONS": 7479,
      "returning": 7480,
      "Arianes": 7481,
      "pointing": 7482,
      "##SCC": 7483,
      "suggestions": 7484,
      "opened": 7485,
      "verbal": 7486,
      "devices": 7487,
      "bandwid": 7488,
      "##emiconduc": 7489,
      "noteworthy": 7490,
      "finding": 7491,
      "Imaging": 7492,
      "Impro": 7493,
      "ENN": 7494,
      "targeted": 7495,
      "##LECOM": 7496,
      "Cooperative": 7497,
      "##ribunals": 7498,
      "Administrative": 7499,
      "safegu": 7500,
      "##point": 7501,
      "prosecute": 7502,
      "remaining": 7503,
      "Monteneg": 7504,
      "suppliers": 7505,
      "Police": 7506,
      "Terrestrial": 7507,
      "Territor": 7508,
      "photography": 7509,
      "614": 7510,
      "pursu": 7511,
      "generate": 7512,
      "autonomy": 7513,
      "Direct": 7514,
      "Trade": 7515,
      "look": 7516,
      "actors": 7517,
      "influenced": 7518,
      "complexity": 7519,
      "Physics": 7520,
      "permitted": 7521,
      "##udices": 7522,
      "familiar": 7523,
      "enhancements": 7524,
      "##CODES": 7525,
      "ballot": 7526,
      "balloon": 7527,
      "balloons": 7528,
      "interaction": 7529,
      "channel": 7530,
      "supplemented": 7531,
      "patrols": 7532,
      "apparent": 7533,
      "apparently": 7534,
      "COPUOS": 7535,
      "Argentine": 7536,
      "holding": 7537,
      "Solid": 7538,
      "outstanding": 7539,
      "##ridge": 7540,
      "competent": 7541,
      "Struve": 7542,
      "attempt": 7543,
      "customary": 7544,
      "customers": 7545,
      "deaths": 7546,
      "conclusions": 7547,
      "appoint": 7548,
      "Peoples": 7549,
      "separate": 7550,
      "##UNC": 7551,
      "Inca": 7552,
      "Atmosphere": 7553,
      "disseminate": 7554,
      "Engineers": 7555,
      "velo": 7556,
      "perpetrated": 7557,
      "Venus": 7558,
      "punishment": 7559,
      "reiterates": 7560,
      "reservations": 7561,
      "scanning": 7562,
      "APSCC": 7563,
      "IML": 7564,
      "bilateral": 7565,
      "samples": 7566,
      "conjugal": 7567,
      "inventories": 7568,
      "uncertain": 7569,
      "elaborated": 7570,
      "graduates": 7571,
      "flexibility": 7572,
      "Microwave": 7573,
      "turnover": 7574,
      "promulg": 7575,
      "propellant": 7576,
      "propellants": 7577,
      "amounting": 7578,
      "heard": 7579,
      "wavelengths": 7580,
      "forums": 7581,
      "scatterometer": 7582,
      "flooding": 7583,
      "CHIL": 7584,
      "dissolved": 7585,
      "district": 7586,
      "districts": 7587,
      "prejudice": 7588,
      "prejudices": 7589,
      "neglig": 7590,
      "applicability": 7591,
      "monthly": 7592,
      "supernovae": 7593,
      "manoeuvre": 7594,
      "Slovakia": 7595,
      "Turk": 7596,
      "portable": 7597,
      "innovative": 7598,
      "thousand": 7599,
      "neighbourhood": 7600,
      "embar": 7601,
      "destruction": 7602,
      "deliberations": 7603,
      "remuneration": 7604,
      "Compensation": 7605,
      "contraceptives": 7606,
      "GROUP": 7607,
      "arrested": 7608,
      "##ORMATION": 7609,
      "arrangements": 7610,
      "justified": 7611,
      "##MINATION": 7612,
      "withdrawal": 7613,
      "exactly": 7614,
      "interferometry": 7615,
      "arbitrary": 7616,
      "ships": 7617,
      "emissions": 7618,
      "INFORMATION": 7619,
      "equatorial": 7620,
      "globe": 7621,
      "winged": 7622,
      "Consult": 7623,
      "seems": 7624,
      "subregional": 7625,
      "unwilling": 7626,
      "assessing": 7627,
      "##ISSION": 7628,
      "repatriation": 7629,
      "summarized": 7630,
      "Violence": 7631,
      "managerial": 7632,
      "behaviour": 7633,
      "eradicate": 7634,
      "efficiency": 7635,
      "narrow": 7636,
      "stereo": 7637,
      "true": 7638,
      "##prise": 7639,
      "promising": 7640,
      "indemnification": 7641,
      "chlorine": 7642,
      "season": 7643,
      "temporal": 7644,
      "crystal": 7645,
      "Astronomical": 7646,
      "subsystems": 7647,
      "immigrants": 7648,
      "rehabilitation": 7649,
      "Docu": 7650,
      "Hughes": 7651,
      "Mothers": 7652,
      "TELECOM": 7653,
      "doub": 7654,
      "favourable": 7655,
      "mutual": 7656,
      "picture": 7657,
      "predominant": 7658,
      "equivalent": 7659,
      "precedence": 7660,
      "PROTECTION": 7661,
      "Safety": 7662,
      "Infrared": 7663,
      "Bolivia": 7664,
      "scholars": 7665,
      "Catholic": 7666,
      "FONCODES": 7667,
      "Galileo": 7668,
      "ICTP": 7669,
      "MAGION": 7670,
      "NIH": 7671,
      "Negoti": 7672,
      "Pegasus": 7673,
      "TOPEX": 7674,
      "dollars": 7675,
      "droughts": 7676,
      "square": 7677,
      "tongue": 7678,
      "vapour": 7679,
      "writing": 7680,
      "welfare": 7681,
      "foreseen": 7682,
      "algorithms": 7683,
      "artificial": 7684,
      "chiefly": 7685,
      "Attorney": 7686,
      "geosynchronous": 7687,
      "22482": 7688,
      "Arianespace": 7689,
      "Montenegro": 7690,
      "CHILD": 7691,
      "Negotiations": 7692,
      "05": 7693,
      "79": 7694,
      "88": 7695,
      "99": 7696,
      "AME": 7697,
      "BI": 7698,
      "But": 7699,
      "Broad": 7700,
      "Cre": 7701,
      "City": 7702,
      "Cross": 7703,
      "DARA": 7704,
      "Effor": 7705,
      "ERO": 7706,
      "Fig": 7707,
      "Found": 7708,
      "Flight": 7709,
      "Falls": 7710,
      "GL": 7711,
      "GR": 7712,
      "GaA": 7713,
      "Hy": 7714,
      "Ha": 7715,
      "Hig": 7716,
      "Iv": 7717,
      "ISL": 7718,
      "JSA": 7719,
      "Kr": 7720,
      "Kir": 7721,
      "Lu": 7722,
      "LI": 7723,
      "Mu": 7724,
      "Mat": 7725,
      "Mos": 7726,
      "Main": 7727,
      "Mater": 7728,
      "MITI": 7729,
      "Ni": 7730,
      "Nep": 7731,
      "NIST": 7732,
      "NUM": 7733,
      "Os": 7734,
      "Og": 7735,
      "Pers": 7736,
      "Pose": 7737,
      "Purs": 7738,
      "Ques": 7739,
      "Ray": 7740,
      "RSA": 7741,
      "ROM": 7742,
      "RURAL": 7743,
      "Royal": 7744,
      "SH": 7745,
      "SY": 7746,
      "Sat": 7747,
      "Sum": 7748,
      "SEN": 7749,
      "Semin": 7750,
      "Scan": 7751,
      "Tor": 7752,
      "Tsi": 7753,
      "Tri": 7754,
      "Test": 7755,
      "TECH": 7756,
      "UP": 7757,
      "Uganda": 7758,
      "Ulys": 7759,
      "West": 7760,
      "Wide": 7761,
      "Year": 7762,
      "Za": 7763,
      "aud": 7764,
      "aug": 7765,
      "affor": 7766,
      "aviation": 7767,
      "bank": 7768,
      "borne": 7769,
      "cens": 7770,
      "dos": 7771,
      "hus": 7772,
      "homes": 7773,
      "hemisphere": 7774,
      "lost": 7775,
      "labor": 7776,
      "mas": 7777,
      "mur": 7778,
      "mem": 7779,
      "moun": 7780,
      "mining": 7781,
      "mach": 7782,
      "merg": 7783,
      "mental": 7784,
      "mixed": 7785,
      "pour": 7786,
      "piec": 7787,
      "rays": 7788,
      "roughly": 7789,
      "san": 7790,
      "smo": 7791,
      "semiconduc": 7792,
      "tail": 7793,
      "tried": 7794,
      "tons": 7795,
      "trib": 7796,
      "tribunals": 7797,
      "vocational": 7798,
      "wor": 7799,
      "wishing": 7800,
      "wanted": 7801,
      "words": 7802,
      "##lA": 7803,
      "##lé": 7804,
      "##lades": 7805,
      "##tative": 7806,
      "##haps": 7807,
      "##iF": 7808,
      "##ipa": 7809,
      "##itions": 7810,
      "##ients": 7811,
      "##rarian": 7812,
      "##ying": 7813,
      "##oking": 7814,
      "##ael": 7815,
      "##atically": 7816,
      "##bil": 7817,
      "##uay": 7818,
      "##cow": 7819,
      "##ORS": 7820,
      "##pus": 7821,
      "##pines": 7822,
      "##gy": 7823,
      "##gic": 7824,
      "##government": 7825,
      "##zing": 7826,
      "##IP": 7827,
      "##EW": 7828,
      "##SH": 7829,
      "##LS": 7830,
      "##Re": 7831,
      "##RA": 7832,
      "##CL": 7833,
      "##UD": 7834,
      "##USS": 7835,
      "##DER": 7836,
      "##DIS": 7837,
      "##ín": 7838,
      "##WiF": 7839,
      "##tile": 7840,
      "theme": 7841,
      "##ert": 7842,
      "##err": 7843,
      "##eroon": 7844,
      "##ense": 7845,
      "##ensive": 7846,
      "##esides": 7847,
      "##orbit": 7848,
      "##ini": 7849,
      "##ink": 7850,
      "##inat": 7851,
      "##inery": 7852,
      "##alities": 7853,
      "inh": 7854,
      "inj": 7855,
      "inad": 7856,
      "inaug": 7857,
      "##itors": 7858,
      "##ares": 7859,
      "##aria": 7860,
      "##rosion": 7861,
      "##ictions": 7862,
      "##enter": 7863,
      "##entry": 7864,
      "##ects": 7865,
      "##ectric": 7866,
      "too": 7867,
      "##rets": 7868,
      "##oux": 7869,
      "repar": 7870,
      "forced": 7871,
      "##star": 7872,
      "propul": 7873,
      "progres": 7874,
      "##oln": 7875,
      "##olera": 7876,
      "##iland": 7877,
      "##ilip": 7878,
      "##rained": 7879,
      "consi": 7880,
      "convey": 7881,
      "##sians": 7882,
      "##ridi": 7883,
      "##ull": 7884,
      "##ults": 7885,
      "##ulator": 7886,
      "dead": 7887,
      "##ados": 7888,
      "##sets": 7889,
      "ord": 7890,
      "orders": 7891,
      "##very": 7892,
      "##emaker": 7893,
      "##emony": 7894,
      "exists": 7895,
      "##idon": 7896,
      "##iding": 7897,
      "##ressing": 7898,
      "##ateur": 7899,
      "##elled": 7900,
      "##ellar": 7901,
      "alone": 7902,
      "altitudes": 7903,
      "resolved": 7904,
      "##portant": 7905,
      "attained": 7906,
      "atomic": 7907,
      "##pler": 7908,
      "##plain": 7909,
      "##umb": 7910,
      "##uct": 7911,
      "##imat": 7912,
      "##imetre": 7913,
      "##quipa": 7914,
      "dism": 7915,
      "disru": 7916,
      "disabl": 7917,
      "##izon": 7918,
      "Constitu": 7919,
      "Conventions": 7920,
      "##pers": 7921,
      "##ody": 7922,
      "##odynam": 7923,
      "##etal": 7924,
      "##amp": 7925,
      "notice": 7926,
      "compact": 7927,
      "Statis": 7928,
      "##venia": 7929,
      "##ustion": 7930,
      "##usable": 7931,
      "##erequis": 7932,
      "regrets": 7933,
      "intervals": 7934,
      "##ffs": 7935,
      "obvious": 7936,
      "##ocrac": 7937,
      "##soever": 7938,
      "arena": 7939,
      "plate": 7940,
      "##agn": 7941,
      "##agen": 7942,
      "centred": 7943,
      "shap": 7944,
      "shield": 7945,
      "chair": 7946,
      "chamber": 7947,
      "cholera": 7948,
      "underway": 7949,
      "##lude": 7950,
      "notably": 7951,
      "developmental": 7952,
      "concrete": 7953,
      "subpar": 7954,
      "##ferring": 7955,
      "sole": 7956,
      "works": 7957,
      "train": 7958,
      "tragic": 7959,
      "moving": 7960,
      "motors": 7961,
      "internationally": 7962,
      "decides": 7963,
      "premis": 7964,
      "103": 7965,
      "104": 7966,
      "basically": 7967,
      "##onomous": 7968,
      "whenever": 7969,
      "invites": 7970,
      "senior": 7971,
      "contac": 7972,
      "suppression": 7973,
      "Projects": 7974,
      "neu": 7975,
      "operator": 7976,
      "presently": 7977,
      "terminal": 7978,
      "emitted": 7979,
      "##iana": 7980,
      "accum": 7981,
      "prerequis": 7982,
      "faced": 7983,
      "asser": 7984,
      "assisted": 7985,
      "truly": 7986,
      "continent": 7987,
      "desired": 7988,
      "raise": 7989,
      "##ISMA": 7990,
      "Interior": 7991,
      "opposed": 7992,
      "eccent": 7993,
      "thereon": 7994,
      "planets": 7995,
      "formulating": 7996,
      "outcome": 7997,
      "stratospheric": 7998,
      "strugg": 7999,
      "overl": 8000,
      "overse": 8001,
      "##egash": 8002,
      "##mitted": 8003,
      "115": 8004,
      "spring": 8005,
      "transpon": 8006,
      "varied": 8007,
      "##NDR": 8008,
      "authorization": 8009,
      "##racking": 8010,
      "thanked": 8011,
      "142": 8012,
      "145": 8013,
      "partner": 8014,
      "phone": 8015,
      "Repres": 8016,
      "surv": 8017,
      "##ployable": 8018,
      "174": 8019,
      "178": 8020,
      "equally": 8021,
      "adopting": 8022,
      "geophysical": 8023,
      "geologic": 8024,
      "geodetic": 8025,
      "130": 8026,
      "134": 8027,
      "135": 8028,
      "radars": 8029,
      "168": 8030,
      "Displ": 8031,
      "ideal": 8032,
      "183": 8033,
      "182": 8034,
      "Resource": 8035,
      "Rescue": 8036,
      "robo": 8037,
      "democrac": 8038,
      "join": 8039,
      "designated": 8040,
      "mention": 8041,
      "##tilities": 8042,
      "solely": 8043,
      "completely": 8044,
      "refine": 8045,
      "accorded": 8046,
      "delays": 8047,
      "endeavour": 8048,
      "Indones": 8049,
      "defining": 8050,
      "defray": 8051,
      "evolving": 8052,
      "preparing": 8053,
      "##ypsies": 8054,
      "Major": 8055,
      "operationally": 8056,
      "Army": 8057,
      "fulf": 8058,
      "examples": 8059,
      "1961": 8060,
      "1966": 8061,
      "Councils": 8062,
      "283": 8063,
      "creating": 8064,
      "costly": 8065,
      "prints": 8066,
      "230": 8067,
      "234": 8068,
      "231": 8069,
      "confisc": 8070,
      "##atisfaction": 8071,
      "Only": 8072,
      "277": 8073,
      "explain": 8074,
      "simultane": 8075,
      "engage": 8076,
      "##ova": 8077,
      "grew": 8078,
      "integrate": 8079,
      "Membership": 8080,
      "Requ": 8081,
      "Review": 8082,
      "Therefore": 8083,
      "leader": 8084,
      "liber": 8085,
      "liability": 8086,
      "expulsion": 8087,
      "aims": 8088,
      "electric": 8089,
      "emerged": 8090,
      "emergencies": 8091,
      "select": 8092,
      "selective": 8093,
      "##ancophone": 8094,
      "Compan": 8095,
      "metre": 8096,
      "qualification": 8097,
      "awa": 8098,
      "documentation": 8099,
      "declined": 8100,
      "exploited": 8101,
      "relevance": 8102,
      "See": 8103,
      "urbanization": 8104,
      "whatsoever": 8105,
      "Senior": 8106,
      "##rosc": 8107,
      "eventual": 8108,
      "properly": 8109,
      "utility": 8110,
      "exercised": 8111,
      "characterization": 8112,
      "Presidency": 8113,
      "##rections": 8114,
      "Applied": 8115,
      "determining": 8116,
      "corona": 8117,
      "deputies": 8118,
      "achievement": 8119,
      "ceremony": 8120,
      "quer": 8121,
      "quick": 8122,
      "sentenced": 8123,
      "frequencies": 8124,
      "Recalling": 8125,
      "focal": 8126,
      "mechanical": 8127,
      "605": 8128,
      "magistrates": 8129,
      "##EMENT": 8130,
      "reflection": 8131,
      "backsc": 8132,
      "circu": 8133,
      "statements": 8134,
      "372": 8135,
      "demonstrations": 8136,
      "fails": 8137,
      "claiming": 8138,
      "foundation": 8139,
      "realized": 8140,
      "realistic": 8141,
      "##plying": 8142,
      "Manuela": 8143,
      "seriously": 8144,
      "Sales": 8145,
      "mandated": 8146,
      "removed": 8147,
      "removal": 8148,
      "managing": 8149,
      "achievements": 8150,
      "Important": 8151,
      "Financial": 8152,
      "Finland": 8153,
      "Oceanic": 8154,
      "treated": 8155,
      "submissions": 8156,
      "PRISMA": 8157,
      "SUB": 8158,
      "heads": 8159,
      "headed": 8160,
      "headquarters": 8161,
      "constructed": 8162,
      "prevented": 8163,
      "Protocol": 8164,
      "Meteorology": 8165,
      "Tanegash": 8166,
      "orbited": 8167,
      "predictions": 8168,
      "Poland": 8169,
      "Political": 8170,
      "publications": 8171,
      "extension": 8172,
      "difficulty": 8173,
      "Networks": 8174,
      "Terre": 8175,
      "colle": 8176,
      "summer": 8177,
      "budgetary": 8178,
      "readily": 8179,
      "replaced": 8180,
      "investments": 8181,
      "Philip": 8182,
      "aeronautical": 8183,
      "restrict": 8184,
      "restrictions": 8185,
      "AGE": 8186,
      "Aeronautics": 8187,
      "##COVER": 8188,
      "standardized": 8189,
      "TRAIN": 8190,
      "postgraduate": 8191,
      "responding": 8192,
      "burned": 8193,
      "breakup": 8194,
      "Cameroon": 8195,
      "allocation": 8196,
      "Prime": 8197,
      "##mony": 8198,
      "competitiveness": 8199,
      "classified": 8200,
      "Pref": 8201,
      "Prepar": 8202,
      "irr": 8203,
      "irrespective": 8204,
      "losses": 8205,
      "Explorer": 8206,
      "LAUNC": 8207,
      "separated": 8208,
      "municipalities": 8209,
      "##mentine": 8210,
      "restore": 8211,
      "complementary": 8212,
      "decreased": 8213,
      "##ENCE": 8214,
      "##ANET": 8215,
      "feasible": 8216,
      "regulatory": 8217,
      "magnetospheric": 8218,
      "hydrological": 8219,
      "thought": 8220,
      "scanners": 8221,
      "automatic": 8222,
      "dropped": 8223,
      "running": 8224,
      "sampling": 8225,
      "##nesty": 8226,
      "##AGE": 8227,
      "expectations": 8228,
      "expectancy": 8229,
      "elaboration": 8230,
      "validation": 8231,
      "announce": 8232,
      "substantially": 8233,
      "criterion": 8234,
      "Serbs": 8235,
      "Joint": 8236,
      "reconsider": 8237,
      "accelerated": 8238,
      "REPORTS": 8239,
      "adjustment": 8240,
      "Autonomous": 8241,
      "hearing": 8242,
      "alternative": 8243,
      "preventing": 8244,
      "stipulates": 8245,
      "migratory": 8246,
      "Areas": 8247,
      "Arequipa": 8248,
      "EDUCATION": 8249,
      "EDUCATIONAL": 8250,
      "Hungary": 8251,
      "Hungarian": 8252,
      "dimin": 8253,
      "routin": 8254,
      "installations": 8255,
      "defendant": 8256,
      "believed": 8257,
      "corresponding": 8258,
      "Recommendation": 8259,
      "volumes": 8260,
      "prohibited": 8261,
      "DoE": 8262,
      "Malay": 8263,
      "Super": 8264,
      "Slovenia": 8265,
      "humid": 8266,
      "kinds": 8267,
      "##ABLE": 8268,
      "thousands": 8269,
      "probably": 8270,
      "Province": 8271,
      "neighbouring": 8272,
      "diffuse": 8273,
      "SeaWiF": 8274,
      "corrected": 8275,
      "IDNDR": 8276,
      "Panama": 8277,
      "divided": 8278,
      "frank": 8279,
      "francophone": 8280,
      "gathering": 8281,
      "reaffirmed": 8282,
      "proclaim": 8283,
      "attributed": 8284,
      "disparity": 8285,
      "disparities": 8286,
      "unemployment": 8287,
      "unemployed": 8288,
      "REGION": 8289,
      "ACTIVITIES": 8290,
      "drafting": 8291,
      "accomplish": 8292,
      "Banglades": 8293,
      "Spin": 8294,
      "logistics": 8295,
      "messages": 8296,
      "retrieved": 8297,
      "beams": 8298,
      "defici": 8299,
      "compatibility": 8300,
      "consumption": 8301,
      "correlation": 8302,
      "ENVISAT": 8303,
      "citizenship": 8304,
      "repeatedly": 8305,
      "Clementine": 8306,
      "Censuses": 8307,
      "GDP": 8308,
      "SFU": 8309,
      "Sixty": 8310,
      "Tamil": 8311,
      "tonnes": 8312,
      "##ogenic": 8313,
      "seismic": 8314,
      "Profession": 8315,
      "Procedure": 8316,
      "Tokyo": 8317,
      "gravitational": 8318,
      "Between": 8319,
      "Barbados": 8320,
      "balance": 8321,
      "hostilities": 8322,
      "passed": 8323,
      "rendered": 8324,
      "aggrav": 8325,
      "clusters": 8326,
      "Radiometer": 8327,
      "habitat": 8328,
      "Authority": 8329,
      "Ramos": 8330,
      "digitiz": 8331,
      "halt": 8332,
      "millimetre": 8333,
      "torture": 8334,
      "##CRP": 8335,
      "tolerance": 8336,
      "procurators": 8337,
      "conceived": 8338,
      "enormous": 8339,
      "appreciated": 8340,
      "invaluable": 8341,
      "purchase": 8342,
      "Headquarters": 8343,
      "landslides": 8344,
      "AFRICOVER": 8345,
      "MERCURE": 8346,
      "Flyer": 8347,
      "Flora": 8348,
      "Michael": 8349,
      "Sioux": 8350,
      "hoped": 8351,
      "##JECTS": 8352,
      "thoroughly": 8353,
      "exempl": 8354,
      "restoration": 8355,
      "apartheid": 8356,
      "counselling": 8357,
      "subcommittee": 8358,
      "desirable": 8359,
      "diplomatic": 8360,
      "consortium": 8361,
      "benefic": 8362,
      "medicine": 8363,
      "verbale": 8364,
      "ENNIV": 8365,
      "Territories": 8366,
      "velocities": 8367,
      "promulgated": 8368,
      "Turkish": 8369,
      "BITS": 8370,
      "Broadc": 8371,
      "Efforts": 8372,
      "EROS": 8373,
      "GaAlA": 8374,
      "Higher": 8375,
      "JSASS": 8376,
      "Moscow": 8377,
      "NUMBER": 8378,
      "Ogon": 8379,
      "Poseidon": 8380,
      "Pursu": 8381,
      "Questions": 8382,
      "Tsik": 8383,
      "TECHN": 8384,
      "Ulysses": 8385,
      "audio": 8386,
      "augment": 8387,
      "afford": 8388,
      "husband": 8389,
      "laboratories": 8390,
      "semiconductor": 8391,
      "##governmental": 8392,
      "inadmissible": 8393,
      "considers": 8394,
      "##ridium": 8395,
      "disabled": 8396,
      "premises": 8397,
      "eccentric": 8398,
      "democracy": 8399,
      "backscatter": 8400,
      "Tanegashima": 8401,
      "Philippines": 8402,
      "TRAINING": 8403,
      "SeaWiFS": 8404,
      "Bangladesh": 8405,
      "GaAlAs": 8406,
      "03": 8407,
      "2C": 8408,
      "ARS": 8409,
      "Bar": 8410,
      "Band": 8411,
      "BIR": 8412,
      "Ca": 8413,
      "Cultural": 8414,
      "Cape": 8415,
      "Current": 8416,
      "CARE": 8417,
      "DN": 8418,
      "Dop": 8419,
      "Datab": 8420,
      "Domin": 8421,
      "DHS": 8422,
      "EX": 8423,
      "Eur": 8424,
      "Even": 8425,
      "Effec": 8426,
      "East": 8427,
      "Early": 8428,
      "EUR": 8429,
      "Every": 8430,
      "Fas": 8431,
      "Fact": 8432,
      "Fixed": 8433,
      "Gala": 8434,
      "Graz": 8435,
      "GEOS": 8436,
      "GATES": 8437,
      "Hip": 8438,
      "HRI": 8439,
      "HOP": 8440,
      "Ic": 8441,
      "IL": 8442,
      "IP": 8443,
      "Ion": 8444,
      "IAC": 8445,
      "IOC": 8446,
      "Jew": 8447,
      "Kos": 8448,
      "Kak": 8449,
      "KIT": 8450,
      "Lin": 8451,
      "Mc": 8452,
      "Mid": 8453,
      "Miti": 8454,
      "MAR": 8455,
      "Mount": 8456,
      "MAT": 8457,
      "Milk": 8458,
      "Miss": 8459,
      "Moln": 8460,
      "Nera": 8461,
      "OC": 8462,
      "OB": 8463,
      "Out": 8464,
      "OTH": 8465,
      "PT": 8466,
      "POS": 8467,
      "RJ": 8468,
      "Ren": 8469,
      "Ref": 8470,
      "Risk": 8471,
      "Sin": 8472,
      "Section": 8473,
      "Search": 8474,
      "Sug": 8475,
      "Spect": 8476,
      "SAD": 8477,
      "Satisfaction": 8478,
      "Tog": 8479,
      "Table": 8480,
      "Tot": 8481,
      "Tracking": 8482,
      "Urug": 8483,
      "UOSAT": 8484,
      "VL": 8485,
      "Way": 8486,
      "Water": 8487,
      "WHO": 8488,
      "XII": 8489,
      "Yok": 8490,
      "YEA": 8491,
      "bar": 8492,
      "centi": 8493,
      "dry": 8494,
      "er": 8495,
      "eru": 8496,
      "echo": 8497,
      "ejected": 8498,
      "erosion": 8499,
      "fed": 8500,
      "furn": 8501,
      "filled": 8502,
      "gear": 8503,
      "ha": 8504,
      "hom": 8505,
      "here": 8506,
      "hoc": 8507,
      "happ": 8508,
      "kb": 8509,
      "lic": 8510,
      "literacy": 8511,
      "mm": 8512,
      "mes": 8513,
      "mist": 8514,
      "null": 8515,
      "ox": 8516,
      "pig": 8517,
      "pain": 8518,
      "pup": 8519,
      "ran": 8520,
      "rig": 8521,
      "she": 8522,
      "sympo": 8523,
      "sovereign": 8524,
      "table": 8525,
      "tank": 8526,
      "tends": 8527,
      "ven": 8528,
      "went": 8529,
      "wage": 8530,
      "wildlife": 8531,
      "##went": 8532,
      "##wana": 8533,
      "##ead": 8534,
      "##la": 8535,
      "##lines": 8536,
      "##fl": 8537,
      "##fol": 8538,
      "##tz": 8539,
      "##hn": 8540,
      "##iator": 8541,
      "##rd": 8542,
      "##ras": 8543,
      "##rations": 8544,
      "##rate": 8545,
      "##rors": 8546,
      "##ki": 8547,
      "##kal": 8548,
      "##kina": 8549,
      "##yan": 8550,
      "##yut": 8551,
      "##mary": 8552,
      "##making": 8553,
      "##oys": 8554,
      "##oire": 8555,
      "##oks": 8556,
      "##oemaker": 8557,
      "##nual": 8558,
      "##nutrition": 8559,
      "##aher": 8560,
      "##under": 8561,
      "##cer": 8562,
      "##cos": 8563,
      "##OV": 8564,
      "##OD": 8565,
      "##pp": 8566,
      "##puts": 8567,
      "##zh": 8568,
      "##zow": 8569,
      "##IDA": 8570,
      "##ET": 8571,
      "##EAS": 8572,
      "##NEX": 8573,
      "##AU": 8574,
      "##Ts": 8575,
      "##TALITY": 8576,
      "##LR": 8577,
      "##LY": 8578,
      "##LIT": 8579,
      "##LIC": 8580,
      "##PER": 8581,
      "##GE": 8582,
      "##GA": 8583,
      "##GC": 8584,
      "##GRO": 8585,
      "##CES": 8586,
      "##UTION": 8587,
      "##UATION": 8588,
      "##MD": 8589,
      "##Donn": 8590,
      "##BE": 8591,
      "##BAN": 8592,
      "##hema": 8593,
      "##tiz": 8594,
      "##tial": 8595,
      "##till": 8596,
      "theories": 8597,
      "##enn": 8598,
      "##ension": 8599,
      "##ora": 8600,
      "##ores": 8601,
      "##oring": 8602,
      "##ority": 8603,
      "##orand": 8604,
      "##alan": 8605,
      "inte": 8606,
      "inac": 8607,
      "##atute": 8608,
      "##armed": 8609,
      "##anch": 8610,
      "##antive": 8611,
      "##anwhile": 8612,
      "##rot": 8613,
      "##rov": 8614,
      "##rose": 8615,
      "##roximately": 8616,
      "##entation": 8617,
      "##ectual": 8618,
      "tot": 8619,
      "toll": 8620,
      "toxic": 8621,
      "##reted": 8622,
      "##reast": 8623,
      "##ask": 8624,
      "##asis": 8625,
      "##asts": 8626,
      "##ashes": 8627,
      "##ounder": 8628,
      "##mentary": 8629,
      "reti": 8630,
      "reusable": 8631,
      "##tswana": 8632,
      "things": 8633,
      "##stru": 8634,
      "proto": 8635,
      "##olec": 8636,
      "190": 8637,
      "##ura": 8638,
      "##uries": 8639,
      "##urable": 8640,
      "##raq": 8641,
      "##rand": 8642,
      "##racial": 8643,
      "conting": 8644,
      "consequently": 8645,
      "##teb": 8646,
      "##teers": 8647,
      "##irect": 8648,
      "##irms": 8649,
      "##ulf": 8650,
      "##ads": 8651,
      "##ado": 8652,
      "##adem": 8653,
      "##through": 8654,
      "##pair": 8655,
      "aspir": 8656,
      "##ching": 8657,
      "##vers": 8658,
      "exces": 8659,
      "expects": 8660,
      "##herent": 8661,
      "##atever": 8662,
      "##ellan": 8663,
      "##ellectual": 8664,
      "acre": 8665,
      "acute": 8666,
      "alco": 8667,
      "respected": 8668,
      "park": 8669,
      "param": 8670,
      "##tum": 8671,
      "##forced": 8672,
      "##itim": 8673,
      "whatever": 8674,
      "##oss": 8675,
      "anim": 8676,
      "anticip": 8677,
      "perhaps": 8678,
      "##ows": 8679,
      "Conf": 8680,
      "Concil": 8681,
      "enum": 8682,
      "entr": 8683,
      "ensh": 8684,
      "enact": 8685,
      "##cessing": 8686,
      "##grating": 8687,
      "##grade": 8688,
      "##ectonic": 8689,
      "##amm": 8690,
      "##ampton": 8691,
      "nothing": 8692,
      "comes": 8693,
      "Stand": 8694,
      "Statute": 8695,
      "##vene": 8696,
      "##endar": 8697,
      "adult": 8698,
      "adverse": 8699,
      "##using": 8700,
      "regulation": 8701,
      "interfaces": 8702,
      "interdisciplinary": 8703,
      "intervene": 8704,
      "meg": 8705,
      "incom": 8706,
      "Unfortun": 8707,
      "##utable": 8708,
      "##illa": 8709,
      "##illary": 8710,
      "##ewable": 8711,
      "##SAR": 8712,
      "##pectives": 8713,
      "arms": 8714,
      "plates": 8715,
      "plant": 8716,
      "plants": 8717,
      "##ager": 8718,
      "##agard": 8719,
      "coating": 8720,
      "##type": 8721,
      "aggression": 8722,
      "indisp": 8723,
      "willing": 8724,
      "cho": 8725,
      "choice": 8726,
      "underpaid": 8727,
      "##luding": 8728,
      "##ubble": 8729,
      "##essors": 8730,
      "##istall": 8731,
      "##istant": 8732,
      "##istán": 8733,
      "##ONAA": 8734,
      "Thagard": 8735,
      "compens": 8736,
      "politics": 8737,
      "traditionally": 8738,
      "##orders": 8739,
      "moon": 8740,
      "requires": 8741,
      "decent": 8742,
      "##licit": 8743,
      "sense": 8744,
      "senators": 8745,
      "contam": 8746,
      "uns": 8747,
      "unable": 8748,
      "unknow": 8749,
      "unless": 8750,
      "Produc": 8751,
      "applies": 8752,
      "##weight": 8753,
      "heter": 8754,
      "carrier": 8755,
      "prisons": 8756,
      "facing": 8757,
      "assurance": 8758,
      "upward": 8759,
      "orbiter": 8760,
      "orbiters": 8761,
      "##ISY": 8762,
      "optics": 8763,
      "clin": 8764,
      "perspective": 8765,
      "perspectives": 8766,
      "Academ": 8767,
      "legitim": 8768,
      "firing": 8769,
      "strata": 8770,
      "##parcos": 8771,
      "instead": 8772,
      "##fficial": 8773,
      "##astrop": 8774,
      "Centaur": 8775,
      "prime": 8776,
      "153": 8777,
      "157": 8778,
      "amended": 8779,
      "116": 8780,
      "sphere": 8781,
      "spok": 8782,
      "Meanwhile": 8783,
      "transpar": 8784,
      "telec": 8785,
      "##taining": 8786,
      "experiences": 8787,
      "violent": 8788,
      "violated": 8789,
      "countryside": 8790,
      "minister": 8791,
      "modes": 8792,
      "modest": 8793,
      "Adolesc": 8794,
      "authorize": 8795,
      "poss": 8796,
      "dioxide": 8797,
      "diagn": 8798,
      "fled": 8799,
      "flares": 8800,
      "flashes": 8801,
      "INTA": 8802,
      "##racted": 8803,
      "monitored": 8804,
      "provisional": 8805,
      "149": 8806,
      "144": 8807,
      "141": 8808,
      "##augh": 8809,
      "Attention": 8810,
      "Replying": 8811,
      "currents": 8812,
      "mayors": 8813,
      "##eval": 8814,
      "collective": 8815,
      "172": 8816,
      "171": 8817,
      "177": 8818,
      "17th": 8819,
      "Form": 8820,
      "##ensable": 8821,
      "Change": 8822,
      "geological": 8823,
      "signs": 8824,
      "133": 8825,
      "139": 8826,
      "138": 8827,
      "137": 8828,
      "122": 8829,
      "121": 8830,
      "128": 8831,
      "160": 8832,
      "162": 8833,
      "164": 8834,
      "##rene": 8835,
      "181": 8836,
      "18th": 8837,
      "Respon": 8838,
      "Resolution": 8839,
      "Enh": 8840,
      "Ens": 8841,
      "room": 8842,
      "infected": 8843,
      "256": 8844,
      "258": 8845,
      "##ENTS": 8846,
      "##ENTA": 8847,
      "joined": 8848,
      "Electr": 8849,
      "Annual": 8850,
      "publication": 8851,
      "publicity": 8852,
      "solic": 8853,
      "solve": 8854,
      "completing": 8855,
      "218": 8856,
      "urged": 8857,
      "urges": 8858,
      "remind": 8859,
      "radiometric": 8860,
      "Mazow": 8861,
      "specialist": 8862,
      "finance": 8863,
      "finally": 8864,
      "SPART": 8865,
      "Junín": 8866,
      "1963": 8867,
      "249": 8868,
      "248": 8869,
      "282": 8870,
      "287": 8871,
      "succeed": 8872,
      "262": 8873,
      "micrometeor": 8874,
      "docked": 8875,
      "doctor": 8876,
      "lifetimes": 8877,
      "##ORY": 8878,
      "Russia": 8879,
      "239": 8880,
      "grown": 8881,
      "confirm": 8882,
      "adding": 8883,
      "explod": 8884,
      "explicit": 8885,
      "usual": 8886,
      "necessity": 8887,
      "simpl": 8888,
      "engaging": 8889,
      "viewed": 8890,
      "viewing": 8891,
      "##factory": 8892,
      "multiracial": 8893,
      "societal": 8894,
      "Referring": 8895,
      "fee": 8896,
      "frame": 8897,
      "distribute": 8898,
      "careers": 8899,
      "careful": 8900,
      "warming": 8901,
      "associate": 8902,
      "aiming": 8903,
      "recognize": 8904,
      "recognizes": 8905,
      "##ancavel": 8906,
      "replying": 8907,
      "reviews": 8908,
      "Complain": 8909,
      "profile": 8910,
      "professors": 8911,
      "Shoemaker": 8912,
      "Region": 8913,
      "Register": 8914,
      "exploit": 8915,
      "explosive": 8916,
      "Southampton": 8917,
      "helping": 8918,
      "##ategy": 8919,
      "characterizing": 8920,
      "COF": 8921,
      "concludes": 8922,
      "Botswana": 8923,
      "Application": 8924,
      "Educators": 8925,
      "corrections": 8926,
      "depended": 8927,
      "descriptions": 8928,
      "brings": 8929,
      "branches": 8930,
      "branch": 8931,
      "Guiana": 8932,
      "recording": 8933,
      "recorders": 8934,
      "quarter": 8935,
      "##TERS": 8936,
      "commercially": 8937,
      "Recogn": 8938,
      "Tristán": 8939,
      "##URCES": 8940,
      "normally": 8941,
      "##EMS": 8942,
      "reflecting": 8943,
      "farming": 8944,
      "grant": 8945,
      "entering": 8946,
      "Geot": 8947,
      "bienn": 8948,
      "##IRON": 8949,
      "inscri": 8950,
      "topographic": 8951,
      "circles": 8952,
      "##APHIC": 8953,
      "399": 8954,
      "failing": 8955,
      "facilitating": 8956,
      "##struction": 8957,
      "claimants": 8958,
      "everyone": 8959,
      "frameworks": 8960,
      "##EDERATION": 8961,
      "distances": 8962,
      "320": 8963,
      "321": 8964,
      "describe": 8965,
      "describes": 8966,
      "1097th": 8967,
      "##mara": 8968,
      "urgency": 8969,
      "vertical": 8970,
      "##ositioning": 8971,
      "cosmonaut": 8972,
      "AREA": 8973,
      "Salyut": 8974,
      "lightweight": 8975,
      "mandates": 8976,
      "##OLUTION": 8977,
      "maximize": 8978,
      "accordingly": 8979,
      "stronger": 8980,
      "freedoms": 8981,
      "Clari": 8982,
      "Cloud": 8983,
      "Clubs": 8984,
      "Oceanographic": 8985,
      "harm": 8986,
      "microenter": 8987,
      "PRE": 8988,
      "PRONAA": 8989,
      "calendar": 8990,
      "transmitter": 8991,
      "transmitting": 8992,
      "Socialist": 8993,
      "prosecutions": 8994,
      "substantive": 8995,
      "annually": 8996,
      "capita": 8997,
      "deliveries": 8998,
      "handed": 8999,
      "housewives": 9000,
      "color": 9001,
      "migrated": 9002,
      "photographic": 9003,
      "appearance": 9004,
      "officially": 9005,
      "Participation": 9006,
      "loans": 9007,
[...]
