{
  "version": "1.0",
  "truncation": null,
  "padding": {
    "strategy": {
      "Fixed": 100
    },
    "direction": "Right",
    "pad_to_multiple_of": null,
    "pad_id": 0,
    "pad_type_id": 0,
    "pad_token": "[PAD]"
  },
  "added_tokens": [
    {
      "id": 0,
      "content": "[PAD]",
      "single_word": false,
      "lstrip": false,
      "rstrip": false,
      "normalized": false,
      "special": true
    },
    {
      "id": 1,
      "content": "[UNK]",
      "single_word": false,
      "lstrip": false,
      "rstrip": false,
      "normalized": false,
      "special": true
    },
    {
      "id": 2,
      "content": "[CLS]",
      "single_word": false,
      "lstrip": false,
      "rstrip": false,
      "normalized": false,
      "special": true
    },
    {
      "id": 3,
      "content": "[SEP]",
      "single_word": false,
      "lstrip": false,
      "rstrip": false,
      "normalized": false,
      "special": true
    },
    {
      "id": 4,
      "content": "[MASK]",
      "single_word": false,
      "lstrip": false,
      "rstrip": false,
      "normalized": false,
      "special": true
    }
  ],
  "normalizer": null,
  "pre_tokenizer": {
    "type": "BertPreTokenizer"
  },
  "post_processor": {
    "type": "BertProcessing",
    "sep": [
      "[SEP]",
      3
    ],
    "cls": [
      "[CLS]",
      2
    ]
  },
  "decoder": {
    "type": "WordPiece",
    "prefix": "##",
    "cleanup": true
  },
  "model": {
    "type": "WordPiece",
    "unk_token": "[UNK]",
    "continuing_subword_prefix": "##",
    "max_input_chars_per_word": 100,
    "vocab": {
      "[PAD]": 0,
      "[UNK]": 1,
      "[CLS]": 2,
      "[SEP]": 3,
      "[MASK]": 4,
      "\"": 5,
      "%": 6,
      "&": 7,
      "'": 8,
      "(": 9,
      ")": 10,
      "*": 11,
      "+": 12,
      ",": 13,
      "-": 14,
      ".": 15,
      "/": 16,
      "0": 17,
      "1": 18,
      "2": 19,
      "3": 20,
      "4": 21,
      "5": 22,
      "6": 23,
      "7": 24,
      "8": 25,
      "9": 26,
      ":": 27,
      ";": 28,
      "<": 29,
      "?": 30,
      "A": 31,
      "B": 32,
      "C": 33,
      "D": 34,
      "E": 35,
      "F": 36,
      "G": 37,
      "H": 38,
      "I": 39,
      "J": 40,
      "K": 41,
      "L": 42,
      "M": 43,
      "N": 44,
      "O": 45,
      "P": 46,
      "Q": 47,
      "R": 48,
      "S": 49,
      "T": 50,
      "U": 51,
      "V": 52,
      "W": 53,
      "X": 54,
      "Y": 55,
      "Z": 56,
      "[": 57,
      "]": 58,
      "a": 59,
      "b": 60,
      "c": 61,
      "d": 62,
      "e": 63,
      "f": 64,
      "g": 65,
      "h": 66,
      "i": 67,
      "j": 68,
      "k": 69,
      "l": 70,
      "m": 71,
      "n": 72,
      "o": 73,
      "p": 74,
      "q": 75,
      "r": 76,
      "s": 77,
      "t": 78,
      "u": 79,
      "v": 80,
      "w": 81,
      "x": 82,
      "y": 83,
      "z": 84,
      "°": 85,
      "·": 86,
      "℃": 87,
      "、": 88,
      "。": 89,
      "《": 90,
      "》": 91,
      "㈠": 92,
      "㈡": 93,
      "㈢": 94,
      "㈣": 95,
      "㈤": 96,
      "㈥": 97,
      "㈦": 98,
      "一": 99,
      "丁": 100,
      "七": 101,
      "万": 102,
      "丈": 103,
      "三": 104,
      "上": 105,
      "下": 106,
      "不": 107,
      "与": 108,
      "专": 109,
      "且": 110,
      "世": 111,
      "丘": 112,
      "业": 113,
      "丛": 114,
      "东": 115,
      "丝": 116,
      "丢": 117,
      "两": 118,
      "严": 119,
      "丧": 120,
      "个": 121,
      "中": 122,
      "丰": 123,
      "串": 124,
      "临": 125,
      "丹": 126,
      "为": 127,
      "主": 128,
      "丽": 129,
      "举": 130,
      "久": 131,
      "么": 132,
      "义": 133,
      "之": 134,
      "乌": 135,
      "乍": 136,
      "乎": 137,
      "乏": 138,
      "乐": 139,
      "乔": 140,
      "乘": 141,
      "乙": 142,
      "九": 143,
      "也": 144,
      "习": 145,
      "乡": 146,
      "书": 147,
      "买": 148,
      "乱": 149,
      "乳": 150,
      "了": 151,
      "予": 152,
      "争": 153,
      "事": 154,
      "二": 155,
      "于": 156,
      "云": 157,
      "互": 158,
      "五": 159,
      "井": 160,
      "亚": 161,
      "些": 162,
      "亟": 163,
      "亡": 164,
      "交": 165,
      "亥": 166,
      "亦": 167,
      "产": 168,
      "亩": 169,
      "享": 170,
      "京": 171,
      "亭": 172,
      "亮": 173,
      "亲": 174,
      "亵": 175,
      "人": 176,
      "亿": 177,
      "什": 178,
      "仁": 179,
      "仅": 180,
      "仇": 181,
      "今": 182,
      "介": 183,
      "仍": 184,
      "从": 185,
      "仓": 186,
      "他": 187,
      "付": 188,
      "仙": 189,
      "代": 190,
      "令": 191,
      "以": 192,
      "仪": 193,
      "们": 194,
      "仰": 195,
      "仲": 196,
      "件": 197,
      "价": 198,
      "任": 199,
      "份": 200,
      "仿": 201,
      "企": 202,
      "伊": 203,
      "伍": 204,
      "伏": 205,
      "伐": 206,
      "休": 207,
      "众": 208,
      "优": 209,
      "伙": 210,
      "会": 211,
      "伞": 212,
      "传": 213,
      "伤": 214,
      "伦": 215,
      "伧": 216,
      "伪": 217,
      "伯": 218,
      "估": 219,
      "伴": 220,
      "伸": 221,
      "伺": 222,
      "似": 223,
      "伽": 224,
      "但": 225,
      "位": 226,
      "低": 227,
      "住": 228,
      "佐": 229,
      "体": 230,
      "何": 231,
      "余": 232,
      "佛": 233,
      "作": 234,
      "你": 235,
      "佣": 236,
      "佩": 237,
      "佳": 238,
      "使": 239,
      "侈": 240,
      "例": 241,
      "供": 242,
      "依": 243,
      "侣": 244,
      "侦": 245,
      "侧": 246,
      "侮": 247,
      "侯": 248,
      "侵": 249,
      "便": 250,
      "促": 251,
      "俄": 252,
      "俗": 253,
      "俘": 254,
      "保": 255,
      "信": 256,
      "修": 257,
      "俯": 258,
      "俱": 259,
      "倍": 260,
      "倒": 261,
      "候": 262,
      "借": 263,
      "倡": 264,
      "债": 265,
      "值": 266,
      "倾": 267,
      "假": 268,
      "偏": 269,
      "做": 270,
      "停": 271,
      "健": 272,
      "偶": 273,
      "偷": 274,
      "偿": 275,
      "储": 276,
      "催": 277,
      "像": 278,
      "僚": 279,
      "僧": 280,
      "僻": 281,
      "儿": 282,
      "允": 283,
      "元": 284,
      "充": 285,
      "兆": 286,
      "先": 287,
      "光": 288,
      "克": 289,
      "免": 290,
      "党": 291,
      "入": 292,
      "全": 293,
      "八": 294,
      "公": 295,
      "六": 296,
      "兰": 297,
      "共": 298,
      "关": 299,
      "兴": 300,
      "兵": 301,
      "其": 302,
      "具": 303,
      "典": 304,
      "兹": 305,
      "养": 306,
      "兼": 307,
      "内": 308,
      "冈": 309,
      "册": 310,
      "再": 311,
      "冕": 312,
      "写": 313,
      "军": 314,
      "农": 315,
      "冠": 316,
      "冤": 317,
      "冥": 318,
      "冬": 319,
      "冰": 320,
      "冲": 321,
      "决": 322,
      "况": 323,
      "冶": 324,
      "冷": 325,
      "冻": 326,
      "净": 327,
      "凄": 328,
      "准": 329,
      "凉": 330,
      "减": 331,
      "凝": 332,
      "几": 333,
      "凡": 334,
      "凭": 335,
      "凯": 336,
      "凸": 337,
      "出": 338,
      "击": 339,
      "函": 340,
      "分": 341,
      "切": 342,
      "刊": 343,
      "刑": 344,
      "划": 345,
      "列": 346,
      "则": 347,
      "刚": 348,
      "创": 349,
      "初": 350,
      "删": 351,
      "判": 352,
      "利": 353,
      "别": 354,
      "到": 355,
      "制": 356,
      "刷": 357,
      "刺": 358,
      "刻": 359,
      "剂": 360,
      "削": 361,
      "前": 362,
      "剑": 363,
      "剖": 364,
      "剥": 365,
      "剧": 366,
      "剩": 367,
      "剪": 368,
      "副": 369,
      "割": 370,
      "力": 371,
      "办": 372,
      "功": 373,
      "加": 374,
      "务": 375,
      "劣": 376,
      "动": 377,
      "助": 378,
      "努": 379,
      "劫": 380,
      "励": 381,
      "劳": 382,
      "势": 383,
      "勃": 384,
      "勉": 385,
      "勒": 386,
      "勘": 387,
      "募": 388,
      "勤": 389,
      "勾": 390,
      "匀": 391,
      "包": 392,
      "匈": 393,
      "化": 394,
      "北": 395,
      "匪": 396,
      "匹": 397,
      "区": 398,
      "医": 399,
      "十": 400,
      "千": 401,
      "升": 402,
      "午": 403,
      "半": 404,
      "华": 405,
      "协": 406,
      "卓": 407,
      "单": 408,
      "卖": 409,
      "南": 410,
      "博": 411,
      "卜": 412,
      "占": 413,
      "卡": 414,
      "卢": 415,
      "卫": 416,
      "印": 417,
      "危": 418,
      "即": 419,
      "却": 420,
      "卵": 421,
      "卷": 422,
      "卸": 423,
      "厂": 424,
      "厄": 425,
      "厅": 426,
      "历": 427,
      "厉": 428,
      "压": 429,
      "厘": 430,
      "厚": 431,
      "原": 432,
      "厨": 433,
      "去": 434,
      "县": 435,
      "参": 436,
      "又": 437,
      "叉": 438,
      "及": 439,
      "友": 440,
      "双": 441,
      "反": 442,
      "发": 443,
      "取": 444,
      "受": 445,
      "变": 446,
      "叙": 447,
      "叛": 448,
      "叠": 449,
      "口": 450,
      "古": 451,
      "句": 452,
      "另": 453,
      "只": 454,
      "叫": 455,
      "召": 456,
      "叮": 457,
      "可": 458,
      "台": 459,
      "史": 460,
      "右": 461,
      "叶": 462,
      "号": 463,
      "司": 464,
      "吁": 465,
      "吃": 466,
      "各": 467,
      "合": 468,
      "吉": 469,
      "吊": 470,
      "同": 471,
      "名": 472,
      "后": 473,
      "向": 474,
      "吓": 475,
      "否": 476,
      "吧": 477,
      "吨": 478,
      "含": 479,
      "听": 480,
      "吮": 481,
      "启": 482,
      "吸": 483,
      "吻": 484,
      "呈": 485,
      "告": 486,
      "员": 487,
      "周": 488,
      "味": 489,
      "呼": 490,
      "命": 491,
      "咀": 492,
      "和": 493,
      "咎": 494,
      "咖": 495,
      "咨": 496,
      "咬": 497,
      "咳": 498,
      "哀": 499,
      "品": 500,
      "哈": 501,
      "响": 502,
      "哥": 503,
      "哪": 504,
      "哲": 505,
      "哺": 506,
      "唆": 507,
      "唇": 508,
      "唐": 509,
      "唤": 510,
      "售": 511,
      "唯": 512,
      "唱": 513,
      "商": 514,
      "啡": 515,
      "啤": 516,
      "啮": 517,
      "啸": 518,
      "喀": 519,
      "喂": 520,
      "善": 521,
      "喉": 522,
      "喜": 523,
      "喷": 524,
      "嘲": 525,
      "嘴": 526,
      "器": 527,
      "噪": 528,
      "嚣": 529,
      "囚": 530,
      "四": 531,
      "回": 532,
      "因": 533,
      "团": 534,
      "园": 535,
      "困": 536,
      "围": 537,
      "固": 538,
      "国": 539,
      "图": 540,
      "圆": 541,
      "圈": 542,
      "土": 543,
      "圣": 544,
      "在": 545,
      "圭": 546,
      "地": 547,
      "场": 548,
      "址": 549,
      "均": 550,
      "坎": 551,
      "坏": 552,
      "坐": 553,
      "坑": 554,
      "块": 555,
      "坚": 556,
      "坛": 557,
      "坝": 558,
      "坡": 559,
      "坦": 560,
      "垂": 561,
      "型": 562,
      "垦": 563,
      "垫": 564,
      "埃": 565,
      "城": 566,
      "埔": 567,
      "域": 568,
      "培": 569,
      "基": 570,
      "堂": 571,
      "堆": 572,
      "堕": 573,
      "堡": 574,
      "堪": 575,
      "堵": 576,
      "塑": 577,
      "塔": 578,
      "塞": 579,
      "填": 580,
      "境": 581,
      "墓": 582,
      "墙": 583,
      "增": 584,
      "墨": 585,
      "壁": 586,
      "壤": 587,
      "士": 588,
      "壮": 589,
      "声": 590,
      "壳": 591,
      "处": 592,
      "备": 593,
      "复": 594,
      "夏": 595,
      "夕": 596,
      "外": 597,
      "多": 598,
      "夜": 599,
      "够": 600,
      "大": 601,
      "天": 602,
      "太": 603,
      "夫": 604,
      "央": 605,
      "失": 606,
      "头": 607,
      "夷": 608,
      "夹": 609,
      "夺": 610,
      "奇": 611,
      "奈": 612,
      "奉": 613,
      "奋": 614,
      "奔": 615,
      "奖": 616,
      "套": 617,
      "奠": 618,
      "奢": 619,
      "奥": 620,
      "女": 621,
      "奴": 622,
      "奶": 623,
      "奸": 624,
      "她": 625,
      "好": 626,
      "如": 627,
      "妇": 628,
      "妒": 629,
      "妓": 630,
      "妙": 631,
      "妥": 632,
      "妨": 633,
      "妹": 634,
      "妻": 635,
      "姆": 636,
      "始": 637,
      "姐": 638,
      "姓": 639,
      "委": 640,
      "姘": 641,
      "姻": 642,
      "姿": 643,
      "威": 644,
      "娜": 645,
      "娩": 646,
      "娱": 647,
      "娼": 648,
      "婚": 649,
      "婴": 650,
      "媒": 651,
      "媲": 652,
      "嫩": 653,
      "子": 654,
      "孔": 655,
      "孕": 656,
      "字": 657,
      "存": 658,
      "孙": 659,
      "孟": 660,
      "季": 661,
      "孤": 662,
      "学": 663,
      "孩": 664,
      "孵": 665,
      "宁": 666,
      "它": 667,
      "宅": 668,
      "宇": 669,
      "守": 670,
      "安": 671,
      "宋": 672,
      "完": 673,
      "宏": 674,
      "宗": 675,
      "官": 676,
      "宙": 677,
      "定": 678,
      "宛": 679,
      "宜": 680,
      "宝": 681,
      "实": 682,
      "审": 683,
      "客": 684,
      "宣": 685,
      "室": 686,
      "宪": 687,
      "宫": 688,
      "害": 689,
      "家": 690,
      "容": 691,
      "宽": 692,
      "宾": 693,
      "宿": 694,
      "寄": 695,
      "密": 696,
      "富": 697,
      "寒": 698,
      "寓": 699,
      "察": 700,
      "寥": 701,
      "寨": 702,
      "寸": 703,
      "对": 704,
      "寻": 705,
      "导": 706,
      "寿": 707,
      "封": 708,
      "射": 709,
      "将": 710,
      "尊": 711,
      "小": 712,
      "少": 713,
      "尔": 714,
      "尖": 715,
      "尘": 716,
      "尚": 717,
      "尝": 718,
      "尤": 719,
      "就": 720,
      "尺": 721,
      "尼": 722,
      "尽": 723,
      "尾": 724,
      "局": 725,
      "层": 726,
      "居": 727,
      "届": 728,
      "屋": 729,
      "屏": 730,
      "展": 731,
      "属": 732,
      "屠": 733,
      "履": 734,
      "山": 735,
      "屿": 736,
      "岁": 737,
      "岖": 738,
      "岗": 739,
      "岛": 740,
      "岩": 741,
      "岭": 742,
      "岸": 743,
      "峡": 744,
      "峰": 745,
      "峻": 746,
      "崎": 747,
      "崛": 748,
      "崩": 749,
      "嵌": 750,
      "川": 751,
      "州": 752,
      "巡": 753,
      "工": 754,
      "左": 755,
      "巧": 756,
      "巨": 757,
      "巩": 758,
      "差": 759,
      "己": 760,
      "已": 761,
      "巴": 762,
      "币": 763,
      "市": 764,
      "布": 765,
      "帆": 766,
      "师": 767,
      "希": 768,
      "帐": 769,
      "帕": 770,
      "帖": 771,
      "帚": 772,
      "帜": 773,
      "帝": 774,
      "带": 775,
      "帧": 776,
      "席": 777,
      "帮": 778,
      "常": 779,
      "帽": 780,
      "幅": 781,
      "幕": 782,
      "幢": 783,
      "干": 784,
      "平": 785,
      "年": 786,
      "并": 787,
      "幸": 788,
      "幼": 789,
      "幽": 790,
      "广": 791,
      "庄": 792,
      "庇": 793,
      "床": 794,
      "序": 795,
      "库": 796,
      "应": 797,
      "底": 798,
      "店": 799,
      "府": 800,
      "庞": 801,
      "废": 802,
      "度": 803,
      "座": 804,
      "庭": 805,
      "康": 806,
      "庸": 807,
      "廉": 808,
      "廓": 809,
      "延": 810,
      "廷": 811,
      "建": 812,
      "开": 813,
      "异": 814,
      "弃": 815,
      "弊": 816,
      "弋": 817,
      "式": 818,
      "引": 819,
      "弗": 820,
      "弘": 821,
      "张": 822,
      "弥": 823,
      "弧": 824,
      "弱": 825,
      "弹": 826,
      "强": 827,
      "归": 828,
      "当": 829,
      "录": 830,
      "彗": 831,
      "形": 832,
      "彩": 833,
      "彰": 834,
      "影": 835,
      "役": 836,
      "彻": 837,
      "彼": 838,
      "往": 839,
      "征": 840,
      "径": 841,
      "待": 842,
      "很": 843,
      "律": 844,
      "徒": 845,
      "得": 846,
      "徙": 847,
      "御": 848,
      "循": 849,
      "微": 850,
      "徵": 851,
      "德": 852,
      "徽": 853,
      "心": 854,
      "必": 855,
      "忌": 856,
      "忍": 857,
      "忏": 858,
      "志": 859,
      "忘": 860,
      "忙": 861,
      "忠": 862,
      "忧": 863,
      "快": 864,
      "念": 865,
      "忽": 866,
      "怀": 867,
      "态": 868,
      "怎": 869,
      "怕": 870,
      "怖": 871,
      "思": 872,
      "急": 873,
      "性": 874,
      "怨": 875,
      "怪": 876,
      "总": 877,
      "恋": 878,
      "恐": 879,
      "恒": 880,
      "恕": 881,
      "恢": 882,
      "恤": 883,
      "恨": 884,
      "恩": 885,
      "息": 886,
      "恰": 887,
      "恶": 888,
      "恼": 889,
      "悉": 890,
      "悔": 891,
      "悟": 892,
      "悠": 893,
      "患": 894,
      "悬": 895,
      "悲": 896,
      "情": 897,
      "惊": 898,
      "惋": 899,
      "惑": 900,
      "惜": 901,
      "惠": 902,
      "惨": 903,
      "惩": 904,
      "惮": 905,
      "惯": 906,
      "惰": 907,
      "想": 908,
      "愈": 909,
      "意": 910,
      "感": 911,
      "愤": 912,
      "愿": 913,
      "慎": 914,
      "慕": 915,
      "慢": 916,
      "慧": 917,
      "慨": 918,
      "慰": 919,
      "憎": 920,
      "憾": 921,
      "懂": 922,
      "戈": 923,
      "成": 924,
      "我": 925,
      "戒": 926,
      "或": 927,
      "战": 928,
      "戚": 929,
      "截": 930,
      "戮": 931,
      "户": 932,
      "房": 933,
      "所": 934,
      "扁": 935,
      "手": 936,
      "才": 937,
      "扎": 938,
      "扑": 939,
      "打": 940,
      "托": 941,
      "扣": 942,
      "执": 943,
      "扩": 944,
      "扫": 945,
      "扬": 946,
      "扭": 947,
      "扮": 948,
      "扰": 949,
      "扶": 950,
      "批": 951,
      "扼": 952,
      "找": 953,
      "承": 954,
      "技": 955,
      "把": 956,
      "抑": 957,
      "投": 958,
      "抗": 959,
      "折": 960,
      "抚": 961,
      "抛": 962,
      "抢": 963,
      "护": 964,
      "报": 965,
      "抬": 966,
      "抱": 967,
      "抵": 968,
      "押": 969,
      "抽": 970,
      "担": 971,
      "拆": 972,
      "拉": 973,
      "拍": 974,
      "拒": 975,
      "拓": 976,
      "拔": 977,
      "拖": 978,
      "拘": 979,
      "招": 980,
      "拜": 981,
      "拟": 982,
      "拢": 983,
      "拥": 984,
      "拦": 985,
      "拨": 986,
      "择": 987,
      "括": 988,
      "拯": 989,
      "拼": 990,
      "拿": 991,
      "持": 992,
      "挂": 993,
      "指": 994,
      "按": 995,
      "挑": 996,
      "挝": 997,
      "挡": 998,
      "挣": 999,
      "挤": 1000,
      "挥": 1001,
      "挨": 1002,
      "挪": 1003,
      "挫": 1004,
      "振": 1005,
      "挽": 1006,
      "捆": 1007,
      "捉": 1008,
      "捍": 1009,
      "捐": 1010,
      "捕": 1011,
      "捞": 1012,
      "损": 1013,
      "换": 1014,
      "据": 1015,
      "捷": 1016,
      "授": 1017,
      "掉": 1018,
      "掌": 1019,
      "排": 1020,
      "掘": 1021,
      "掠": 1022,
      "探": 1023,
      "接": 1024,
      "控": 1025,
      "推": 1026,
      "掩": 1027,
      "措": 1028,
      "揍": 1029,
      "描": 1030,
      "提": 1031,
      "插": 1032,
      "握": 1033,
      "援": 1034,
      "揽": 1035,
      "搁": 1036,
      "搜": 1037,
      "搬": 1038,
      "搭": 1039,
      "携": 1040,
      "摄": 1041,
      "摆": 1042,
      "摇": 1043,
      "摊": 1044,
      "摘": 1045,
      "摧": 1046,
      "摩": 1047,
      "摸": 1048,
      "撑": 1049,
      "撒": 1050,
      "撞": 1051,
      "撤": 1052,
      "播": 1053,
      "撰": 1054,
      "操": 1055,
      "擎": 1056,
      "擦": 1057,
      "支": 1058,
      "收": 1059,
      "攸": 1060,
      "改": 1061,
      "攻": 1062,
      "放": 1063,
      "政": 1064,
      "故": 1065,
      "效": 1066,
      "敌": 1067,
      "敏": 1068,
      "救": 1069,
      "教": 1070,
      "散": 1071,
      "敦": 1072,
      "敬": 1073,
      "数": 1074,
      "整": 1075,
      "文": 1076,
      "斐": 1077,
      "斑": 1078,
      "斓": 1079,
      "斗": 1080,
      "料": 1081,
      "斜": 1082,
      "斡": 1083,
      "斤": 1084,
      "斥": 1085,
      "断": 1086,
      "斯": 1087,
      "新": 1088,
      "方": 1089,
      "施": 1090,
      "旁": 1091,
      "旅": 1092,
      "旋": 1093,
      "族": 1094,
      "旗": 1095,
      "无": 1096,
      "既": 1097,
      "日": 1098,
      "旦": 1099,
      "旧": 1100,
      "旨": 1101,
      "早": 1102,
      "旬": 1103,
      "旱": 1104,
      "时": 1105,
      "旺": 1106,
      "昂": 1107,
      "明": 1108,
      "易": 1109,
      "星": 1110,
      "映": 1111,
      "春": 1112,
      "是": 1113,
      "昴": 1114,
      "昼": 1115,
      "显": 1116,
      "晋": 1117,
      "晚": 1118,
      "晤": 1119,
      "晨": 1120,
      "普": 1121,
      "景": 1122,
      "晰": 1123,
      "晶": 1124,
      "智": 1125,
      "暂": 1126,
      "暖": 1127,
      "暗": 1128,
      "暴": 1129,
      "暹": 1130,
      "曲": 1131,
      "曳": 1132,
      "更": 1133,
      "曼": 1134,
      "曾": 1135,
      "替": 1136,
      "最": 1137,
      "月": 1138,
      "有": 1139,
      "朋": 1140,
      "服": 1141,
      "朗": 1142,
      "望": 1143,
      "朝": 1144,
      "期": 1145,
      "木": 1146,
      "未": 1147,
      "末": 1148,
      "本": 1149,
      "术": 1150,
      "朵": 1151,
      "机": 1152,
      "杀": 1153,
      "杂": 1154,
      "权": 1155,
      "杆": 1156,
      "材": 1157,
      "村": 1158,
      "杜": 1159,
      "束": 1160,
      "条": 1161,
      "来": 1162,
      "杯": 1163,
      "杰": 1164,
      "松": 1165,
      "板": 1166,
      "极": 1167,
      "构": 1168,
      "析": 1169,
      "林": 1170,
      "枚": 1171,
      "果": 1172,
      "枝": 1173,
      "枪": 1174,
      "枯": 1175,
      "架": 1176,
      "柄": 1177,
      "柏": 1178,
      "某": 1179,
      "染": 1180,
      "查": 1181,
      "柬": 1182,
      "柯": 1183,
      "柱": 1184,
      "栅": 1185,
      "标": 1186,
      "栏": 1187,
      "树": 1188,
      "栖": 1189,
      "校": 1190,
      "株": 1191,
      "样": 1192,
      "核": 1193,
      "根": 1194,
      "格": 1195,
      "框": 1196,
      "案": 1197,
      "桑": 1198,
      "档": 1199,
      "桥": 1200,
      "梁": 1201,
      "梅": 1202,
      "梭": 1203,
      "梯": 1204,
      "械": 1205,
      "检": 1206,
      "棉": 1207,
      "棋": 1208,
      "棒": 1209,
      "棘": 1210,
      "森": 1211,
      "棱": 1212,
      "椅": 1213,
      "植": 1214,
      "椎": 1215,
      "椐": 1216,
      "椭": 1217,
      "楚": 1218,
      "楼": 1219,
      "概": 1220,
      "榜": 1221,
      "榴": 1222,
      "模": 1223,
      "横": 1224,
      "橡": 1225,
      "欠": 1226,
      "次": 1227,
      "欢": 1228,
      "欣": 1229,
      "欧": 1230,
      "欲": 1231,
      "欺": 1232,
      "款": 1233,
      "歇": 1234,
      "止": 1235,
      "正": 1236,
      "此": 1237,
      "步": 1238,
      "武": 1239,
      "歧": 1240,
      "歪": 1241,
      "死": 1242,
      "殆": 1243,
      "殊": 1244,
      "残": 1245,
      "殖": 1246,
      "殴": 1247,
      "段": 1248,
      "毁": 1249,
      "母": 1250,
      "每": 1251,
      "毒": 1252,
      "比": 1253,
      "毕": 1254,
      "毗": 1255,
      "毛": 1256,
      "毫": 1257,
      "氏": 1258,
      "民": 1259,
      "气": 1260,
      "氙": 1261,
      "氛": 1262,
      "氟": 1263,
      "氢": 1264,
      "氦": 1265,
      "氧": 1266,
      "氮": 1267,
      "氯": 1268,
      "水": 1269,
      "永": 1270,
      "汁": 1271,
      "求": 1272,
      "汇": 1273,
      "汉": 1274,
      "汗": 1275,
      "汞": 1276,
      "池": 1277,
      "污": 1278,
      "汤": 1279,
      "汲": 1280,
      "汽": 1281,
      "沃": 1282,
      "沉": 1283,
      "沙": 1284,
      "沟": 1285,
      "没": 1286,
      "沫": 1287,
      "河": 1288,
      "油": 1289,
      "治": 1290,
      "沼": 1291,
      "沾": 1292,
      "沿": 1293,
      "泄": 1294,
      "泊": 1295,
      "法": 1296,
      "泛": 1297,
      "泡": 1298,
      "波": 1299,
      "泥": 1300,
      "注": 1301,
      "泰": 1302,
      "泵": 1303,
      "泻": 1304,
      "泽": 1305,
      "洁": 1306,
      "洋": 1307,
      "洗": 1308,
      "洛": 1309,
      "洞": 1310,
      "津": 1311,
      "洪": 1312,
      "洲": 1313,
      "活": 1314,
      "派": 1315,
      "流": 1316,
      "浅": 1317,
      "浆": 1318,
      "测": 1319,
      "济": 1320,
      "浏": 1321,
      "浓": 1322,
      "浦": 1323,
      "浪": 1324,
      "浮": 1325,
      "海": 1326,
      "涂": 1327,
      "涅": 1328,
      "消": 1329,
      "涉": 1330,
      "涌": 1331,
      "涝": 1332,
      "涡": 1333,
      "润": 1334,
      "涨": 1335,
      "液": 1336,
      "涵": 1337,
      "涸": 1338,
      "淀": 1339,
      "淆": 1340,
      "淡": 1341,
      "淤": 1342,
      "淫": 1343,
      "深": 1344,
      "混": 1345,
      "淹": 1346,
      "添": 1347,
      "清": 1348,
      "渊": 1349,
      "渎": 1350,
      "渐": 1351,
      "渔": 1352,
      "渗": 1353,
      "渠": 1354,
      "渡": 1355,
      "温": 1356,
      "港": 1357,
      "渴": 1358,
      "游": 1359,
      "湄": 1360,
      "湍": 1361,
      "湖": 1362,
      "湮": 1363,
      "湾": 1364,
      "湿": 1365,
      "溃": 1366,
      "溉": 1367,
      "源": 1368,
      "溢": 1369,
      "溯": 1370,
      "溶": 1371,
      "滋": 1372,
      "滑": 1373,
      "满": 1374,
      "滤": 1375,
      "滥": 1376,
      "滨": 1377,
      "滩": 1378,
      "滴": 1379,
      "漂": 1380,
      "漆": 1381,
      "漏": 1382,
      "演": 1383,
      "漠": 1384,
      "漩": 1385,
      "漫": 1386,
      "潘": 1387,
      "潜": 1388,
      "潮": 1389,
      "澄": 1390,
      "澳": 1391,
      "激": 1392,
      "濒": 1393,
      "灌": 1394,
      "火": 1395,
      "灭": 1396,
      "灯": 1397,
      "灰": 1398,
      "灵": 1399,
      "灾": 1400,
      "炉": 1401,
      "炮": 1402,
      "炸": 1403,
      "点": 1404,
      "炼": 1405,
      "烁": 1406,
      "烃": 1407,
      "烈": 1408,
      "烛": 1409,
      "烟": 1410,
      "烦": 1411,
      "烧": 1412,
      "热": 1413,
      "烯": 1414,
      "烷": 1415,
      "焊": 1416,
      "焚": 1417,
      "焦": 1418,
      "然": 1419,
      "煤": 1420,
      "照": 1421,
      "煽": 1422,
      "熔": 1423,
      "熟": 1424,
      "燃": 1425,
      "燥": 1426,
      "爆": 1427,
      "爱": 1428,
      "父": 1429,
      "爽": 1430,
      "片": 1431,
      "版": 1432,
      "牌": 1433,
      "牙": 1434,
      "牛": 1435,
      "牢": 1436,
      "牧": 1437,
      "物": 1438,
      "牵": 1439,
      "特": 1440,
      "犯": 1441,
      "状": 1442,
      "犹": 1443,
      "狄": 1444,
      "狩": 1445,
      "独": 1446,
      "狱": 1447,
      "猎": 1448,
      "猛": 1449,
      "猜": 1450,
      "猥": 1451,
      "献": 1452,
      "率": 1453,
      "王": 1454,
      "玛": 1455,
      "玩": 1456,
      "环": 1457,
      "现": 1458,
      "玻": 1459,
      "珍": 1460,
      "班": 1461,
      "球": 1462,
      "理": 1463,
      "琴": 1464,
      "琼": 1465,
      "瑞": 1466,
      "瑟": 1467,
      "璃": 1468,
      "瓜": 1469,
      "瓣": 1470,
      "瓦": 1471,
      "瓶": 1472,
      "瓷": 1473,
      "甘": 1474,
      "甚": 1475,
      "生": 1476,
      "用": 1477,
      "田": 1478,
      "由": 1479,
      "甲": 1480,
      "申": 1481,
      "电": 1482,
      "男": 1483,
      "甸": 1484,
      "町": 1485,
      "画": 1486,
      "界": 1487,
      "留": 1488,
      "略": 1489,
      "番": 1490,
      "畴": 1491,
      "疆": 1492,
      "疏": 1493,
      "疑": 1494,
      "疗": 1495,
      "疫": 1496,
      "疲": 1497,
      "疾": 1498,
      "病": 1499,
      "症": 1500,
      "痕": 1501,
      "痛": 1502,
      "痢": 1503,
      "痪": 1504,
      "痹": 1505,
      "瘤": 1506,
      "瘫": 1507,
      "癌": 1508,
      "登": 1509,
      "白": 1510,
      "百": 1511,
      "皂": 1512,
      "的": 1513,
      "皇": 1514,
      "皮": 1515,
      "盆": 1516,
      "盈": 1517,
      "益": 1518,
      "盐": 1519,
      "监": 1520,
      "盒": 1521,
      "盖": 1522,
      "盗": 1523,
      "盘": 1524,
      "盛": 1525,
      "盟": 1526,
      "目": 1527,
      "盲": 1528,
      "直": 1529,
      "相": 1530,
      "盾": 1531,
      "省": 1532,
      "眉": 1533,
      "看": 1534,
      "真": 1535,
      "眠": 1536,
      "眼": 1537,
      "着": 1538,
      "睡": 1539,
      "督": 1540,
      "睦": 1541,
      "睫": 1542,
      "睹": 1543,
      "瞄": 1544,
      "瞩": 1545,
      "矛": 1546,
      "矢": 1547,
      "矣": 1548,
      "知": 1549,
      "矩": 1550,
      "短": 1551,
      "矮": 1552,
      "石": 1553,
      "矿": 1554,
      "码": 1555,
      "研": 1556,
      "砖": 1557,
      "破": 1558,
      "砷": 1559,
      "础": 1560,
      "硅": 1561,
      "硕": 1562,
      "硫": 1563,
      "硬": 1564,
      "确": 1565,
      "碇": 1566,
      "碍": 1567,
      "碎": 1568,
      "碘": 1569,
      "碰": 1570,
      "碱": 1571,
      "碲": 1572,
      "碳": 1573,
      "磁": 1574,
      "磋": 1575,
      "磨": 1576,
      "礁": 1577,
      "示": 1578,
      "礼": 1579,
      "社": 1580,
      "祖": 1581,
      "神": 1582,
      "祥": 1583,
      "票": 1584,
      "祸": 1585,
      "禁": 1586,
      "福": 1587,
      "离": 1588,
      "私": 1589,
      "秋": 1590,
      "种": 1591,
      "科": 1592,
      "秒": 1593,
      "秘": 1594,
      "租": 1595,
      "秩": 1596,
      "积": 1597,
      "称": 1598,
      "移": 1599,
      "稀": 1600,
      "程": 1601,
      "稍": 1602,
      "税": 1603,
      "稳": 1604,
      "稻": 1605,
      "稼": 1606,
      "稿": 1607,
      "穆": 1608,
      "究": 1609,
      "穷": 1610,
      "穹": 1611,
      "空": 1612,
      "穿": 1613,
      "突": 1614,
      "窃": 1615,
      "窄": 1616,
      "窗": 1617,
      "窝": 1618,
      "立": 1619,
      "竖": 1620,
      "站": 1621,
      "竞": 1622,
      "竟": 1623,
      "章": 1624,
      "竣": 1625,
      "童": 1626,
      "竭": 1627,
      "端": 1628,
      "笑": 1629,
      "笔": 1630,
      "符": 1631,
      "第": 1632,
      "笼": 1633,
      "等": 1634,
      "筑": 1635,
      "答": 1636,
      "策": 1637,
      "筛": 1638,
      "筹": 1639,
      "签": 1640,
      "简": 1641,
      "算": 1642,
      "管": 1643,
      "箭": 1644,
      "箱": 1645,
      "篇": 1646,
      "篡": 1647,
      "簿": 1648,
      "籍": 1649,
      "米": 1650,
      "类": 1651,
      "粉": 1652,
      "粒": 1653,
      "粗": 1654,
      "粮": 1655,
      "粹": 1656,
      "精": 1657,
      "糊": 1658,
      "糕": 1659,
      "糖": 1660,
      "糙": 1661,
      "糟": 1662,
      "系": 1663,
      "紊": 1664,
      "素": 1665,
      "索": 1666,
      "紧": 1667,
      "紫": 1668,
      "累": 1669,
      "繁": 1670,
      "纠": 1671,
      "红": 1672,
      "纤": 1673,
      "约": 1674,
      "级": 1675,
      "纪": 1676,
      "纫": 1677,
      "纬": 1678,
      "纯": 1679,
      "纲": 1680,
      "纳": 1681,
      "纵": 1682,
      "纷": 1683,
      "纸": 1684,
      "纹": 1685,
      "纺": 1686,
      "纽": 1687,
      "线": 1688,
      "练": 1689,
      "组": 1690,
      "细": 1691,
      "织": 1692,
      "终": 1693,
      "绍": 1694,
      "经": 1695,
      "绑": 1696,
      "结": 1697,
      "绕": 1698,
      "绘": 1699,
      "给": 1700,
      "络": 1701,
      "绝": 1702,
      "绞": 1703,
      "统": 1704,
      "继": 1705,
      "绩": 1706,
      "绪": 1707,
      "续": 1708,
      "绳": 1709,
      "维": 1710,
      "综": 1711,
      "绿": 1712,
      "缅": 1713,
      "缆": 1714,
      "缓": 1715,
      "缔": 1716,
      "编": 1717,
      "缘": 1718,
      "缝": 1719,
      "缩": 1720,
      "缴": 1721,
      "缺": 1722,
      "罐": 1723,
      "网": 1724,
      "罕": 1725,
      "罗": 1726,
      "罚": 1727,
      "罢": 1728,
      "罩": 1729,
      "罪": 1730,
      "置": 1731,
      "署": 1732,
      "美": 1733,
      "群": 1734,
      "羽": 1735,
      "翁": 1736,
      "翔": 1737,
      "翰": 1738,
      "翻": 1739,
      "翼": 1740,
      "耀": 1741,
      "老": 1742,
      "考": 1743,
      "者": 1744,
      "而": 1745,
      "耐": 1746,
      "耕": 1747,
      "耗": 1748,
      "耦": 1749,
      "耳": 1750,
      "耶": 1751,
      "耽": 1752,
      "聆": 1753,
      "职": 1754,
      "联": 1755,
      "聘": 1756,
      "聚": 1757,
      "肃": 1758,
      "肆": 1759,
      "肉": 1760,
      "肌": 1761,
      "股": 1762,
      "肢": 1763,
      "肤": 1764,
      "肥": 1765,
      "肯": 1766,
      "育": 1767,
      "肺": 1768,
      "肼": 1769,
      "胀": 1770,
      "胁": 1771,
      "背": 1772,
      "胎": 1773,
      "胚": 1774,
      "胜": 1775,
      "胞": 1776,
      "胡": 1777,
      "胶": 1778,
      "能": 1779,
      "脆": 1780,
      "脉": 1781,
      "脊": 1782,
      "脏": 1783,
      "脑": 1784,
      "脚": 1785,
      "脱": 1786,
      "腊": 1787,
      "腐": 1788,
      "腹": 1789,
      "腺": 1790,
      "腾": 1791,
      "膜": 1792,
      "膨": 1793,
      "膳": 1794,
      "臂": 1795,
      "臣": 1796,
      "自": 1797,
      "臭": 1798,
      "至": 1799,
      "致": 1800,
      "舆": 1801,
      "舌": 1802,
      "舍": 1803,
      "舒": 1804,
      "舞": 1805,
      "航": 1806,
      "般": 1807,
      "舰": 1808,
      "舱": 1809,
      "舶": 1810,
      "船": 1811,
      "良": 1812,
      "艰": 1813,
      "色": 1814,
      "艺": 1815,
      "艾": 1816,
      "节": 1817,
      "芬": 1818,
      "芯": 1819,
      "花": 1820,
      "苏": 1821,
      "苗": 1822,
      "若": 1823,
      "苦": 1824,
      "英": 1825,
      "范": 1826,
      "茎": 1827,
      "茨": 1828,
      "茬": 1829,
      "草": 1830,
      "荐": 1831,
      "荒": 1832,
      "荡": 1833,
      "荣": 1834,
      "荧": 1835,
      "药": 1836,
      "荷": 1837,
      "莎": 1838,
      "莫": 1839,
      "莱": 1840,
      "获": 1841,
      "莽": 1842,
      "菌": 1843,
      "菜": 1844,
      "菱": 1845,
      "菲": 1846,
      "萄": 1847,
      "萤": 1848,
      "营": 1849,
      "萨": 1850,
      "落": 1851,
      "著": 1852,
      "葡": 1853,
      "董": 1854,
      "蒂": 1855,
      "蒙": 1856,
      "蒸": 1857,
      "蓄": 1858,
      "蓝": 1859,
      "蓬": 1860,
      "蔑": 1861,
      "蔓": 1862,
      "蔗": 1863,
      "蔽": 1864,
      "薄": 1865,
      "薪": 1866,
      "藁": 1867,
      "藉": 1868,
      "藏": 1869,
      "藐": 1870,
      "藤": 1871,
      "虎": 1872,
      "虐": 1873,
      "虑": 1874,
      "虚": 1875,
      "虫": 1876,
      "虹": 1877,
      "虽": 1878,
      "虾": 1879,
      "蚀": 1880,
      "蚊": 1881,
      "蚜": 1882,
      "蛋": 1883,
      "蛮": 1884,
      "蜀": 1885,
      "蜂": 1886,
      "蝇": 1887,
      "蝗": 1888,
      "螈": 1889,
      "融": 1890,
      "螺": 1891,
      "血": 1892,
      "衅": 1893,
      "行": 1894,
      "衍": 1895,
      "街": 1896,
      "衡": 1897,
      "衣": 1898,
      "补": 1899,
      "表": 1900,
      "衰": 1901,
      "衷": 1902,
      "袖": 1903,
      "被": 1904,
      "袭": 1905,
      "裁": 1906,
      "裂": 1907,
      "装": 1908,
      "裔": 1909,
      "裕": 1910,
      "裨": 1911,
      "裹": 1912,
      "褐": 1913,
      "襄": 1914,
      "西": 1915,
      "要": 1916,
      "覆": 1917,
      "见": 1918,
      "观": 1919,
      "规": 1920,
      "视": 1921,
      "览": 1922,
      "觉": 1923,
      "角": 1924,
      "解": 1925,
      "触": 1926,
      "言": 1927,
      "誉": 1928,
      "警": 1929,
      "计": 1930,
      "订": 1931,
      "认": 1932,
      "讨": 1933,
      "让": 1934,
      "训": 1935,
      "议": 1936,
      "讯": 1937,
      "记": 1938,
      "讲": 1939,
      "讶": 1940,
      "许": 1941,
      "论": 1942,
      "讼": 1943,
      "设": 1944,
      "访": 1945,
      "证": 1946,
      "评": 1947,
      "识": 1948,
      "诈": 1949,
      "诉": 1950,
      "诊": 1951,
      "词": 1952,
      "译": 1953,
      "试": 1954,
      "诚": 1955,
      "话": 1956,
      "诞": 1957,
      "诡": 1958,
      "询": 1959,
      "该": 1960,
      "详": 1961,
      "诫": 1962,
      "语": 1963,
      "误": 1964,
      "诱": 1965,
      "说": 1966,
      "请": 1967,
      "诸": 1968,
      "诺": 1969,
      "读": 1970,
      "诽": 1971,
      "课": 1972,
      "谁": 1973,
      "调": 1974,
      "谅": 1975,
      "谈": 1976,
      "谊": 1977,
      "谋": 1978,
      "谐": 1979,
      "谓": 1980,
      "谢": 1981,
      "谤": 1982,
      "谨": 1983,
      "谬": 1984,
      "谱": 1985,
      "谲": 1986,
      "谴": 1987,
      "谷": 1988,
      "豁": 1989,
      "豆": 1990,
      "豌": 1991,
      "象": 1992,
      "貌": 1993,
      "贝": 1994,
      "负": 1995,
      "贡": 1996,
      "财": 1997,
      "责": 1998,
      "贤": 1999,
      "败": 2000,
      "货": 2001,
      "质": 2002,
      "贩": 2003,
      "贪": 2004,
      "贫": 2005,
      "贬": 2006,
      "购": 2007,
      "贮": 2008,
      "贯": 2009,
      "贴": 2010,
      "贵": 2011,
      "贷": 2012,
      "贸": 2013,
      "费": 2014,
      "贺": 2015,
      "贾": 2016,
      "贿": 2017,
      "赁": 2018,
      "赂": 2019,
      "资": 2020,
      "赋": 2021,
      "赏": 2022,
      "赔": 2023,
      "赖": 2024,
      "赚": 2025,
      "赛": 2026,
      "赞": 2027,
      "赠": 2028,
      "赢": 2029,
      "赤": 2030,
      "赦": 2031,
      "赫": 2032,
      "走": 2033,
      "赴": 2034,
      "赶": 2035,
      "起": 2036,
      "超": 2037,
      "越": 2038,
      "趋": 2039,
      "趣": 2040,
      "足": 2041,
      "跃": 2042,
      "跑": 2043,
      "距": 2044,
      "跟": 2045,
      "跨": 2046,
      "路": 2047,
      "跳": 2048,
      "践": 2049,
      "踏": 2050,
      "踞": 2051,
      "踪": 2052,
      "蹂": 2053,
      "躏": 2054,
      "身": 2055,
      "车": 2056,
      "轨": 2057,
      "转": 2058,
      "轮": 2059,
      "软": 2060,
      "轴": 2061,
      "轻": 2062,
      "载": 2063,
      "较": 2064,
      "辅": 2065,
      "辆": 2066,
      "辈": 2067,
      "辉": 2068,
      "辍": 2069,
      "辐": 2070,
      "辑": 2071,
      "输": 2072,
      "辖": 2073,
      "辜": 2074,
      "辞": 2075,
      "辟": 2076,
      "辨": 2077,
      "辩": 2078,
      "辱": 2079,
      "边": 2080,
      "达": 2081,
      "迁": 2082,
      "迄": 2083,
      "迅": 2084,
      "过": 2085,
      "迈": 2086,
      "迎": 2087,
      "运": 2088,
      "近": 2089,
      "返": 2090,
      "还": 2091,
      "这": 2092,
      "进": 2093,
      "远": 2094,
      "违": 2095,
      "连": 2096,
      "迟": 2097,
      "迪": 2098,
      "迫": 2099,
      "述": 2100,
      "迸": 2101,
      "迹": 2102,
      "追": 2103,
      "退": 2104,
      "送": 2105,
      "适": 2106,
      "逃": 2107,
      "逆": 2108,
      "选": 2109,
      "逊": 2110,
      "逍": 2111,
      "透": 2112,
      "逐": 2113,
      "递": 2114,
      "途": 2115,
      "逗": 2116,
      "通": 2117,
      "速": 2118,
      "造": 2119,
      "逮": 2120,
      "逸": 2121,
      "逻": 2122,
      "逾": 2123,
      "遇": 2124,
      "遍": 2125,
      "道": 2126,
      "遗": 2127,
      "遣": 2128,
      "遥": 2129,
      "遭": 2130,
      "遮": 2131,
      "遴": 2132,
      "遵": 2133,
      "避": 2134,
      "邀": 2135,
      "那": 2136,
      "邦": 2137,
      "邮": 2138,
      "邻": 2139,
      "郁": 2140,
      "郊": 2141,
      "郡": 2142,
      "部": 2143,
      "都": 2144,
      "鄙": 2145,
      "酋": 2146,
      "酌": 2147,
      "配": 2148,
      "酒": 2149,
      "酗": 2150,
      "酝": 2151,
      "酬": 2152,
      "酷": 2153,
      "酸": 2154,
      "酿": 2155,
      "醉": 2156,
      "醒": 2157,
      "采": 2158,
      "释": 2159,
      "里": 2160,
      "重": 2161,
      "野": 2162,
      "量": 2163,
      "金": 2164,
      "鉴": 2165,
      "钇": 2166,
      "针": 2167,
      "钉": 2168,
      "钕": 2169,
      "钙": 2170,
      "钚": 2171,
      "钛": 2172,
      "钝": 2173,
      "钟": 2174,
      "钠": 2175,
      "钦": 2176,
      "钱": 2177,
      "钻": 2178,
      "铁": 2179,
      "铂": 2180,
      "铋": 2181,
      "铝": 2182,
      "铢": 2183,
      "铭": 2184,
      "铱": 2185,
      "铲": 2186,
      "银": 2187,
      "铸": 2188,
      "铺": 2189,
      "链": 2190,
      "销": 2191,
      "锂": 2192,
      "锋": 2193,
      "错": 2194,
      "锡": 2195,
      "锥": 2196,
      "键": 2197,
      "锯": 2198,
      "锻": 2199,
      "镀": 2200,
      "镇": 2201,
      "镉": 2202,
      "镍": 2203,
      "镓": 2204,
      "镜": 2205,
      "镶": 2206,
      "长": 2207,
      "门": 2208,
      "闪": 2209,
      "闭": 2210,
      "问": 2211,
      "间": 2212,
      "闹": 2213,
      "闻": 2214,
      "阀": 2215,
      "阁": 2216,
      "阅": 2217,
      "阐": 2218,
      "阔": 2219,
      "队": 2220,
      "防": 2221,
      "阳": 2222,
      "阴": 2223,
      "阵": 2224,
      "阶": 2225,
      "阻": 2226,
      "阿": 2227,
      "陀": 2228,
      "附": 2229,
      "际": 2230,
      "陆": 2231,
      "陈": 2232,
      "降": 2233,
      "限": 2234,
      "院": 2235,
      "除": 2236,
      "陨": 2237,
      "险": 2238,
      "陵": 2239,
      "陶": 2240,
      "陷": 2241,
      "隆": 2242,
      "随": 2243,
      "隐": 2244,
      "隔": 2245,
      "障": 2246,
      "隶": 2247,
      "难": 2248,
      "雄": 2249,
      "雅": 2250,
      "集": 2251,
      "雇": 2252,
      "雨": 2253,
      "雪": 2254,
      "零": 2255,
      "雷": 2256,
      "雾": 2257,
      "需": 2258,
      "震": 2259,
      "霍": 2260,
      "霜": 2261,
      "露": 2262,
      "青": 2263,
      "静": 2264,
      "非": 2265,
      "靠": 2266,
      "面": 2267,
      "革": 2268,
      "靶": 2269,
      "鞋": 2270,
      "韦": 2271,
      "韩": 2272,
      "音": 2273,
      "页": 2274,
      "顶": 2275,
      "顷": 2276,
      "项": 2277,
      "顺": 2278,
      "须": 2279,
      "顾": 2280,
      "顿": 2281,
      "颁": 2282,
      "颂": 2283,
      "预": 2284,
      "领": 2285,
      "颇": 2286,
      "频": 2287,
      "颖": 2288,
      "颗": 2289,
      "题": 2290,
      "颜": 2291,
      "额": 2292,
      "颠": 2293,
      "风": 2294,
      "飓": 2295,
      "飘": 2296,
      "飞": 2297,
      "食": 2298,
      "餐": 2299,
      "饥": 2300,
      "饮": 2301,
      "饰": 2302,
      "饱": 2303,
      "饲": 2304,
      "饶": 2305,
      "饿": 2306,
      "馆": 2307,
      "馈": 2308,
      "首": 2309,
      "马": 2310,
      "驰": 2311,
      "驱": 2312,
      "驳": 2313,
      "驶": 2314,
      "驻": 2315,
      "驾": 2316,
      "验": 2317,
      "骗": 2318,
      "骚": 2319,
      "骤": 2320,
      "骨": 2321,
      "髓": 2322,
      "高": 2323,
      "鬼": 2324,
      "魁": 2325,
      "魏": 2326,
      "鱼": 2327,
      "鲁": 2328,
      "鲜": 2329,
      "鲸": 2330,
      "鸟": 2331,
      "鹿": 2332,
      "麦": 2333,
      "麻": 2334,
      "黄": 2335,
      "黎": 2336,
      "黑": 2337,
      "默": 2338,
      "鼓": 2339,
      "鼻": 2340,
      "齿": 2341,
      "龄": 2342,
      "龙": 2343,
      "％": 2344,
      "（": 2345,
      "）": 2346,
      "＋": 2347,
      "，": 2348,
      "－": 2349,
      "．": 2350,
      "２": 2351,
      "５": 2352,
      "：": 2353,
      "；": 2354,
      "＝": 2355,
      "？": 2356,
      "ａ": 2357,
      "ｂ": 2358,
      "##色": 2359,
      "##列": 2360,
      "##常": 2361,
      "##驻": 2362,
      "##代": 2363,
      "##表": 2364,
      "##通": 2365,
      "##知": 2366,
      "##秘": 2367,
      "##书": 2368,
      "##长": 2369,
      "##于": 2370,
      "##运": 2371,
      "##送": 2372,
      "##和": 2373,
      "##储": 2374,
      "##存": 2375,
      "##飞": 2376,
      "##行": 2377,
      "##器": 2378,
      "##内": 2379,
      "##活": 2380,
      "##动": 2381,
      "##所": 2382,
      "##需": 2383,
      "##要": 2384,
      "##的": 2385,
      "##有": 2386,
      "##效": 2387,
      "##载": 2388,
      "##荷": 2389,
      "##此": 2390,
      "##过": 2391,
      "##程": 2392,
      "##中": 2393,
      "##惊": 2394,
      "##奇": 2395,
      "##地": 2396,
      "##发": 2397,
      "##现": 2398,
      "##了": 2399,
      "##第": 2400,
      "##一": 2401,
      "##个": 2402,
      "##确": 2403,
      "##证": 2404,
      "##围": 2405,
      "##绕": 2406,
      "##小": 2407,
      "##星": 2408,
      "##卫": 2409,
      "##使": 2410,
      "##管": 2411,
      "##辖": 2412,
      "##职": 2413,
      "##能": 2414,
      "##独": 2415,
      "##立": 2416,
      "##性": 2417,
      "##员": 2418,
      "##会": 2419,
      "##满": 2420,
      "##意": 2421,
      "##注": 2422,
      "##到": 2423,
      "##及": 2424,
      "##鉴": 2425,
      "##在": 2426,
      "##白": 2427,
      "##俄": 2428,
      "##罗": 2429,
      "##斯": 2430,
      "##很": 2431,
      "##多": 2432,
      "##少": 2433,
      "##数": 2434,
      "##民": 2435,
      "##族": 2436,
      "##们": 2437,
      "##基": 2438,
      "##本": 2439,
      "##上": 2440,
      "##是": 2441,
      "##依": 2442,
      "##靠": 2443,
      "##自": 2444,
      "##己": 2445,
      "##组": 2446,
      "##织": 2447,
      "##助": 2448,
      "##机": 2449,
      "##制": 2450,
      "##得": 2451,
      "##以": 2452,
      "##生": 2453,
      "##培": 2454,
      "##训": 2455,
      "##水": 2456,
      "##四": 2457,
      "##十": 2458,
      "##二": 2459,
      "##届": 2460,
      "##议": 2461,
      "##强": 2462,
      "##调": 2463,
      "##由": 2464,
      "##缔": 2465,
      "##约": 2466,
      "##国": 2467,
      "##推": 2468,
      "##迟": 2469,
      "##提": 2470,
      "##交": 2471,
      "##报": 2472,
      "##告": 2473,
      "##o": 2474,
      "##s": 2475,
      "##平": 2476,
      "##均": 2477,
      "##为": 2478,
      "##3": 2479,
      "##6": 2480,
      "##份": 2481,
      "##附": 2482,
      "##件": 2483,
      "##4": 2484,
      "##用": 2485,
      "##其": 2486,
      "##他": 2487,
      "##班": 2488,
      "##参": 2489,
      "##加": 2490,
      "##者": 2491,
      "##供": 2492,
      "##投": 2493,
      "##入": 2494,
      "##0": 2495,
      "##8": 2496,
      "##孩": 2497,
      "##子": 2498,
      "##开": 2499,
      "##玩": 2500,
      "##笑": 2501,
      "##如": 2502,
      "##何": 2503,
      "##或": 2504,
      "##共": 2505,
      "##同": 2506,
      "##这": 2507,
      "##些": 2508,
      "##技": 2509,
      "##术": 2510,
      "##来": 2511,
      "##预": 2512,
      "##防": 2513,
      "##灾": 2514,
      "##害": 2515,
      "##测": 2516,
      "##马": 2517,
      "##尼": 2518,
      "##亚": 2519,
      "##感": 2520,
      "##谢": 2521,
      "##委": 2522,
      "##成": 2523,
      "##对": 2524,
      "##境": 2525,
      "##情": 2526,
      "##况": 2527,
      "##兴": 2528,
      "##趣": 2529,
      "##并": 2530,
      "##解": 2531,
      "##保": 2532,
      "##健": 2533,
      "##享": 2534,
      "##9": 2535,
      "##年": 2536,
      "##月": 2537,
      "##V": 2538,
      "##H": 2539,
      "##R": 2540,
      "##据": 2541,
      "##条": 2542,
      "##留": 2543,
      "##妇": 2544,
      "##女": 2545,
      "##受": 2546,
      "##学": 2547,
      "##教": 2548,
      "##育": 2549,
      "##收": 2550,
      "##还": 2551,
      "##出": 2552,
      "##关": 2553,
      "##土": 2554,
      "##著": 2555,
      "##人": 2556,
      "##拥": 2557,
      "##财": 2558,
      "##产": 2559,
      "##权": 2560,
      "##利": 2561,
      "##否": 2562,
      "##充": 2563,
      "##分": 2564,
      "##护": 2565,
      "##问": 2566,
      "##题": 2567,
      "##弥": 2568,
      "##补": 2569,
      "##方": 2570,
      "##案": 2571,
      "##不": 2572,
      "##足": 2573,
      "##拉": 2574,
      "##丁": 2575,
      "##美": 2576,
      "##洲": 2577,
      "##鲁": 2578,
      "##合": 2579,
      "##它": 2580,
      "##家": 2581,
      "##必": 2582,
      "##时": 2583,
      "##可": 2584,
      "##影": 2585,
      "##响": 2586,
      "##导": 2587,
      "##致": 2588,
      "##展": 2589,
      "##远": 2590,
      "##距": 2591,
      "##离": 2592,
      "##系": 2593,
      "##统": 2594,
      "##政": 2595,
      "##策": 2596,
      "##押": 2597,
      "##背": 2598,
      "##井": 2599,
      "##乡": 2600,
      "##比": 2601,
      "##下": 2602,
      "##降": 2603,
      "##许": 2604,
      "##那": 2605,
      "##味": 2606,
      "##着": 2607,
      "##除": 2608,
      "##品": 2609,
      "##量": 2610,
      "##之": 2611,
      "##外": 2612,
      "##党": 2613,
      "##治": 2614,
      "##庭": 2615,
      "##联": 2616,
      "##空": 2617,
      "##间": 2618,
      "##应": 2619,
      "##非": 2620,
      "##律": 2621,
      "##师": 2622,
      "##法": 2623,
      "##官": 2624,
      "##计": 2625,
      "##字": 2626,
      "##球": 2627,
      "##静": 2628,
      "##止": 2629,
      "##轨": 2630,
      "##道": 2631,
      "##只": 2632,
      "##几": 2633,
      "##颗": 2634,
      "##括": 2635,
      "##瓦": 2636,
      "##巴": 2637,
      "##德": 2638,
      "##新": 2639,
      "##而": 2640,
      "##即": 2641,
      "##执": 2642,
      "##缓": 2643,
      "##战": 2644,
      "##略": 2645,
      "##最": 2646,
      "##近": 2647,
      "##举": 2648,
      "##泛": 2649,
      "##大": 2650,
      "##毫": 2651,
      "##米": 2652,
      "##波": 2653,
      "##雷": 2654,
      "##达": 2655,
      "##观": 2656,
      "##群": 2657,
      "##体": 2658,
      "##已": 2659,
      "##返": 2660,
      "##回": 2661,
      "##村": 2662,
      "##庄": 2663,
      "##老": 2664,
      "##化": 2665,
      "##部": 2666,
      "##工": 2667,
      "##作": 2668,
      "##经": 2669,
      "##完": 2670,
      "##瓷": 2671,
      "##等": 2672,
      "##材": 2673,
      "##料": 2674,
      "##高": 2675,
      "##级": 2676,
      "##玻": 2677,
      "##璃": 2678,
      "##涂": 2679,
      "##层": 2680,
      "##遥": 2681,
      "##试": 2682,
      "##点": 2683,
      "##项": 2684,
      "##目": 2685,
      "##例": 2686,
      "##痢": 2687,
      "##疾": 2688,
      "##事": 2689,
      "##夜": 2690,
      "##定": 2691,
      "##期": 2692,
      "##进": 2693,
      "##研": 2694,
      "##究": 2695,
      "##支": 2696,
      "##持": 2697,
      "##碎": 2698,
      "##片": 2699,
      "##碰": 2700,
      "##撞": 2701,
      "##起": 2702,
      "##规": 2703,
      "##电": 2704,
      "##话": 2705,
      "##接": 2706,
      "##线": 2707,
      "##然": 2708,
      "##当": 2709,
      "##力": 2710,
      "##理": 2711,
      "##日": 2712,
      "##渐": 2713,
      "##实": 2714,
      "##际": 2715,
      "##世": 2716,
      "##界": 2717,
      "##范": 2718,
      "##光": 2719,
      "##信": 2720,
      "##息": 2721,
      "##配": 2722,
      "##备": 2723,
      "##按": 2724,
      "##路": 2725,
      "##取": 2726,
      "##局": 2727,
      "##都": 2728,
      "##彼": 2729,
      "##排": 2730,
      "##流": 2731,
      "##失": 2732,
      "##给": 2733,
      "##予": 2734,
      "##公": 2735,
      "##位": 2736,
      "##决": 2737,
      "##全": 2738,
      "##符": 2739,
      "##文": 2740,
      "##度": 2741,
      "##缺": 2742,
      "##乏": 2743,
      "##院": 2744,
      "##资": 2745,
      "##深": 2746,
      "##府": 2747,
      "##检": 2748,
      "##察": 2749,
      "##撤": 2750,
      "##处": 2751,
      "##罚": 2752,
      "##种": 2753,
      "##歧": 2754,
      "##视": 2755,
      "##罪": 2756,
      "##惩": 2757,
      "##款": 2758,
      "##明": 2759,
      "##服": 2760,
      "##社": 2761,
      "##济": 2762,
      "##安": 2763,
      "##建": 2764,
      "##2": 2765,
      "##亿": 2766,
      "##元": 2767,
      "##诉": 2768,
      "##讼": 2769,
      "##让": 2770,
      "##语": 2771,
      "##言": 2772,
      "##设": 2773,
      "##司": 2774,
      "##弱": 2775,
      "##也": 2776,
      "##令": 2777,
      "##遗": 2778,
      "##憾": 2779,
      "##抛": 2780,
      "##物": 2781,
      "##天": 2782,
      "##务": 2783,
      "##办": 2784,
      "##1": 2785,
      "##且": 2786,
      "##标": 2787,
      "##次": 2788,
      "##扩": 2789,
      "##两": 2790,
      "##针": 2791,
      "##抗": 2792,
      "##破": 2793,
      "##伤": 2794,
      "##风": 2795,
      "##疫": 2796,
      "##苗": 2797,
      "##众": 2798,
      "##食": 2799,
      "##堂": 2800,
      "##杯": 2801,
      "##牛": 2802,
      "##奶": 2803,
      "##授": 2804,
      "##论": 2805,
      "##被": 2806,
      "##拘": 2807,
      "##释": 2808,
      "##放": 2809,
      "##7": 2810,
      "##5": 2811,
      "##果": 2812,
      "##没": 2813,
      "##说": 2814,
      "##雇": 2815,
      "##主": 2816,
      "##妥": 2817,
      "##药": 2818,
      "##划": 2819,
      "##射": 2820,
      "##别": 2821,
      "##极": 2822,
      "##脉": 2823,
      "##冲": 2824,
      "##臭": 2825,
      "##氧": 2826,
      "##盟": 2827,
      "##乍": 2828,
      "##各": 2829,
      "##将": 2830,
      "##S": 2831,
      "##C": 2832,
      "##A": 2833,
      "##B": 2834,
      "##继": 2835,
      "##续": 2836,
      "##始": 2837,
      "##气": 2838,
      "##候": 2839,
      "##辐": 2840,
      "##衡": 2841,
      "##述": 2842,
      "##领": 2843,
      "##域": 2844,
      "##包": 2845,
      "##漫": 2846,
      "##游": 2847,
      "##I": 2848,
      "##n": 2849,
      "##m": 2850,
      "##a": 2851,
      "##r": 2852,
      "##t": 2853,
      "##构": 2854,
      "##区": 2855,
      "##急": 2856,
      "##G": 2857,
      "##D": 2858,
      "##访": 2859,
      "##校": 2860,
      "##室": 2861,
      "##专": 2862,
      "##业": 2863,
      "##网": 2864,
      "##络": 2865,
      "##重": 2866,
      "##咨": 2867,
      "##询": 2868,
      "##因": 2869,
      "##素": 2870,
      "##隔": 2871,
      "##无": 2872,
      "##造": 2873,
      "##副": 2874,
      "##容": 2875,
      "##遵": 2876,
      "##循": 2877,
      "##旱": 2878,
      "##沙": 2879,
      "##漠": 2880,
      "##正": 2881,
      "##威": 2882,
      "##胁": 2883,
      "##求": 2884,
      "##审": 2885,
      "##查": 2886,
      "##瑟": 2887,
      "##兰": 2888,
      "##置": 2889,
      "##佳": 2890,
      "##认": 2891,
      "##她": 2892,
      "##某": 2893,
      "##优": 2894,
      "##势": 2895,
      "##早": 2896,
      "##d": 2897,
      "##原": 2898,
      "##先": 2899,
      "##更": 2900,
      "##具": 2901,
      "##样": 2902,
      "##源": 2903,
      "##承": 2904,
      "##指": 2905,
      "##仅": 2906,
      "##媒": 2907,
      "##介": 2908,
      "##准": 2909,
      "##万": 2910,
      "##医": 2911,
      "##疗": 2912,
      "##斤": 2913,
      "##低": 2914,
      "##攻": 2915,
      "##击": 2916,
      "##属": 2917,
      "##暴": 2918,
      "##质": 2919,
      "##翻": 2920,
      "##艺": 2921,
      "##另": 2922,
      "##面": 2923,
      "##变": 2924,
      "##换": 2925,
      "##瑞": 2926,
      "##典": 2927,
      "##协": 2928,
      "##裔": 2929,
      "##P": 2930,
      "##O": 2931,
      "##T": 2932,
      "##图": 2933,
      "##象": 2934,
      "##限": 2935,
      "##e": 2936,
      "##g": 2937,
      "##u": 2938,
      "##火": 2939,
      "##箭": 2940,
      "##站": 2941,
      "##至": 2942,
      "##龄": 2943,
      "##岁": 2944,
      "##率": 2945,
      "##便": 2946,
      "##海": 2947,
      "##洋": 2948,
      "##氙": 2949,
      "##临": 2950,
      "##相": 2951,
      "##科": 2952,
      "##差": 2953,
      "##居": 2954,
      "##形": 2955,
      "##i": 2956,
      "##J": 2957,
      "##请": 2958,
      "##违": 2959,
      "##反": 2960,
      "##禁": 2961,
      "##萨": 2962,
      "##尔": 2963,
      "##批": 2964,
      "##评": 2965,
      "##估": 2966,
      "##遇": 2967,
      "##困": 2968,
      "##难": 2969,
      "##模": 2970,
      "##型": 2971,
      "##改": 2972,
      "##该": 2973,
      "##州": 2974,
      "##口": 2975,
      "##吻": 2976,
      "##王": 2977,
      "##采": 2978,
      "##验": 2979,
      "##整": 2980,
      "##侧": 2981,
      "##商": 2982,
      "##门": 2983,
      "##卢": 2984,
      "##旺": 2985,
      "##严": 2986,
      "##格": 2987,
      "##尊": 2988,
      "##房": 2989,
      "##我": 2990,
      "##座": 2991,
      "##根": 2992,
      "##申": 2993,
      "##序": 2994,
      "##后": 2995,
      "##向": 2996,
      "##看": 2997,
      "##与": 2998,
      "##绘": 2999,
      "##价": 3000,
      "##值": 3001,
      "##址": 3002,
      "##阶": 3003,
      "##段": 3004,
      "##就": 3005,
      "##号": 3006,
      "##细": 3007,
      "##胞": 3008,
      "##损": 3009,
      "##环": 3010,
      "##再": 3011,
      "##省": 3012,
      "##F": 3013,
      "##l": 3014,
      "##随": 3015,
      "##探": 3016,
      "##索": 3017,
      "##太": 3018,
      "##阳": 3019,
      "##台": 3020,
      "##特": 3021,
      "##h": 3022,
      "##w": 3023,
      "##签": 3024,
      "##订": 3025,
      "##集": 3026,
      "##貌": 3027,
      "##功": 3028,
      "##传": 3029,
      "##输": 3030,
      "##呈": 3031,
      "##监": 3032,
      "##病": 3033,
      "##挥": 3034,
      "##走": 3035,
      "##好": 3036,
      "##南": 3037,
      "##史": 3038,
      "##召": 3039,
      "##施": 3040,
      "##姆": 3041,
      "##塞": 3042,
      "##乎": 3043,
      "##企": 3044,
      "##斑": 3045,
      "##像": 3046,
      "##算": 3047,
      "##类": 3048,
      "##判": 3049,
      "##读": 3050,
      "##前": 3051,
      "##装": 3052,
      "##警": 3053,
      "##队": 3054,
      "##担": 3055,
      "##任": 3056,
      "##巡": 3057,
      "##普": 3058,
      "##热": 3059,
      "##恒": 3060,
      "##步": 3061,
      "##从": 3062,
      "##L": 3063,
      "##获": 3064,
      "##北": 3065,
      "##撒": 3066,
      "##哈": 3067,
      "##住": 3068,
      "##毛": 3069,
      "##婚": 3070,
      "##父": 3071,
      "##母": 3072,
      "##束": 3073,
      "##快": 3074,
      "##减": 3075,
      "##析": 3076,
      "##良": 3077,
      "##毒": 3078,
      "##贩": 3079,
      "##农": 3080,
      "##逻": 3081,
      "##拿": 3082,
      "##航": 3083,
      "##荒": 3084,
      "##谬": 3085,
      "##义": 3086,
      "##宏": 3087,
      "##状": 3088,
      "##总": 3089,
      "##增": 3090,
      "##穿": 3091,
      "##越": 3092,
      "##尽": 3093,
      "##础": 3094,
      "##宇": 3095,
      "##宙": 3096,
      "##宪": 3097,
      "##选": 3098,
      "##N": 3099,
      "##仪": 3100,
      "##冷": 3101,
      "##山": 3102,
      "##喷": 3103,
      "##守": 3104,
      "##鼓": 3105,
      "##舞": 3106,
      "##扎": 3107,
      "##谷": 3108,
      "##夫": 3109,
      "##邦": 3110,
      "##贡": 3111,
      "##献": 3112,
      "##心": 3113,
      "##崩": 3114,
      "##溃": 3115,
      "##抵": 3116,
      "##消": 3117,
      "##努": 3118,
      "##益": 3119,
      "##耀": 3120,
      "##什": 3121,
      "##么": 3122,
      "##救": 3123,
      "##岛": 3124,
      "##崎": 3125,
      "##去": 3126,
      "##里": 3127,
      "##舱": 3128,
      "##z": 3129,
      "##未": 3130,
      "##勒": 3131,
      "##飓": 3132,
      "##照": 3133,
      "##则": 3134,
      "##详": 3135,
      "##克": 3136,
      "##逊": 3137,
      "##干": 3138,
      "##涉": 3139,
      "##升": 3140,
      "##场": 3141,
      "##覆": 3142,
      "##盖": 3143,
      "##西": 3144,
      "##踪": 3145,
      "##控": 3146,
      "##核": 3147,
      "##派": 3148,
      "##团": 3149,
      "##打": 3150,
      "##章": 3151,
      "##想": 3152,
      "##残": 3153,
      "##余": 3154,
      "##废": 3155,
      "##娼": 3156,
      "##妓": 3157,
      "##措": 3158,
      "##带": 3159,
      "##望": 3160,
      "##捍": 3161,
      "##编": 3162,
      "##E": 3163,
      "##墨": 3164,
      "##哥": 3165,
      "##塔": 3166,
      "##港": 3167,
      "##讲": 3168,
      "##习": 3169,
      "##够": 3170,
      "##识": 3171,
      "##男": 3172,
      "##甚": 3173,
      "##单": 3174,
      "##雨": 3175,
      "##缩": 3176,
      "##短": 3177,
      "##坚": 3178,
      "##佣": 3179,
      "##休": 3180,
      "##假": 3181,
      "##半": 3182,
      "##c": 3183,
      "##答": 3184,
      "##怀": 3185,
      "##唐": 3186,
      "##伊": 3187,
      "##渔": 3188,
      "##赞": 3189,
      "##扬": 3190,
      "##市": 3191,
      "##布": 3192,
      "##转": 3193,
      "##沿": 3194,
      "##岸": 3195,
      "##城": 3196,
      "##M": 3197,
      "##犯": 3198,
      "##虐": 3199,
      "##待": 3200,
      "##首": 3201,
      "##硬": 3202,
      "##速": 3203,
      "##纳": 3204,
      "##稳": 3205,
      "##切": 3206,
      "##争": 3207,
      "##银": 3208,
      "##河": 3209,
      "##散": 3210,
      "##式": 3211,
      "##伽": 3212,
      "##伦": 3213,
      "##堆": 3214,
      "##百": 3215,
      "##仍": 3216,
      "##皇": 3217,
      "##终": 3218,
      "##端": 3219,
      "##三": 3220,
      "##久": 3221,
      "##断": 3222,
      "##挑": 3223,
      "##希": 3224,
      "##呼": 3225,
      "##吁": 3226,
      "##停": 3227,
      "##斗": 3228,
      "##双": 3229,
      "##武": 3230,
      "##微": 3231,
      "##复": 3232,
      "##既": 3233,
      "##免": 3234,
      "##费": 3235,
      "##辩": 3236,
      "##车": 3237,
      "##修": 3238,
      "##福": 3239,
      "##园": 3240,
      "##乳": 3241,
      "##浆": 3242,
      "##草": 3243,
      "##头": 3244,
      "##痛": 3245,
      "##态": 3246,
      "##寿": 3247,
      "##命": 3248,
      "##退": 3249,
      "##今": 3250,
      "##燥": 3251,
      "##睡": 3252,
      "##眠": 3253,
      "##见": 3254,
      "##霍": 3255,
      "##乱": 3256,
      "##染": 3257,
      "##巨": 3258,
      "##每": 3259,
      "##宝": 3260,
      "##贵": 3261,
      "##险": 3262,
      "##须": 3263,
      "##六": 3264,
      "##寻": 3265,
      "##译": 3266,
      "##私": 3267,
      "##肤": 3268,
      "##名": 3269,
      "##似": 3270,
      "##轻": 3271,
      "##危": 3272,
      "##浪": 3273,
      "##套": 3274,
      "##互": 3275,
      "##驱": 3276,
      "##逐": 3277,
      "##障": 3278,
      "##卡": 3279,
      "##侦": 3280,
      "##植": 3281,
      "##操": 3282,
      "##红": 3283,
      "##潜": 3284,
      "##遭": 3285,
      "##骚": 3286,
      "##扰": 3287,
      "##撰": 3288,
      "##姻": 3289,
      "##穆": 3290,
      "##林": 3291,
      "##泰": 3292,
      "##澄": 3293,
      "##清": 3294,
      "##丽": 3295,
      "##娜": 3296,
      "##春": 3297,
      "##嫩": 3298,
      "##金": 3299,
      "##森": 3300,
      "##维": 3301,
      "##舆": 3302,
      "##促": 3303,
      "##吸": 3304,
      "##引": 3305,
      "##显": 3306,
      "##示": 3307,
      "##直": 3308,
      "##角": 3309,
      "##摄": 3310,
      "##胎": 3311,
      "##结": 3312,
      "##叠": 3313,
      "##削": 3314,
      "##花": 3315,
      "##历": 3316,
      "##欧": 3317,
      "##k": 3318,
      "##署": 3319,
      "##身": 3320,
      "##递": 3321,
      "##v": 3322,
      "##固": 3323,
      "##犹": 3324,
      "##搬": 3325,
      "##迁": 3326,
      "##密": 3327,
      "##东": 3328,
      "##厂": 3329,
      "##映": 3330,
      "##紧": 3331,
      "##张": 3332,
      "##负": 3333,
      "##责": 3334,
      "##库": 3335,
      "##乔": 3336,
      "##底": 3337,
      "##封": 3338,
      "##闭": 3339,
      "##苏": 3340,
      "##突": 3341,
      "##淤": 3342,
      "##淀": 3343,
      "##坛": 3344,
      "##做": 3345,
      "##般": 3346,
      "##移": 3347,
      "##谋": 3348,
      "##宣": 3349,
      "##贷": 3350,
      "##途": 3351,
      "##连": 3352,
      "##迎": 3353,
      "##找": 3354,
      "##遍": 3355,
      "##允": 3356,
      "##往": 3357,
      "##偶": 3358,
      "##曾": 3359,
      "##顾": 3360,
      "##宁": 3361,
      "##追": 3362,
      "##靶": 3363,
      "##把": 3364,
      "##p": 3365,
      "##脏": 3366,
      "##革": 3367,
      "##乌": 3368,
      "##托": 3369,
      "##周": 3370,
      "##厘": 3371,
      "##倍": 3372,
      "##宗": 3373,
      "##旨": 3374,
      "##谓": 3375,
      "##跨": 3376,
      "##养": 3377,
      "##适": 3378,
      "##野": 3379,
      "##版": 3380,
      "##抱": 3381,
      "##愿": 3382,
      "##善": 3383,
      "##节": 3384,
      "##才": 3385,
      "##拟": 3386,
      "##X": 3387,
      "##瓜": 3388,
      "##幕": 3389,
      "##枚": 3390,
      "##偏": 3391,
      "##帮": 3392,
      "##黎": 3393,
      "##末": 3394,
      "##谈": 3395,
      "##汇": 3396,
      "##茨": 3397,
      "##印": 3398,
      "##燃": 3399,
      "##耗": 3400,
      "##烧": 3401,
      "##软": 3402,
      "##廷": 3403,
      "##记": 3404,
      "##录": 3405,
      "##励": 3406,
      "##淫": 3407,
      "##丘": 3408,
      "##若": 3409,
      "##邻": 3410,
      "##迫": 3411,
      "##户": 3412,
      "##煽": 3413,
      "##敌": 3414,
      "##绪": 3415,
      "##亲": 3416,
      "##俱": 3417,
      "##乐": 3418,
      "##厄": 3419,
      "##诺": 3420,
      "##九": 3421,
      "##楚": 3422,
      "##席": 3423,
      "##讨": 3424,
      "##欢": 3425,
      "##迹": 3426,
      "##考": 3427,
      "##贿": 3428,
      "##赂": 3429,
      "##腐": 3430,
      "##败": 3431,
      "##匪": 3432,
      "##浅": 3433,
      "##恶": 3434,
      "##f": 3435,
      "##血": 3436,
      "##康": 3437,
      "##袖": 3438,
      "##衣": 3439,
      "##吃": 3440,
      "##U": 3441,
      "##博": 3442,
      "##孔": 3443,
      "##径": 3444,
      "##滑": 3445,
      "##坡": 3446,
      "##丹": 3447,
      "##麦": 3448,
      "##积": 3449,
      "##精": 3450,
      "##温": 3451,
      "##广": 3452,
      "##避": 3453,
      "##污": 3454,
      "##描": 3455,
      "##征": 3456,
      "##客": 3457,
      "##八": 3458,
      "##边": 3459,
      "##智": 3460,
      "##援": 3461,
      "##恢": 3462,
      "##抢": 3463,
      "##爆": 3464,
      "##炸": 3465,
      "##迅": 3466,
      "##瞩": 3467,
      "##遣": 3468,
      "##惯": 3469,
      "##洗": 3470,
      "##沟": 3471,
      "##坏": 3472,
      "##宜": 3473,
      "##艰": 3474,
      "##付": 3475,
      "##劳": 3476,
      "##筹": 3477,
      "##键": 3478,
      "##疑": 3479,
      "##闪": 3480,
      "##易": 3481,
      "##央": 3482,
      "##牙": 3483,
      "##尺": 3484,
      "##块": 3485,
      "##砖": 3486,
      "##刻": 3487,
      "##句": 3488,
      "##辱": 3489,
      "##画": 3490,
      "##篇": 3491,
      "##唤": 3492,
      "##聆": 3493,
      "##讯": 3494,
      "##借": 3495,
      "##尖": 3496,
      "##儿": 3497,
      "##童": 3498,
      "##初": 3499,
      "##伴": 3500,
      "##侣": 3501,
      "##馆": 3502,
      "##手": 3503,
      "##裂": 3504,
      "##占": 3505,
      "##症": 3506,
      "##死": 3507,
      "##亡": 3508,
      "##粒": 3509,
      "##异": 3510,
      "##脱": 3511,
      "##b": 3512,
      "##框": 3513,
      "##架": 3514,
      "##贫": 3515,
      "##督": 3516,
      "##创": 3517,
      "##竞": 3518,
      "##赛": 3519,
      "##赖": 3520,
      "##绍": 3521,
      "##七": 3522,
      "##购": 3523,
      "##携": 3524,
      "##顺": 3525,
      "##挨": 3526,
      "##谱": 3527,
      "##赏": 3528,
      "##票": 3529,
      "##触": 3530,
      "##刚": 3531,
      "##伞": 3532,
      "##琴": 3533,
      "##课": 3534,
      "##云": 3535,
      "##遮": 3536,
      "##酬": 3537,
      "##旅": 3538,
      "##蒸": 3539,
      "##缘": 3540,
      "##故": 3541,
      "##渡": 3542,
      "##屿": 3543,
      "##W": 3544,
      "##播": 3545,
      "##瘫": 3546,
      "##痪": 3547,
      "##剂": 3548,
      "##盲": 3549,
      "##营": 3550,
      "##撑": 3551,
      "##声": 3552,
      "##摘": 3553,
      "##皮": 3554,
      "##薪": 3555,
      "##侵": 3556,
      "##Y": 3557,
      "##刑": 3558,
      "##延": 3559,
      "##溢": 3560,
      "##洪": 3561,
      "##暗": 3562,
      "##颁": 3563,
      "##偿": 3564,
      "##矢": 3565,
      "##曼": 3566,
      "##隆": 3567,
      "##迪": 3568,
      "##杂": 3569,
      "##志": 3570,
      "##誉": 3571,
      "##厅": 3572,
      "##孕": 3573,
      "##殖": 3574,
      "##默": 3575,
      "##矿": 3576,
      "##称": 3577,
      "##亮": 3578,
      "##归": 3579,
      "##辨": 3580,
      "##拨": 3581,
      "##写": 3582,
      "##五": 3583,
      "##鱼": 3584,
      "##卵": 3585,
      "##孵": 3586,
      "##超": 3587,
      "##兆": 3588,
      "##灵": 3589,
      "##敏": 3590,
      "##链": 3591,
      "##综": 3592,
      "##军": 3593,
      "##绩": 3594,
      "##丈": 3595,
      "##磁": 3596,
      "##勘": 3597,
      "##逍": 3598,
      "##艾": 3599,
      "##滋": 3600,
      "##亵": 3601,
      "##渎": 3602,
      "##墓": 3603,
      "##较": 3604,
      "##桑": 3605,
      "##Z": 3606,
      "##籍": 3607,
      "##旋": 3608,
      "##敦": 3609,
      "##货": 3610,
      "##店": 3611,
      "##售": 3612,
      "##逆": 3613,
      "##迄": 3614,
      "##殴": 3615,
      "##档": 3616,
      "##械": 3617,
      "##兵": 3618,
      "##辆": 3619,
      "##阿": 3620,
      "##贮": 3621,
      "##赔": 3622,
      "##诸": 3623,
      "##虑": 3624,
      "##酋": 3625,
      "##箱": 3626,
      "##坦": 3627,
      "##搭": 3628,
      "##曲": 3629,
      "##扫": 3630,
      "##频": 3631,
      "##县": 3632,
      "##哲": 3633,
      "##忽": 3634,
      "##拒": 3635,
      "##绝": 3636,
      "##捐": 3637,
      "##摊": 3638,
      "##顿": 3639,
      "##惋": 3640,
      "##惜": 3641,
      "##真": 3642,
      "##压": 3643,
      "##摸": 3644,
      "##溉": 3645,
      "##赫": 3646,
      "##震": 3647,
      "##滤": 3648,
      "##函": 3649,
      "##租": 3650,
      "##晶": 3651,
      "##音": 3652,
      "##稀": 3653,
      "##简": 3654,
      "##ａ": 3655,
      "##跟": 3656,
      "##却": 3657,
      "##聘": 3658,
      "##郡": 3659,
      "##挪": 3660,
      "##替": 3661,
      "##恰": 3662,
      "##滥": 3663,
      "##哪": 3664,
      "##买": 3665,
      "##剥": 3666,
      "##夺": 3667,
      "##宽": 3668,
      "##含": 3669,
      "##晰": 3670,
      "##眼": 3671,
      "##虫": 3672,
      "##冕": 3673,
      "##灭": 3674,
      "##镜": 3675,
      "##耦": 3676,
      "##悬": 3677,
      "##隶": 3678,
      "##挝": 3679,
      "##仇": 3680,
      "##幢": 3681,
      "##楼": 3682,
      "##祖": 3683,
      "##徒": 3684,
      "##伙": 3685,
      "##尤": 3686,
      "##柄": 3687,
      "##阔": 3688,
      "##帚": 3689,
      "##笔": 3690,
      "##登": 3691,
      "##额": 3692,
      "##恤": 3693,
      "##昂": 3694,
      "##辉": 3695,
      "##裁": 3696,
      "##青": 3697,
      "##y": 3698,
      "##峰": 3699,
      "##船": 3700,
      "##伯": 3701,
      "##叙": 3702,
      "##铁": 3703,
      "##洛": 3704,
      "##粮": 3705,
      "##渊": 3706,
      "##拍": 3707,
      "##佛": 3708,
      "##骤": 3709,
      "##错": 3710,
      "##误": 3711,
      "##邀": 3712,
      "##板": 3713,
      "##销": 3714,
      "##叫": 3715,
      "##浮": 3716,
      "##落": 3717,
      "##聚": 3718,
      "##景": 3719,
      "##饮": 3720,
      "##僧": 3721,
      "##尚": 3722,
      "##欺": 3723,
      "##陷": 3724,
      "##铝": 3725,
      "##黑": 3726,
      "##洞": 3727,
      "##奥": 3728,
      "##钟": 3729,
      "##恐": 3730,
      "##怖": 3731,
      "##紫": 3732,
      "##士": 3733,
      "##盐": 3734,
      "##演": 3735,
      "##练": 3736,
      "##凯": 3737,
      "##壤": 3738,
      "##截": 3739,
      "##搜": 3740,
      "##捕": 3741,
      "##倾": 3742,
      "##斜": 3743,
      "##竖": 3744,
      "##履": 3745,
      "##御": 3746,
      "##麻": 3747,
      "##虹": 3748,
      "##册": 3749,
      "##辟": 3750,
      "##穷": 3751,
      "##镇": 3752,
      "##倡": 3753,
      "##稍": 3754,
      "##弗": 3755,
      "##蒂": 3756,
      "##横": 3757,
      "##滨": 3758,
      "##毁": 3759,
      "##吉": 3760,
      "##钱": 3761,
      "##妨": 3762,
      "##碍": 3763,
      "##扭": 3764,
      "##矩": 3765,
      "##纵": 3766,
      "##勤": 3767,
      "##毕": 3768,
      "##帕": 3769,
      "##卖": 3770,
      "##赴": 3771,
      "##择": 3772,
      "##秒": 3773,
      "##颜": 3774,
      "##乘": 3775,
      "##融": 3776,
      "##弧": 3777,
      "##露": 3778,
      "##蝇": 3779,
      "##脑": 3780,
      "##奴": 3781,
      "##役": 3782,
      "##激": 3783,
      "##松": 3784,
      "##辞": 3785,
      "##肯": 3786,
      "##木": 3787,
      "##辅": 3788,
      "##池": 3789,
      "##阵": 3790,
      "##饲": 3791,
      "##辍": 3792,
      "##丛": 3793,
      "##旦": 3794,
      "##婴": 3795,
      "##幅": 3796,
      "##抚": 3797,
      "##赶": 3798,
      "##宅": 3799,
      "##邮": 3800,
      "##堡": 3801,
      "##趋": 3802,
      "##僻": 3803,
      "##孙": 3804,
      "##掌": 3805,
      "##陆": 3806,
      "##床": 3807,
      "##浦": 3808,
      "##耳": 3809,
      "##袭": 3810,
      "##挽": 3811,
      "##虽": 3812,
      "##概": 3813,
      "##念": 3814,
      "##吓": 3815,
      "##醒": 3816,
      "##喂": 3817,
      "##轴": 3818,
      "##冰": 3819,
      "##握": 3820,
      "##液": 3821,
      "##填": 3822,
      "##贴": 3823,
      "##赋": 3824,
      "##蛋": 3825,
      "##插": 3826,
      "##陨": 3827,
      "##灰": 3828,
      "##尘": 3829,
      "##纬": 3830,
      "##纲": 3831,
      "##庇": 3832,
      "##蛮": 3833,
      "##溯": 3834,
      "##蹂": 3835,
      "##躏": 3836,
      "##又": 3837,
      "##逾": 3838,
      "##古": 3839,
      "##富": 3840,
      "##秩": 3841,
      "##耐": 3842,
      "##蚀": 3843,
      "##卜": 3844,
      "##伐": 3845,
      "##勉": 3846,
      "##埃": 3847,
      "##谐": 3848,
      "##铸": 3849,
      "##逮": 3850,
      "##闻": 3851,
      "##听": 3852,
      "##唱": 3853,
      "##盘": 3854,
      "##赦": 3855,
      "##奖": 3856,
      "##募": 3857,
      "##锥": 3858,
      "##透": 3859,
      "##捷": 3860,
      "##纯": 3861,
      "##妙": 3862,
      "##丢": 3863,
      "##晨": 3864,
      "##鸟": 3865,
      "##奠": 3866,
      "##兹": 3867,
      "##俗": 3868,
      "##抑": 3869,
      "##丧": 3870,
      "##恨": 3871,
      "##硫": 3872,
      "##酸": 3873,
      "##圭": 3874,
      "##吨": 3875,
      "##昼": 3876,
      "##铱": 3877,
      "##氢": 3878,
      "##稿": 3879,
      "##但": 3880,
      "##K": 3881,
      "##巧": 3882,
      "##寥": 3883,
      "##迈": 3884,
      "##纸": 3885,
      "##蓄": 3886,
      "##㈤": 3887,
      "##忍": 3888,
      "##恩": 3889,
      "##鹿": 3890,
      "##町": 3891,
      "##陵": 3892,
      "##卷": 3893,
      "##千": 3894,
      "##腊": 3895,
      "##殊": 3896,
      "##英": 3897,
      "##裹": 3898,
      "##兼": 3899,
      "##津": 3900,
      "##韦": 3901,
      "##狱": 3902,
      "##剪": 3903,
      "##彩": 3904,
      "##忠": 3905,
      "##屋": 3906,
      "##坝": 3907,
      "##悉": 3908,
      "##泽": 3909,
      "##炮": 3910,
      "##礼": 3911,
      "##侮": 3912,
      "##舒": 3913,
      "##添": 3914,
      "##耕": 3915,
      "##割": 3916,
      "##戈": 3917,
      "##颇": 3918,
      "##睦": 3919,
      "##悲": 3920,
      "##惨": 3921,
      "##折": 3922,
      "##廉": 3923,
      "##赤": 3924,
      "##奸": 3925,
      "##彻": 3926,
      "##捞": 3927,
      "##贾": 3928,
      "##宫": 3929,
      "##攸": 3930,
      "##氯": 3931,
      "##漏": 3932,
      "##田": 3933,
      "##贯": 3934,
      "##欠": 3935,
      "##歪": 3936,
      "##蓝": 3937,
      "##劣": 3938,
      "##钠": 3939,
      "##慕": 3940,
      "##遴": 3941,
      "##佐": 3942,
      "##耶": 3943,
      "##累": 3944,
      "##拖": 3945,
      "##烈": 3946,
      "##菲": 3947,
      "##薄": 3948,
      "##猛": 3949,
      "##旧": 3950,
      "##胜": 3951,
      "##甲": 3952,
      "##烷": 3953,
      "##洁": 3954,
      "##石": 3955,
      "##掩": 3956,
      "##冻": 3957,
      "##棋": 3958,
      "##叛": 3959,
      "##酌": 3960,
      "##唯": 3961,
      "##斡": 3962,
      "##沃": 3963,
      "##华": 3964,
      "##粹": 3965,
      "##恋": 3966,
      "##泡": 3967,
      "##涡": 3968,
      "##轮": 3969,
      "##泵": 3970,
      "##油": 3971,
      "##娱": 3972,
      "##藁": 3973,
      "##弃": 3974,
      "##朗": 3975,
      "##圈": 3976,
      "##沾": 3977,
      "##壮": 3978,
      "##腹": 3979,
      "##泻": 3980,
      "##肆": 3981,
      "##忌": 3982,
      "##惮": 3983,
      "##奉": 3984,
      "##夷": 3985,
      "##殆": 3986,
      "##翰": 3987,
      "##胡": 3988,
      "##零": 3989,
      "##痕": 3990,
      "##饱": 3991,
      "##°": 3992,
      "##纪": 3993,
      "##庸": 3994,
      "##濒": 3995,
      "##午": 3996,
      "##悠": 3997,
      "##京": 3998,
      "##汽": 3999,
      "##慢": 4000,
      "##宿": 4001,
      "##扶": 4002,
      "##逸": 4003,
      "##纠": 4004,
      "##踞": 4005,
      "##冥": 4006,
      "##诽": 4007,
      "##谤": 4008,
      "##混": 4009,
      "##剧": 4010,
      "##㈠": 4011,
      "##饰": 4012,
      "##甸": 4013,
      "##阻": 4014,
      "##奈": 4015,
      "##屠": 4016,
      "##杀": 4017,
      "##辈": 4018,
      "##晚": 4019,
      "##x": 4020,
      "##垂": 4021,
      "##氦": 4022,
      "##丰": 4023,
      "##仰": 4024,
      "##氮": 4025,
      "##梅": 4026,
      "##寄": 4027,
      "##莫": 4028,
      "##钚": 4029,
      "##掉": 4030,
      "##阐": 4031,
      "##词": 4032,
      "##ｂ": 4033,
      "##捉": 4034,
      "##壳": 4035,
      "##抽": 4036,
      "##臂": 4037,
      "##绳": 4038,
      "##蜀": 4039,
      "##浏": 4040,
      "##览": 4041,
      "##酒": 4042,
      "##裕": 4043,
      "##硕": 4044,
      "##圣": 4045,
      "##仿": 4046,
      "##钕": 4047,
      "##刊": 4048,
      "##街": 4049,
      "##虎": 4050,
      "##窄": 4051,
      "##悔": 4052,
      "##蔑": 4053,
      "##匀": 4054,
      "##姓": 4055,
      "##刷": 4056,
      "##寸": 4057,
      "##患": 4058,
      "##拔": 4059,
      "##永": 4060,
      "##栏": 4061,
      "##娩": 4062,
      "##幸": 4063,
      "##妒": 4064,
      "##诚": 4065,
      "##摩": 4066,
      "##潮": 4067,
      "##荧": 4068,
      "##贸": 4069,
      "##暖": 4070,
      "##踏": 4071,
      "##逃": 4072,
      "##饥": 4073,
      "##饿": 4074,
      "##振": 4075,
      "##腾": 4076,
      "##崛": 4077,
      "##酷": 4078,
      "##吧": 4079,
      "##餐": 4080,
      "##季": 4081,
      "##灌": 4082,
      "##粗": 4083,
      "##糙": 4084,
      "##怎": 4085,
      "##债": 4086,
      "##幼": 4087,
      "##耽": 4088,
      "##圆": 4089,
      "##弹": 4090,
      "##冬": 4091,
      "##萄": 4092,
      "##拯": 4093,
      "##磋": 4094,
      "##罩": 4095,
      "##盈": 4096,
      "##亟": 4097,
      "##友": 4098,
      "##纤": 4099,
      "##陀": 4100,
      "##螺": 4101,
      "##湾": 4102,
      "##褐": 4103,
      "##虾": 4104,
      "##徙": 4105,
      "##朵": 4106,
      "##５": 4107,
      "##汉": 4108,
      "##掠": 4109,
      "##酝": 4110,
      "##酿": 4111,
      "##诞": 4112,
      "##税": 4113,
      "##顶": 4114,
      "##神": 4115,
      "##矛": 4116,
      "##盾": 4117,
      "##堪": 4118,
      "##淡": 4119,
      "##衰": 4120,
      "##觉": 4121,
      "##伏": 4122,
      "##暂": 4123,
      "##赁": 4124,
      "##藏": 4125,
      "##荐": 4126,
      "##舶": 4127,
      "##熟": 4128,
      "##右": 4129,
      "##彗": 4130,
      "##藉": 4131,
      "##奋": 4132,
      "##勃": 4133,
      "##旬": 4134,
      "##谴": 4135,
      "##菱": 4136,
      "##株": 4137,
      "##凭": 4138,
      "##亭": 4139,
      "##谁": 4140,
      "##渠": 4141,
      "##烟": 4142,
      "##翼": 4143,
      "##伸": 4144,
      "##怕": 4145,
      "##杜": 4146,
      "##你": 4147,
      "##狩": 4148,
      "##猎": 4149,
      "##妻": 4150,
      "##篡": 4151,
      "##揍": 4152,
      "##秋": 4153,
      "##昴": 4154,
      "##瘤": 4155,
      "##蚜": 4156,
      "##珍": 4157,
      "##竟": 4158,
      "##翔": 4159,
      "##肼": 4160,
      "##颠": 4161,
      "##爱": 4162,
      "##胚": 4163,
      "##澳": 4164,
      "##跳": 4165,
      "##盒": 4166,
      "##豁": 4167,
      "##慧": 4168,
      "##扣": 4169,
      "##牧": 4170,
      "##扮": 4171,
      "##驳": 4172,
      "##涝": 4173,
      "##凡": 4174,
      "##荡": 4175,
      "##剩": 4176,
      "##曳": 4177,
      "##坑": 4178,
      "##盛": 4179,
      "##泄": 4180,
      "##醉": 4181,
      "##懂": 4182,
      "##川": 4183,
      "##赢": 4184,
      "##藤": 4185,
      "##拓": 4186,
      "##谅": 4187,
      "##忘": 4188,
      "##旁": 4189,
      "##碳": 4190,
      "##厚": 4191,
      "##碘": 4192,
      "##葡": 4193,
      "##唆": 4194,
      "##巩": 4195,
      "##叉": 4196,
      "##贬": 4197,
      "##莱": 4198,
      "##颖": 4199,
      "##贤": 4200,
      "##猜": 4201,
      "##肉": 4202,
      "##挤": 4203,
      "##赚": 4204,
      "##仲": 4205,
      "##泊": 4206,
      "##夏": 4207,
      "##码": 4208,
      "##繁": 4209,
      "##枝": 4210,
      "##蔓": 4211,
      "##偷": 4212,
      "##窃": 4213,
      "##思": 4214,
      "##岗": 4215,
      "##铋": 4216,
      "##锡": 4217,
      "##跃": 4218,
      "##诫": 4219,
      "##倒": 4220,
      "##摧": 4221,
      "##拼": 4222,
      "##树": 4223,
      "##鄙": 4224,
      "##舰": 4225,
      "##芬": 4226,
      "##俘": 4227,
      "##润": 4228,
      "##坐": 4229,
      "##韩": 4230,
      "##凝": 4231,
      "##硅": 4232,
      "##哺": 4233,
      "##疆": 4234,
      "##扁": 4235,
      "##皂": 4236,
      "##挡": 4237,
      "##页": 4238,
      "##滴": 4239,
      "##冤": 4240,
      "##蜂": 4241,
      "##窝": 4242,
      "##湖": 4243,
      "##滩": 4244,
      "##湮": 4245,
      "##坎": 4246,
      "##招": 4247,
      "##肥": 4248,
      "##枪": 4249,
      "##陶": 4250,
      "##宛": 4251,
      "##炉": 4252,
      "##蝗": 4253,
      "##＝": 4254,
      "##劫": 4255,
      "##绑": 4256,
      "##憎": 4257,
      "##帝": 4258,
      "##涸": 4259,
      "##缆": 4260,
      "##怪": 4261,
      "##湿": 4262,
      "##左": 4263,
      "##缴": 4264,
      "##椭": 4265,
      "##氏": 4266,
      "##抬": 4267,
      "##蓬": 4268,
      "##栖": 4269,
      "##Q": 4270,
      "##沼": 4271,
      "##枯": 4272,
      "##竭": 4273,
      "##棱": 4274,
      "##缅": 4275,
      "##溶": 4276,
      "##慎": 4277,
      "##咖": 4278,
      "##啡": 4279,
      "##霜": 4280,
      "##亦": 4281,
      "##橡": 4282,
      "##岭": 4283,
      "##践": 4284,
      "##淹": 4285,
      "##逗": 4286,
      "##挂": 4287,
      "##堵": 4288,
      "##屏": 4289,
      "##蔽": 4290,
      "##墙": 4291,
      "##湍": 4292,
      "##忧": 4293,
      "##尾": 4294,
      "##喀": 4295,
      "##氟": 4296,
      "##烃": 4297,
      "##雅": 4298,
      "##斥": 4299,
      "##姿": 4300,
      "##筑": 4301,
      "##肃": 4302,
      "##j": 4303,
      "##姐": 4304,
      "##妹": 4305,
      "##帐": 4306,
      "##夕": 4307,
      "##焦": 4308,
      "##紊": 4309,
      "##拦": 4310,
      "##桥": 4311,
      "##纺": 4312,
      "##渴": 4313,
      "##牌": 4314,
      "##旗": 4315,
      "##帜": 4316,
      "##欣": 4317,
      "##糊": 4318,
      "##膜": 4319,
      "##伺": 4320,
      "##咳": 4321,
      "##镍": 4322,
      "##喜": 4323,
      "##烁": 4324,
      "##铲": 4325,
      "##俯": 4326,
      "##烦": 4327,
      "##恼": 4328,
      "##股": 4329,
      "##瓣": 4330,
      "##罕": 4331,
      "##苦": 4332,
      "##蒙": 4333,
      "##歇": 4334,
      "##龙": 4335,
      "##弘": 4336,
      "##梁": 4337,
      "##启": 4338,
      "##窗": 4339,
      "##摆": 4340,
      "##荣": 4341,
      "##茬": 4342,
      "##甘": 4343,
      "##蔗": 4344,
      "##擎": 4345,
      "##奔": 4346,
      "##栅": 4347,
      "##碱": 4348,
      "##沉": 4349,
      "##帧": 4350,
      "##惠": 4351,
      "##彰": 4352,
      "##魁": 4353,
      "##丝": 4354,
      "##敬": 4355,
      "##咀": 4356,
      "##孟": 4357,
      "##襄": 4358,
      "##℃": 4359,
      "##脚": 4360,
      "##匈": 4361,
      "##孤": 4362,
      "##辑": 4363,
      "##帽": 4364,
      "##礁": 4365,
      "##贝": 4366,
      "##捆": 4367,
      "##愤": 4368,
      "##慨": 4369,
      "##螈": 4370,
      "##帖": 4371,
      "##堕": 4372,
      "##肢": 4373,
      "##慰": 4374,
      "##刺": 4375,
      "##梯": 4376,
      "##咎": 4377,
      "##涨": 4378,
      "##岩": 4379,
      "##肌": 4380,
      "##剖": 4381,
      "##驰": 4382,
      "##罢": 4383,
      "##扑": 4384,
      "##囚": 4385,
      "##魏": 4386,
      "##惰": 4387,
      "##饶": 4388,
      "##恕": 4389,
      "##郁": 4390,
      "##矮": 4391,
      "##勾": 4392,
      "##催": 4393,
      "##伍": 4394,
      "##僚": 4395,
      "##穹": 4396,
      "##辜": 4397,
      "##豆": 4398,
      "##癌": 4399,
      "##腺": 4400,
      "##诊": 4401,
      "##跑": 4402,
      "##稼": 4403,
      "##垫": 4404,
      "##剑": 4405,
      "##痹": 4406,
      "##喉": 4407,
      "##啤": 4408,
      "##瓶": 4409,
      "##亥": 4410,
      "##粉": 4411,
      "##睹": 4412,
      "##磨": 4413,
      "##沫": 4414,
      "##阴": 4415,
      "##茎": 4416,
      "##笼": 4417,
      "##厉": 4418,
      "##飘": 4419,
      "##贪": 4420,
      "##雾": 4421,
      "##郊": 4422,
      "##埔": 4423,
      "##寨": 4424,
      "##摇": 4425,
      "##吊": 4426,
      "##杆": 4427,
      "##卸": 4428,
      "##阁": 4429,
      "##弊": 4430,
      "##渗": 4431,
      "##赠": 4432,
      "##诱": 4433,
      "##鞋": 4434,
      "##涌": 4435,
      "##暹": 4436,
      "##碇": 4437,
      "##胶": 4438,
      "##阅": 4439,
      "##戒": 4440,
      "##牢": 4441,
      "##梭": 4442,
      "##羽": 4443,
      "##凄": 4444,
      "##杰": 4445,
      "##鬼": 4446,
      "##颂": 4447,
      "##氛": 4448,
      "##驾": 4449,
      "##驶": 4450,
      "##泥": 4451,
      "##宾": 4452,
      "##顷": 4453,
      "##拜": 4454,
      "##谨": 4455,
      "##咬": 4456,
      "##蚊": 4457,
      "##叮": 4458,
      "##拢": 4459,
      "##浓": 4460,
      "##虚": 4461,
      "##纽": 4462,
      "##裨": 4463,
      "##簿": 4464,
      "##戚": 4465,
      "##朋": 4466,
      "##镶": 4467,
      "##嵌": 4468,
      "##寒": 4469,
      "##黄": 4470,
      "##挣": 4471,
      "##嘴": 4472,
      "##唇": 4473,
      "##掘": 4474,
      "##煤": 4475,
      "##凸": 4476,
      "##啮": 4477,
      "##齿": 4478,
      "##纷": 4479,
      "##斓": 4480,
      "##匹": 4481,
      "##筛": 4482,
      "##馈": 4483,
      "##榴": 4484,
      "##净": 4485,
      "##鲜": 4486,
      "##厨": 4487,
      "##仓": 4488,
      "##榜": 4489,
      "##猥": 4490,
      "##铺": 4491,
      "##烛": 4492,
      "##搁": 4493,
      "##啸": 4494,
      "##卓": 4495,
      "##佩": 4496,
      "##侯": 4497,
      "##币": 4498,
      "##熔": 4499,
      "##欲": 4500,
      "##亩": 4501,
      "##毗": 4502,
      "##镀": 4503,
      "##乙": 4504,
      "##烯": 4505,
      "##帆": 4506,
      "##尝": 4507,
      "##惑": 4508,
      "##戮": 4509,
      "##q": 4510,
      "##宋": 4511,
      "##涵": 4512,
      "##臣": 4513,
      "##晤": 4514,
      "##冠": 4515,
      "##㈣": 4516,
      "##＋": 4517,
      "##铢": 4518,
      "##寓": 4519,
      "##糟": 4520,
      "##糕": 4521,
      "##瞄": 4522,
      "##揽": 4523,
      "##陈": 4524,
      "##讶": 4525,
      "##悟": 4526,
      "##吮": 4527,
      "##汁": 4528,
      "##幽": 4529,
      "##祥": 4530,
      "##哀": 4531,
      "##眉": 4532,
      "##睫": 4533,
      "##糖": 4534,
      "##扼": 4535,
      "##汗": 4536,
      "##湄": 4537,
      "##锯": 4538,
      "##绞": 4539,
      "##塑": 4540,
      "##柯": 4541,
      "##奢": 4542,
      "##侈": 4543,
      "##汞": 4544,
      "##镉": 4545,
      "##碲": 4546,
      "##翁": 4547,
      "##凉": 4548,
      "##爽": 4549,
      "##垦": 4550,
      "##脊": 4551,
      "##椅": 4552,
      "##酗": 4553,
      "##藐": 4554,
      "##嘲": 4555,
      "##肺": 4556,
      "##菜": 4557,
      "##伪": 4558,
      "##晋": 4559,
      "##砷": 4560,
      "##镓": 4561,
      "##徽": 4562,
      "##棉": 4563,
      "##漆": 4564,
      "##玛": 4565,
      "##柬": 4566,
      "##脆": 4567,
      "##铂": 4568,
      "##迸": 4569,
      "##骗": 4570,
      "##椐": 4571,
      "##忏": 4572,
      "##棒": 4573,
      "##谊": 4574,
      "##罐": 4575,
      "##祸": 4576,
      "##衍": 4577,
      "##钻": 4578,
      "##雄": 4579,
      "##缝": 4580,
      "##纫": 4581,
      "##膨": 4582,
      "##胀": 4583,
      "##钛": 4584,
      "##嚣": 4585,
      "##朝": 4586,
      "##牵": 4587,
      "##灯": 4588,
      "##忙": 4589,
      "##莎": 4590,
      "##焊": 4591,
      "##删": 4592,
      "##钉": 4593,
      "##岖": 4594,
      "##潘": 4595,
      "##椎": 4596,
      "##衷": 4597,
      "##淆": 4598,
      "##２": 4599,
      "##盆": 4600,
      "##挫": 4601,
      "##叶": 4602,
      "##漂": 4603,
      "##舌": 4604,
      "##怨": 4605,
      "##拆": 4606,
      "##壁": 4607,
      "##庞": 4608,
      "##琼": 4609,
      "##髓": 4610,
      "##番": 4611,
      "##峻": 4612,
      "##贺": 4613,
      "##菌": 4614,
      "##串": 4615,
      "##焚": 4616,
      "##豌": 4617,
      "##锂": 4618,
      "##廓": 4619,
      "##稻": 4620,
      "##夹": 4621,
      "##钝": 4622,
      "##柱": 4623,
      "##媲": 4624,
      "##竣": 4625,
      "##涅": 4626,
      "##狄": 4627,
      "##莽": 4628,
      "##矣": 4629,
      "##愈": 4630,
      "##董": 4631,
      "##仁": 4632,
      "##仙": 4633,
      "##徵": 4634,
      "##畴": 4635,
      "##衅": 4636,
      "##膳": 4637,
      "##峡": 4638,
      "##谲": 4639,
      "##诡": 4640,
      "##舍": 4641,
      "##汲": 4642,
      "##锋": 4643,
      "##锻": 4644,
      "##炼": 4645,
      "##99": 4646,
      "##员会": 4647,
      "##卫星": 4648,
      "##空间": 4649,
      "##报告": 4650,
      "199": 4651,
      "##国家": 4652,
      "##199": 4653,
      "##进行": 4654,
      "##研究": 4655,
      "##系统": 4656,
      "##委员会": 4657,
      "##提供": 4658,
      "##技术": 4659,
      "##数据": 4660,
      "##方案": 4661,
      "##活动": 4662,
      "##妇女": 4663,
      "19": 4664,
      "委员会": 4665,
      "##组织": 4666,
      "##一个": 4667,
      "##方面": 4668,
      "##发展": 4669,
      "##工作": 4670,
      "##国际": 4671,
      "##航天": 4672,
      "##年1": 4673,
      "##政府": 4674,
      "##问题": 4675,
      "##会议": 4676,
      "##有关": 4677,
      "##机构": 4678,
      "##情况": 4679,
      "##项目": 4680,
      "##中心": 4681,
      "##月1": 4682,
      "##以及": 4683,
      "##种族": 4684,
      "##联合": 4685,
      "##地区": 4686,
      "##利用": 4687,
      "公约": 4688,
      "##其他": 4689,
      "##合作": 4690,
      "##科学": 4691,
      "##5年": 4692,
      "##次报告": 4693,
      "##通过": 4694,
      "##应用": 4695,
      "##发射": 4696,
      "##教育": 4697,
      "##资料": 4698,
      "##遥感": 4699,
      "##地球": 4700,
      "##成员": 4701,
      "##19": 4702,
      "##使用": 4703,
      "##约国": 4704,
      "##关于": 4705,
      "##观测": 4706,
      "##4年": 4707,
      "##00": 4708,
      "##通信": 4709,
      "198": 4710,
      "##建议": 4711,
      "##飞行": 4712,
      "##信息": 4713,
      "##轨道": 4714,
      "##歧视": 4715,
      "##计划": 4716,
      "##服务": 4717,
      "##代表": 4718,
      "##月2": 4719,
      "##环境": 4720,
      "##执行": 4721,
      "##这些": 4722,
      "##人权": 4723,
      "##包括": 4724,
      "##提出": 4725,
      "##3年": 4726,
      "##社会": 4727,
      "##要求": 4728,
      "##人员": 4729,
      "##规定": 4730,
      "##缔约国": 4731,
      "##的一": 4732,
      "##培训": 4733,
      "##联合国": 4734,
      "关于": 4735,
      "##主要": 4736,
      "##这一": 4737,
      "##领域": 4738,
      "##区域": 4739,
      "##注意": 4740,
      "##人口": 4741,
      "##管理": 4742,
      "##开发": 4743,
      "##经济": 4744,
      "##参加": 4745,
      "##采取": 4746,
      "##资源": 4747,
      "##可能": 4748,
      "##法律": 4749,
      "##权利": 4750,
      "##影响": 4751,
      "##2年": 4752,
      "##碎片": 4753,
      "这些": 4754,
      "##于199": 4755,
      "##重要": 4756,
      "##部分": 4757,
      "##雷达": 4758,
      "##行动": 4759,
      "##根据": 4760,
      "##方面的": 4761,
      "##1年": 4762,
      "##所有": 4763,
      "##种族歧视": 4764,
      "##监测": 4765,
      "##需要": 4766,
      "##能力": 4767,
      "##灾害": 4768,
      "##指出": 4769,
      "##措施": 4770,
      "##航天局": 4771,
      "##198": 4772,
      "##0年": 4773,
      "##的是": 4774,
      "##中的": 4775,
      "##建立": 4776,
      "##获得": 4777,
      "##继续": 4778,
      "##一些": 4779,
      "##SA": 4780,
      "包括": 4781,
      "##6年": 4782,
      "##任务": 4783,
      "##促进": 4784,
      "##设施": 4785,
      "##主义": 4786,
      "##火箭": 4787,
      "##10": 4788,
      "197": 4789,
      "##确定": 4790,
      "##空局": 4791,
      "##全球": 4792,
      "##5日": 4793,
      "##正在": 4794,
      "特别": 4795,
      "##实验": 4796,
      "##参与": 4797,
      "##保护": 4798,
      "根据": 4799,
      "##中国家": 4800,
      "##研究所": 4801,
      "##没有": 4802,
      "##各种": 4803,
      "##注意到": 4804,
      "##自然": 4805,
      "##一步": 4806,
      "##特别": 4807,
      "##欧洲": 4808,
      "1994年": 4809,
      "##提交": 4810,
      "##用于": 4811,
      "他们": 4812,
      "##土地": 4813,
      "##大学": 4814,
      "##全国": 4815,
      "##援助": 4816,
      "##得到": 4817,
      "##试验": 4818,
      "##测量": 4819,
      "##和国": 4820,
      "##开始": 4821,
      "以便": 4822,
      "##政策": 4823,
      "##部门": 4824,
      "##期间": 4825,
      "##ER": 4826,
      "##地面": 4827,
      "以及": 4828,
      "##的第": 4829,
      "##可以": 4830,
      "##尼亚": 4831,
      "##作为": 4832,
      "##的资料": 4833,
      "因此": 4834,
      "##罗斯": 4835,
      "##决定": 4836,
      "##进一步": 4837,
      "##发展中国家": 4838,
      "##事务": 4839,
      "##公司": 4840,
      "其中": 4841,
      "##有效": 4842,
      "##土著": 4843,
      "##美国": 4844,
      "##的妇女": 4845,
      "##基础": 4846,
      "##4日": 4847,
      "##1995年": 4848,
      "##层空间": 4849,
      "##认为": 4850,
      "##变化": 4851,
      "##该国": 4852,
      "##的情况": 4853,
      "##作用": 4854,
      "##表示": 4855,
      "##社区": 4856,
      "##宇宙": 4857,
      "##共和国": 4858,
      "##这种": 4859,
      "##作出": 4860,
      "1993年": 4861,
      "##发生": 4862,
      "##民族": 4863,
      "##空间技术": 4864,
      "10": 4865,
      "##行为": 4866,
      "##年12": 4867,
      "特别是": 4868,
      "国家": 4869,
      "##和平": 4870,
      "##之间": 4871,
      "##讨论": 4872,
      "##形式": 4873,
      "##任何": 4874,
      "这一": 4875,
      "##的报告": 4876,
      "##的工作": 4877,
      "委员会成员": 4878,
      "##地理": 4879,
      "##机会": 4880,
      "##范围": 4881,
      "1995年": 4882,
      "##6日": 4883,
      "##处理": 4884,
      "##信息系统": 4885,
      "联合": 4886,
      "##分析": 4887,
      "会议": 4888,
      "妇女": 4889,
      "##气象": 4890,
      "##增加": 4891,
      "##有关的": 4892,
      "##定期": 4893,
      "第十": 4894,
      "##的数据": 4895,
      "##了解": 4896,
      "##数字": 4897,
      "##暴力": 4898,
      "##努力": 4899,
      "##他们": 4900,
      "##程序": 4901,
      "##是否": 4902,
      "##届会议": 4903,
      "##调查": 4904,
      "##法令": 4905,
      "##考虑": 4906,
      "联合国": 4907,
      "##的人": 4908,
      "##不同": 4909,
      "##支持": 4910,
      "##状况": 4911,
      "##习班": 4912,
      "##7日": 4913,
      "##开展": 4914,
      "##时间": 4915,
      "##协调": 4916,
      "##欧空局": 4917,
      "##外层空间": 4918,
      "##an": 4919,
      "##产生": 4920,
      "##SAT": 4921,
      "##十年": 4922,
      "##图象": 4923,
      "##秘鲁": 4924,
      "##和技术": 4925,
      "##保健": 4926,
      "##公里": 4927,
      "##7年": 4928,
      "##减少": 4929,
      "##的国家": 4930,
      "##解决": 4931,
      "##培训班": 4932,
      "空间": 4933,
      "##目前": 4934,
      "##实际": 4935,
      "##两个": 4936,
      "##共同": 4937,
      "##新的": 4938,
      "##大气": 4939,
      "##具有": 4940,
      "##年10": 4941,
      "##一次": 4942,
      "##立法": 4943,
      "##上的": 4944,
      "##航天器": 4945,
      "因为": 4946,
      "##受到": 4947,
      "##目标": 4948,
      "##设备": 4949,
      "##11": 4950,
      "##的一个": 4951,
      "##少数": 4952,
      "##组成": 4953,
      "##8日": 4954,
      "##实施": 4955,
      "##50": 4956,
      "##审议": 4957,
      "##0日": 4958,
      "##各项": 4959,
      "##拿大": 4960,
      "由于": 4961,
      "通过": 4962,
      "##的问题": 4963,
      "##已经": 4964,
      "##年1月": 4965,
      "##一项": 4966,
      "##基本": 4967,
      "##空间活动": 4968,
      "##4条": 4969,
      "##系列": 4970,
      "##控制": 4971,
      "但是": 4972,
      "##太阳": 4973,
      "例如": 4974,
      "##意见": 4975,
      "##及其": 4976,
      "##方法": 4977,
      "##非洲": 4978,
      "##设计": 4979,
      "秘鲁": 4980,
      "##许多": 4981,
      "##事会": 4982,
      "##日本": 4983,
      "##进行了": 4984,
      "##飞行任务": 4985,
      "##确保": 4986,
      "##1994年": 4987,
      "##进行的": 4988,
      "##支助": 4989,
      "##设立": 4990,
      "##某些": 4991,
      "##是在": 4992,
      "##大的": 4993,
      "##司法": 4994,
      "##次会议": 4995,
      "000": 4996,
      "国际": 4997,
      "##提高": 4998,
      "##月3": 4999,
      "##文件": 5000,
      "##1日": 5001,
      "##造成": 5002,
      "##负责": 5003,
      "##定期报告": 5004,
      "日本": 5005,
      "##俄罗斯": 5006,
      "##政治": 5007,
      "##法院": 5008,
      "##当局": 5009,
      "##介绍": 5010,
      "这种": 5011,
      "##能够": 5012,
      "##9年": 5013,
      "##必要": 5014,
      "##高级": 5015,
      "美国": 5016,
      "##制定": 5017,
      "##利亚": 5018,
      "##目的": 5019,
      "##1993年": 5020,
      "##的活动": 5021,
      "##条件": 5022,
      "##ar": 5023,
      "##四十": 5024,
      "##加强": 5025,
      "##人民": 5026,
      "##充分": 5027,
      "##世界": 5028,
      "##天文": 5029,
      "##存在": 5030,
      "##家庭": 5031,
      "##举办": 5032,
      "##20": 5033,
      "##专家": 5034,
      "##宪法": 5035,
      "##仪器": 5036,
      "##飞机": 5037,
      "##现象": 5038,
      "##研制": 5039,
      "##理事会": 5040,
      "##型卫星": 5041,
      "##表明": 5042,
      "##联邦": 5043,
      "##物体": 5044,
      "##涉及": 5045,
      "##的主要": 5046,
      "##在其": 5047,
      "##审查": 5048,
      "##装置": 5049,
      "##地位": 5050,
      "##第1": 5051,
      "##一种": 5052,
      "##8年": 5053,
      "##9日": 5054,
      "##工业": 5055,
      "##具体": 5056,
      "##结果": 5057,
      "1994": 5058,
      "##的权利": 5059,
      "##的影响": 5060,
      "##3月1": 5061,
      "##成功": 5062,
      "##以来": 5063,
      "##方式": 5064,
      "##毛利": 5065,
      "##航空": 5066,
      "##总体": 5067,
      "1992年": 5068,
      "15": 5069,
      "##秘书": 5070,
      "##小组": 5071,
      "##举行": 5072,
      "##持续": 5073,
      "##讲习班": 5074,
      "##地理信息系统": 5075,
      "14": 5076,
      "卫星": 5077,
      "宪法": 5078,
      "##的研究": 5079,
      "##强调": 5080,
      "##关系": 5081,
      "##完成": 5082,
      "##电信": 5083,
      "##er": 5084,
      "##严重": 5085,
      "##阶段": 5086,
      "##城市": 5087,
      "第1": 5088,
      "这是": 5089,
      "##生产": 5090,
      "##对于": 5091,
      "##必须": 5092,
      "##法庭": 5093,
      "##取得": 5094,
      "##辐射": 5095,
      "##直接": 5096,
      "##卫星数据": 5097,
      "欧洲": 5098,
      "##关切": 5099,
      "196": 5100,
      "##年11": 5101,
      "##中心的": 5102,
      "##地球观测": 5103,
      "##少数民族": 5104,
      "##和其他": 5105,
      "##生活": 5106,
      "##网络": 5107,
      "##农村": 5108,
      "##费用": 5109,
      "##参加者": 5110,
      "而且": 5111,
      "##碰撞": 5112,
      "##接受": 5113,
      "##公约": 5114,
      "##海洋": 5115,
      "##提供的": 5116,
      "##方案的": 5117,
      "##人的": 5118,
      "##接收": 5119,
      "##说明": 5120,
      "##系统的": 5121,
      "##提出的": 5122,
      "##用户": 5123,
      "##流动": 5124,
      "##决议": 5125,
      "##文化": 5126,
      "##物理": 5127,
      "##结构": 5128,
      "##空间碎片": 5129,
      "##总体计划": 5130,
      "##成为": 5131,
      "##RS": 5132,
      "##安全": 5133,
      "##覆盖": 5134,
      "13": 5135,
      "缔约国": 5136,
      "##过程": 5137,
      "##第四十": 5138,
      "##一份": 5139,
      "##财政": 5140,
      "##计算": 5141,
      "##群体": 5142,
      "##规划": 5143,
      "##评估": 5144,
      "##委员会的": 5145,
      "##利用外层空间": 5146,
      "17": 5147,
      "目前": 5148,
      "第2": 5149,
      "##程度": 5150,
      "##大利": 5151,
      "##改进": 5152,
      "##国的": 5153,
      "##收到": 5154,
      "##观察": 5155,
      "##材料": 5156,
      "##目的是": 5157,
      "##决策": 5158,
      "##西哥": 5159,
      "##今后": 5160,
      "##活动的": 5161,
      "12": 5162,
      "参加": 5163,
      "研究": 5164,
      "##个人": 5165,
      "##更多": 5166,
      "##图像": 5167,
      "##辨率": 5168,
      "##提供了": 5169,
      "##ERD": 5170,
      "##毛利族": 5171,
      "##运载": 5172,
      "##和国际": 5173,
      "##助于": 5174,
      "##这方面": 5175,
      "##出现": 5176,
      "##拥有": 5177,
      "##之后": 5178,
      "##静止": 5179,
      "##事项": 5180,
      "##标准": 5181,
      "##IN": 5182,
      "##该缔约国": 5183,
      "18": 5184,
      "20": 5185,
      "##的最": 5186,
      "##收集": 5187,
      "11": 5188,
      "为了": 5189,
      "##长期": 5190,
      "##应当": 5191,
      "##当地": 5192,
      "##OS": 5193,
      "##侵犯": 5194,
      "##卫星通信": 5195,
      "##采取的": 5196,
      "##自然灾害": 5197,
      "##一切": 5198,
      "##如何": 5199,
      "16": 5200,
      "另外": 5201,
      "如果": 5202,
      "##的大": 5203,
      "##水平": 5204,
      "##来自": 5205,
      "##条款": 5206,
      "##人数": 5207,
      "##改善": 5208,
      "##农业": 5209,
      "##选举": 5210,
      "委员会建议": 5211,
      "作为": 5212,
      "##自己": 5213,
      "##解释": 5214,
      "##AR": 5215,
      "##质量": 5216,
      "##模型": 5217,
      "##行政": 5218,
      "##的国际": 5219,
      "##地方": 5220,
      "##平洋": 5221,
      "##加拿大": 5222,
      "##条约": 5223,
      "##承认": 5224,
      "##操作": 5225,
      "##科学和技术": 5226,
      "##范围内": 5227,
      "21": 5228,
      "地球": 5229,
      "消除": 5230,
      "##以下": 5231,
      "##最近": 5232,
      "##就业": 5233,
      "##详细": 5234,
      "##紧急": 5235,
      "1991年": 5236,
      "##国家的": 5237,
      "##数据库": 5238,
      "##政府组织": 5239,
      "##地区的": 5240,
      "##自然资源": 5241,
      "##事务厅": 5242,
      "尽管": 5243,
      "##地点": 5244,
      "##现有": 5245,
      "##8月1": 5246,
      "##分辨率": 5247,
      "##距离": 5248,
      "##联系": 5249,
      "##文者": 5250,
      "##办法": 5251,
      "##团体": 5252,
      "##欢迎": 5253,
      "##儿童": 5254,
      "##实验室": 5255,
      "##自由": 5256,
      "##8月": 5257,
      "##成象": 5258,
      "##批准": 5259,
      "##科学家": 5260,
      "##有助于": 5261,
      "##员们": 5262,
      "##上述": 5263,
      "##国内": 5264,
      "##境内": 5265,
      "##学和": 5266,
      "##远镜": 5267,
      "##下列": 5268,
      "##扩大": 5269,
      "##IS": 5270,
      "##专业": 5271,
      "##太平洋": 5272,
      "##传播": 5273,
      "##从事": 5274,
      "II": 5275,
      "环境": 5276,
      "##的卫星": 5277,
      "##性别": 5278,
      "##美洲": 5279,
      "##进入": 5280,
      "##2日": 5281,
      "##评价": 5282,
      "##警察": 5283,
      "##记录": 5284,
      "##综合": 5285,
      "46": 5286,
      "培训": 5287,
      "政府": 5288,
      "该代表": 5289,
      "##多数": 5290,
      "##统计": 5291,
      "##气候": 5292,
      "##因素": 5293,
      "##dd": 5294,
      "##原因": 5295,
      "##居民": 5296,
      "##望远镜": 5297,
      "##妇女的": 5298,
      "##运载火箭": 5299,
      "23": 5300,
      "使用": 5301,
      "##表面": 5302,
      "##载荷": 5303,
      "##发现": 5304,
      "##一直": 5305,
      "##二次报告": 5306,
      "##来的": 5307,
      "##最高": 5308,
      "##空间站": 5309,
      "##机构的": 5310,
      "##197": 5311,
      "##年12月": 5312,
      "从而": 5313,
      "在这方面": 5314,
      "##的规定": 5315,
      "##由于": 5316,
      "##or": 5317,
      "##受害": 5318,
      "##失所": 5319,
      "##领土": 5320,
      "##at": 5321,
      "##号法令": 5322,
      "##母亲": 5323,
      "##增长": 5324,
      "##三个": 5325,
      "##希望": 5326,
      "##广播": 5327,
      "##跟踪": 5328,
      "##怖主义": 5329,
      "##空间应用": 5330,
      "美国航天局": 5331,
      "##了一个": 5332,
      "##性的": 5333,
      "##提到": 5334,
      "##学校": 5335,
      "##之一": 5336,
      "##高度": 5337,
      "##25": 5338,
      "##认识": 5339,
      "##探测": 5340,
      "##责任": 5341,
      "##适当": 5342,
      "26": 5343,
      "教育": 5344,
      "##的各项": 5345,
      "##利马": 5346,
      "##离失所": 5347,
      "##非政府组织": 5348,
      "##药物": 5349,
      "##因为": 5350,
      "##死亡": 5351,
      "##种族主义": 5352,
      "##发射的": 5353,
      "Add": 5354,
      "此外": 5355,
      "##内容": 5356,
      "##族裔": 5357,
      "##制度": 5358,
      "##平等": 5359,
      "##来源": 5360,
      "##成立": 5361,
      "##收入": 5362,
      "##外空": 5363,
      "##事件": 5364,
      "##定的": 5365,
      "##15": 5366,
      "##商业": 5367,
      "##义务": 5368,
      "##若干": 5369,
      "##积极": 5370,
      "##卫星的": 5371,
      "1990年": 5372,
      "##的一部分": 5373,
      "挪威": 5374,
      "##年度": 5375,
      "##合同": 5376,
      "##达到": 5377,
      "##实现": 5378,
      "##12": 5379,
      "##次定期报告": 5380,
      "##5条": 5381,
      "##显示": 5382,
      "##观测台": 5383,
      "发展": 5384,
      "##斯拉": 5385,
      "##以上": 5386,
      "##国政府": 5387,
      "##案件": 5388,
      "##大会": 5389,
      "##完全": 5390,
      "##进展": 5391,
      "##公共": 5392,
      "##全面": 5393,
      "##咨询": 5394,
      "##居住": 5395,
      "##总统": 5396,
      "##组织的": 5397,
      "##航天飞机": 5398,
      "##问题的": 5399,
      "##该国政府": 5400,
      "##斯拉夫": 5401,
      "24": 5402,
      "成员们": 5403,
      "虽然": 5404,
      "进行": 5405,
      "##的机会": 5406,
      "##第二": 5407,
      "##第三": 5408,
      "##管制": 5409,
      "##满足": 5410,
      "##来说": 5411,
      "##成本": 5412,
      "##几个": 5413,
      "##大量": 5414,
      "##部长": 5415,
      "##探索": 5416,
      "##普查": 5417,
      "##挪威": 5418,
      "##卫星组织": 5419,
      "##1991年": 5420,
      "##运行": 5421,
      "##的重要": 5422,
      "##发挥": 5423,
      "##国会": 5424,
      "##学家": 5425,
      "##战略": 5426,
      "##规模": 5427,
      "##针对": 5428,
      "##之间的": 5429,
      "##大气层": 5430,
      "##秘书长": 5431,
      "##利用外层空间委员会": 5432,
      "欧空局": 5433,
      "##运动": 5434,
      "##和社会": 5435,
      "##需求": 5436,
      "##的发展": 5437,
      "##一系列": 5438,
      "##会员": 5439,
      "##防止": 5440,
      "##兴趣": 5441,
      "##优先": 5442,
      "##先生": 5443,
      "##限制": 5444,
      "##纳入": 5445,
      "##项目的": 5446,
      "##有效载荷": 5447,
      "参加者": 5448,
      "促进": 5449,
      "法国": 5450,
      "##一颗": 5451,
      "##机制": 5452,
      "##生物": 5453,
      "##平均": 5454,
      "##3日": 5455,
      "##同时": 5456,
      "##马尼亚": 5457,
      "##缺乏": 5458,
      "##办公": 5459,
      "##手段": 5460,
      "##恐怖主义": 5461,
      "##通过的": 5462,
      "##规定的": 5463,
      "##年10月": 5464,
      "第4条": 5465,
      "##知识": 5466,
      "##地注意到": 5467,
      "##30": 5468,
      "##3月": 5469,
      "##对话": 5470,
      "##保证": 5471,
      "##权力": 5472,
      "##补充": 5473,
      "##导致": 5474,
      "##比率": 5475,
      "##联盟": 5476,
      "##经验": 5477,
      "##事业": 5478,
      "##流离失所": 5479,
      "##天线": 5480,
      "##射线": 5481,
      "##正式": 5482,
      "##她们": 5483,
      "##el": 5484,
      "##男子": 5485,
      "##仍然": 5486,
      "##的一项": 5487,
      "##于1996年": 5488,
      "28": 5489,
      "29": 5490,
      "22": 5491,
      "34": 5492,
      "##的能力": 5493,
      "##交流": 5494,
      "##60": 5495,
      "##6条": 5496,
      "##关注": 5497,
      "##产品": 5498,
      "##分别": 5499,
      "##下降": 5500,
      "##那些": 5501,
      "##法官": 5502,
      "##法典": 5503,
      "##电子": 5504,
      "##协议": 5505,
      "##号决议": 5506,
      "##答复": 5507,
      "##结论": 5508,
      "##广泛": 5509,
      "##恢复": 5510,
      "##代表团": 5511,
      "##执行情况": 5512,
      "##地面站": 5513,
      "##持续发展": 5514,
      "她们": 5515,
      "##动机": 5516,
      "##所需": 5517,
      "##的技术": 5518,
      "##发表": 5519,
      "##现在": 5520,
      "##第2": 5521,
      "##一般": 5522,
      "##保持": 5523,
      "##不足": 5524,
      "##公民": 5525,
      "##重新": 5526,
      "##重大": 5527,
      "##特点": 5528,
      "##市场": 5529,
      "##寿命": 5530,
      "##精确": 5531,
      "1993": 5532,
      "##遥感卫星": 5533,
      "##遥感数据": 5534,
      "##人口的": 5535,
      "他们还": 5536,
      "##ERS": 5537,
      "培训班": 5538,
      "27": 5539,
      "49": 5540,
      "利用": 5541,
      "尤其": 5542,
      "##通常": 5543,
      "##运作": 5544,
      "##和教育": 5545,
      "##的所有": 5546,
      "##的作用": 5547,
      "##这类": 5548,
      "##享有": 5549,
      "##它们": 5550,
      "##部队": 5551,
      "##工程": 5552,
      "##日利亚": 5553,
      "##按照": 5554,
      "##al": 5555,
      "##构成": 5556,
      "##无线": 5557,
      "##原则": 5558,
      "##属于": 5559,
      "##协助": 5560,
      "##至少": 5561,
      "##估计": 5562,
      "##类似": 5563,
      "##墨西哥": 5564,
      "##微波": 5565,
      "##领域的": 5566,
      "##基础设施": 5567,
      "##造成的": 5568,
      "其他": 5569,
      "加拿大": 5570,
      "和平": 5571,
      "对于": 5572,
      "数据": 5573,
      "##和环境": 5574,
      "##的空间": 5575,
      "##有限": 5576,
      "##一次报告": 5577,
      "##是一个": 5578,
      "##子女": 5579,
      "##如下": 5580,
      "##比例": 5581,
      "##外国": 5582,
      "##2月": 5583,
      "##语言": 5584,
      "##难民": 5585,
      "##毒署": 5586,
      "##丽亚": 5587,
      "##森林": 5588,
      "##通过了": 5589,
      "##受害者": 5590,
      "##药物管制": 5591,
      "25": 5592,
      "一个": 5593,
      "同时": 5594,
      "它们": 5595,
      "提供": 5596,
      "有人": 5597,
      "##性和": 5598,
      "##on": 5599,
      "##加以": 5600,
      "##加拉": 5601,
      "##出席": 5602,
      "##光学": 5603,
      "##安装": 5604,
      "##13": 5605,
      "##冲突": 5606,
      "##各组织": 5607,
      "##领导": 5608,
      "##ri": 5609,
      "##专门": 5610,
      "##整个": 5611,
      "##传感": 5612,
      "##企业": 5613,
      "##选择": 5614,
      "##贡献": 5615,
      "##单位": 5616,
      "##犯罪": 5617,
      "##燃料": 5618,
      "##贫困": 5619,
      "##应用于": 5620,
      "##联合国系统": 5621,
      "其中包括": 5622,
      "##美国航天局": 5623,
      "##小组委员会": 5624,
      "##一切形式": 5625,
      "##丽亚娜": 5626,
      "47": 5627,
      "CERD": 5628,
      "这个": 5629,
      "遥感": 5630,
      "##动力": 5631,
      "##的要求": 5632,
      "##一级": 5633,
      "##独立": 5634,
      "##制订": 5635,
      "##以前": 5636,
      "##os": 5637,
      "##预测": 5638,
      "##年龄": 5639,
      "##人们": 5640,
      "##利益": 5641,
      "##不断": 5642,
      "##作了": 5643,
      "##安排": 5644,
      "##18": 5645,
      "##100": 5646,
      "##无法": 5647,
      "##协定": 5648,
      "##南斯拉夫": 5649,
      "##农组织": 5650,
      "##消除": 5651,
      "##危险": 5652,
      "##做法": 5653,
      "##爆炸": 5654,
      "##激光": 5655,
      "##1992年": 5656,
      "##1996年": 5657,
      "##情况下": 5658,
      "##传感器": 5659,
      "AC": 5660,
      "主要": 5661,
      "全球": 5662,
      "可以": 5663,
      "所有": 5664,
      "报告": 5665,
      "##和第": 5666,
      "##的其他": 5667,
      "##的合作": 5668,
      "##小型卫星": 5669,
      "##职务": 5670,
      "##会和": 5671,
      "##提请": 5672,
      "##投入": 5673,
      "##这个": 5674,
      "##9月": 5675,
      "##不可": 5676,
      "##电话": 5677,
      "##符合": 5678,
      "##5月1": 5679,
      "##重力": 5680,
      "##相互": 5681,
      "##尔瓦": 5682,
      "##困难": 5683,
      "##号卫星": 5684,
      "##担任": 5685,
      "##西兰": 5686,
      "##结束": 5687,
      "##宣布": 5688,
      "##迅速": 5689,
      "##教育和": 5690,
      "##的一些": 5691,
      "##宇宙开发": 5692,
      "##办公室": 5693,
      "##事业团": 5694,
      "37": 5695,
      "40": 5696,
      "讲习班": 5697,
      "##效益": 5698,
      "##第4": 5699,
      "##证明": 5700,
      "##机关": 5701,
      "##sat": 5702,
      "##投资": 5703,
      "##分配": 5704,
      "##丁美洲": 5705,
      "##之前": 5706,
      "##工具": 5707,
      "##遗憾": 5708,
      "##7条": 5709,
      "##询问": 5710,
      "##样的": 5711,
      "##改革": 5712,
      "##旺达": 5713,
      "##召开": 5714,
      "##七届会议": 5715,
      "##概念": 5716,
      "##提供关于": 5717,
      "##月21日": 5718,
      "##年1月5日": 5719,
      "##月30日": 5720,
      "##无线电": 5721,
      "##宇宙开发事业团": 5722,
      "30": 5723,
      "38": 5724,
      "一些": 5725,
      "##和地理信息系统": 5726,
      "##的新": 5727,
      "##意大利": 5728,
      "##制作": 5729,
      "##议程": 5730,
      "##6月": 5731,
      "##同意": 5732,
      "##财产": 5733,
      "##不是": 5734,
      "##时期": 5735,
      "##比亚": 5736,
      "##起来": 5737,
      "##诉讼": 5738,
      "##14": 5739,
      "##5月": 5740,
      "##主题": 5741,
      "##专题": 5742,
      "##再次": 5743,
      "##修正": 5744,
      "##印度": 5745,
      "##课程": 5746,
      "1995": 5747,
      "##1990年": 5748,
      "委员会还": 5749,
      "##工作组": 5750,
      "##年1月1": 5751,
      "##飞行器": 5752,
      "##侵犯人权": 5753,
      "##会员国": 5754,
      "##尔瓦多": 5755,
      "全国": 5756,
      "并且": 5757,
      "正在": 5758,
      "第八": 5759,
      "通信": 5760,
      "##的人口": 5761,
      "##的各种": 5762,
      "##发动机": 5763,
      "##职能": 5764,
      "##满意": 5765,
      "##供应": 5766,
      "##预防": 5767,
      "##感到": 5768,
      "##合成": 5769,
      "##明显": 5770,
      "##令人": 5771,
      "##16": 5772,
      "##ASA": 5773,
      "##业务": 5774,
      "##科技": 5775,
      "##反映": 5776,
      "##集团": 5777,
      "##里兰": 5778,
      "##编写": 5779,
      "##红外": 5780,
      "##声明": 5781,
      "##扫描": 5782,
      "##登记": 5783,
      "105": 5784,
      "##十年代": 5785,
      "##介绍了": 5786,
      "36": 5787,
      "44": 5788,
      "60": 5789,
      "第六": 5790,
      "##行星": 5791,
      "##的建议": 5792,
      "##中所": 5793,
      "##ol": 5794,
      "##4月": 5795,
      "##美元": 5796,
      "##非常": 5797,
      "##颗卫星": 5798,
      "##文盲": 5799,
      "##物质": 5800,
      "##将继续": 5801,
      "##重点": 5802,
      "##重视": 5803,
      "##违反": 5804,
      "##判决": 5805,
      "##植被": 5806,
      "##孔径": 5807,
      "##携带": 5808,
      "##国际合作": 5809,
      "##地球资源": 5810,
      "##轨道上": 5811,
      "第十次报告": 5812,
      "第十一次报告": 5813,
      "##暴力行为": 5814,
      "##and": 5815,
      "##加拉瓜": 5816,
      "33": 5817,
      "39": 5818,
      "42": 5819,
      "意大利": 5820,
      "气象": 5821,
      "第三": 5822,
      "第九": 5823,
      "第七": 5824,
      "计划": 5825,
      "##和经济": 5826,
      "##小型": 5827,
      "##委会": 5828,
      "##信号": 5829,
      "##资金": 5830,
      "##风险": 5831,
      "##将在": 5832,
      "##指控": 5833,
      "##en": 5834,
      "##相比": 5835,
      "##申诉": 5836,
      "##集中": 5837,
      "##航员": 5838,
      "##鼓励": 5839,
      "##引起": 5840,
      "##移动": 5841,
      "##帮助": 5842,
      "1990": 5843,
      "##国家和": 5844,
      "##1994": 5845,
      "##国际公约": 5846,
      "##科学研究所": 5847,
      "##提出了": 5848,
      "##可能性": 5849,
      "##气象卫星": 5850,
      "##地球观测卫星": 5851,
      "##自己的": 5852,
      "##一切形式种族歧视": 5853,
      "32": 5854,
      "48": 5855,
      "45": 5856,
      "司法": 5857,
      "撰文者": 5858,
      "最后": 5859,
      "##的信息": 5860,
      "##的代表": 5861,
      "##载有": 5862,
      "##一起": 5863,
      "##性能": 5864,
      "##制造": 5865,
      "##其它": 5866,
      "##成果": 5867,
      "##学生": 5868,
      "##出的": 5869,
      "##部件": 5870,
      "##罪行": 5871,
      "##各个": 5872,
      "##各自": 5873,
      "##专员": 5874,
      "##准备": 5875,
      "##传统": 5876,
      "##转移": 5877,
      "##密切": 5878,
      "##阿丽亚娜": 5879,
      "##报告的": 5880,
      "##地球静止": 5881,
      "##种族歧视委员会": 5882,
      "##的情况下": 5883,
      "第十二次报告": 5884,
      "##月3日": 5885,
      "第14条": 5886,
      "##计算机": 5887,
      "##里兰卡": 5888,
      "35": 5889,
      "43": 5890,
      "代表": 5891,
      "德国": 5892,
      "技术": 5893,
      "要求": 5894,
      "雷达": 5895,
      "##的方案": 5896,
      "##的政策": 5897,
      "##性质": 5898,
      "##基金": 5899,
      "##平台": 5900,
      "##为了": 5901,
      "##用来": 5902,
      "##预警": 5903,
      "##9条": 5904,
      "##分列": 5905,
      "##可靠": 5906,
      "##道主义": 5907,
      "##波段": 5908,
      "##进程": 5909,
      "##配偶": 5910,
      "##给予": 5911,
      "##7月": 5912,
      "##重于": 5913,
      "##TE": 5914,
      "##口头": 5915,
      "##特征": 5916,
      "##热带": 5917,
      "##移民": 5918,
      "##赔偿": 5919,
      "##趋势": 5920,
      "##研究和": 5921,
      "##航天中心": 5922,
      "##使用的": 5923,
      "##月24日": 5924,
      "##月28日": 5925,
      "##重要的": 5926,
      "##年12月1": 5927,
      "##3月17日": 5928,
      "##辐射计": 5929,
      "##解释说": 5930,
      "消除一切形式种族歧视": 5931,
      "方案": 5932,
      "粮农组织": 5933,
      "##和国家": 5934,
      "##的法律": 5935,
      "##的基础": 5936,
      "##地亚": 5937,
      "##地质": 5938,
      "##及时": 5939,
      "##少年": 5940,
      "##为2": 5941,
      "##附件": 5942,
      "##同步": 5943,
      "##来越": 5944,
      "##并不": 5945,
      "##道路": 5946,
      "##最后": 5947,
      "##米的": 5948,
      "##返回": 5949,
      "##经常": 5950,
      "##局势": 5951,
      "##公斤": 5952,
      "##设想": 5953,
      "##破坏": 5954,
      "##AS": 5955,
      "##DE": 5956,
      "##协会": 5957,
      "##至2": 5958,
      "##形成": 5959,
      "##反应": 5960,
      "##什么": 5961,
      "##男女": 5962,
      "##尚未": 5963,
      "1992": 5964,
      "1996年": 5965,
      "##组织和": 5966,
      "##服务的": 5967,
      "##于1995年": 5968,
      "##考虑到": 5969,
      "##必要的": 5970,
      "地球观测": 5971,
      "50": 5972,
      "SR": 5973,
      "人们": 5974,
      "印度": 5975,
      "必须": 5976,
      "第五": 5977,
      "##的项目": 5978,
      "##的结果": 5979,
      "##有可能": 5980,
      "##第10": 5981,
      "##一致": 5982,
      "##小时": 5983,
      "##立即": 5984,
      "##罗马尼亚": 5985,
      "##罗地亚": 5986,
      "##民主": 5987,
      "##是由": 5988,
      "##ov": 5989,
      "##亚洲": 5990,
      "##保障": 5991,
      "##健康": 5992,
      "##9年1月": 5993,
      "##之外": 5994,
      "##而言": 5995,
      "##高分辨率": 5996,
      "##定位": 5997,
      "##实行": 5998,
      "##都是": 5999,
      "##检察": 6000,
      "##各国": 6001,
      "##将其": 6002,
      "##CERD": 6003,
      "##as": 6004,
      "##更好": 6005,
      "##卢旺达": 6006,
      "##向委员会": 6007,
      "##传送": 6008,
      "##软件": 6009,
      "##滋病": 6010,
      "##卫星系统": 6011,
      "##空间科学": 6012,
      "##1995": 6013,
      "##技术和": 6014,
      "##发射装置": 6015,
      "##月26日": 6016,
      "##月20日": 6017,
      "##月22日": 6018,
      "##和平号": 6019,
      "##不同的": 6020,
      "第八次报告": 6021,
      "第六次报告": 6022,
      "##孔径雷达": 6023,
      "消除一切形式种族歧视国际公约": 6024,
      "为此": 6025,
      "发射": 6026,
      "第二": 6027,
      "第4": 6028,
      "经济": 6029,
      "##的任何": 6030,
      "##的时间": 6031,
      "##斯尼亚": 6032,
      "##基勒": 6033,
      "##本国": 6034,
      "##生育": 6035,
      "##人和": 6036,
      "##人道主义": 6037,
      "##补救": 6038,
      "##法国": 6039,
      "##处于": 6040,
      "##17": 6041,
      "##1号": 6042,
      "##AL": 6043,
      "##威胁": 6044,
      "##et": 6045,
      "##in": 6046,
      "##核准": 6047,
      "##维持": 6048,
      "##结合": 6049,
      "##诸如": 6050,
      "##履行": 6051,
      "##196": 6052,
      "##月25日": 6053,
      "##财政年度": 6054,
      "##空间应用方案": 6055,
      "尤其是": 6056,
      "第九次报告": 6057,
      "俄罗斯": 6058,
      "墨西哥": 6059,
      "大会": 6060,
      "审议": 6061,
      "然而": 6062,
      "##的方式": 6063,
      "##此种": 6064,
      "##到的": 6065,
      "##在1995年": 6066,
      "##制图": 6067,
      "##生命": 6068,
      "##调整": 6069,
      "##st": 6070,
      "##者的": 6071,
      "##预算": 6072,
      "##马拉": 6073,
      "##关键": 6074,
      "##拉丁美洲": 6075,
      "##非法": 6076,
      "##巴布": 6077,
      "##大多数": 6078,
      "##作物": 6079,
      "##起诉": 6080,
      "##电视": 6081,
      "##理论": 6082,
      "##位置": 6083,
      "##文书": 6084,
      "##2月1": 6085,
      "##AA": 6086,
      "##医疗": 6087,
      "##海岸": 6088,
      "##is": 6089,
      "##后果": 6090,
      "##损失": 6091,
      "##速度": 6092,
      "##每年": 6093,
      "##撰文者": 6094,
      "##粮食": 6095,
      "##空间方案": 6096,
      "1991": 6097,
      "##研究中心": 6098,
      "##发射了": 6099,
      "1986年": 6100,
      "##经济活动": 6101,
      "##第四十七届会议": 6102,
      "环境署": 6103,
      "##死亡率": 6104,
      "第七次报告": 6105,
      "执行": 6106,
      "现在": 6107,
      "种族": 6108,
      "##通知": 6109,
      "##和多": 6110,
      "##载人": 6111,
      "##一年": 6112,
      "##上诉": 6113,
      "##十分": 6114,
      "##议会": 6115,
      "##40": 6116,
      "##如此": 6117,
      "##这项": 6118,
      "##乡村": 6119,
      "##新西兰": 6120,
      "##最大": 6121,
      "##最初": 6122,
      "##主席": 6123,
      "##指导": 6124,
      "##面积": 6125,
      "##就是": 6126,
      "##勒比": 6127,
      "##唐伊": 6128,
      "##私营": 6129,
      "##旨在": 6130,
      "##儿子": 6131,
      "##框架": 6132,
      "##委员会成员": 6133,
      "##遥感中心": 6134,
      "##通信卫星": 6135,
      "##1981年": 6136,
      "##欧洲航天局": 6137,
      "##土著社区": 6138,
      "##讨论会": 6139,
      "##产生的": 6140,
      "##设立了": 6141,
      "##秘书处": 6142,
      "##完成了": 6143,
      "##适当的": 6144,
      "##第三十": 6145,
      "##9年1月4日": 6146,
      "EN": 6147,
      "应当": 6148,
      "建立": 6149,
      "第一": 6150,
      "航天": 6151,
      "预计": 6152,
      "##行使": 6153,
      "##的有关": 6154,
      "##的机构": 6155,
      "##中有": 6156,
      "##第3": 6157,
      "##在利马": 6158,
      "##罗姆": 6159,
      "##自动": 6160,
      "##推进": 6161,
      "##8条": 6162,
      "##远距离": 6163,
      "##律师": 6164,
      "##大大": 6165,
      "##光谱": 6166,
      "##51": 6167,
      "##协商": 6168,
      "##OP": 6169,
      "##相关": 6170,
      "##后续": 6171,
      "##监督": 6172,
      "##普遍": 6173,
      "##未来": 6174,
      "##首次": 6175,
      "##复杂": 6176,
      "##福利": 6177,
      "##竞争": 6178,
      "##桑尼亚": 6179,
      "##报告员": 6180,
      "##技术的": 6181,
      "##工作的": 6182,
      "##月27日": 6183,
      "##建立一个": 6184,
      "##获得的": 6185,
      "##火箭发射": 6186,
      "##过程中": 6187,
      "##结论意见": 6188,
      "和平利用外层空间委员会": 6189,
      "##提请注意": 6190,
      "工作": 6191,
      "秘书": 6192,
      "##和加": 6193,
      "##个国家": 6194,
      "##星系": 6195,
      "##职业": 6196,
      "##及其他": 6197,
      "##自治": 6198,
      "##以后": 6199,
      "##其中": 6200,
      "##参数": 6201,
      "##尼日利亚": 6202,
      "##9月1": 6203,
      "##条例": 6204,
      "##方向": 6205,
      "##不受": 6206,
      "##降雨": 6207,
      "##日益": 6208,
      "##公众": 6209,
      "##脉冲": 6210,
      "##查明": 6211,
      "##da": 6212,
      "##反射": 6213,
      "##萨尔瓦多": 6214,
      "##根廷": 6215,
      "##价值": 6216,
      "##传输": 6217,
      "##南非": 6218,
      "##类型": 6219,
      "##农民": 6220,
      "##增强": 6221,
      "##越来越": 6222,
      "##赞赏": 6223,
      "##维亚": 6224,
      "##维尔": 6225,
      "##宗教": 6226,
      "##拟订": 6227,
      "##煽动": 6228,
      "##讨会": 6229,
      "##洛哥": 6230,
      "##卫星站": 6231,
      "##进行研究": 6232,
      "##工作人员": 6233,
      "##00公里": 6234,
      "##通信和": 6235,
      "##的一般": 6236,
      "##参加了": 6237,
      "##权利的": 6238,
      "##于1994年": 6239,
      "##进一步资料": 6240,
      "##发生的": 6241,
      "##形式的": 6242,
      "##的人数": 6243,
      "##目标是": 6244,
      "##举办的": 6245,
      "欧洲航天局": 6246,
      "1969年1月4日": 6247,
      "##第四十六": 6248,
      "##ARSAT": 6249,
      "##一直在": 6250,
      "##药物管制计划": 6251,
      "##诉讼程序": 6252,
      "53": 6253,
      "ERS": 6254,
      "用于": 6255,
      "科学家": 6256,
      "第5条": 6257,
      "第9条": 6258,
      "黑塞": 6259,
      "##于198": 6260,
      "##和救": 6261,
      "##和建议": 6262,
      "##和监测": 6263,
      "##和航空": 6264,
      "##和太平洋": 6265,
      "##的效": 6266,
      "##的地区": 6267,
      "##的社会": 6268,
      "##有所": 6269,
      "##有权": 6270,
      "##过去": 6271,
      "##地貌": 6272,
      "##了一些": 6273,
      "##第6": 6274,
      "##数量": 6275,
      "##议员": 6276,
      "##班牙": 6277,
      "##马射线": 6278,
      "##还有": 6279,
      "##利坚": 6280,
      "##合众": 6281,
      "##背景": 6282,
      "##应该": 6283,
      "##法案": 6284,
      "##大约": 6285,
      "##规则": 6286,
      "##2号": 6287,
      "##AN": 6288,
      "##准确": 6289,
      "##面临": 6290,
      "##TS": 6291,
      "##禁止": 6292,
      "##随后": 6293,
      "##签订": 6294,
      "##步骤": 6295,
      "##状态": 6296,
      "##哥维": 6297,
      "##潜在": 6298,
      "##宣传": 6299,
      "##1997年": 6300,
      "##方案和": 6301,
      "委员会注意到": 6302,
      "##机构间": 6303,
      "1989年": 6304,
      "##人口普查": 6305,
      "##保护人权": 6306,
      "##解决办法": 6307,
      "##年10月1": 6308,
      "##设计的": 6309,
      "##次会议上": 6310,
      "##月31日": 6311,
      "##俄罗斯联邦": 6312,
      "##成功地": 6313,
      "##更多的": 6314,
      "##科学和技术小组委员会": 6315,
      "##认识到": 6316,
      "##居住在": 6317,
      "##合成孔径雷达": 6318,
      "##andsat": 6319,
      "黑塞哥维": 6320,
      "##利坚合众": 6321,
      "黑塞哥维那": 6322,
      "2号": 6323,
      "56": 6324,
      "58": 6325,
      "因而": 6326,
      "在此": 6327,
      "城市": 6328,
      "开发": 6329,
      "怀唐伊": 6330,
      "来源": 6331,
      "没有": 6332,
      "第四": 6333,
      "自然": 6334,
      "规定": 6335,
      "该缔约国": 6336,
      "还有": 6337,
      "这项": 6338,
      "##和管理": 6339,
      "##所采取的": 6340,
      "##的高": 6341,
      "##的环境": 6342,
      "##的决定": 6343,
      "##一名": 6344,
      "##确认": 6345,
      "##能源": 6346,
      "##基层": 6347,
      "##本报告": 6348,
      "##得以": 6349,
      "##以外": 6350,
      "##生效": 6351,
      "##为1": 6352,
      "##4月1": 6353,
      "##用途": 6354,
      "##何种": 6355,
      "##测试": 6356,
      "##测定": 6357,
      "##保留": 6358,
      "##条规定": 6359,
      "##学术": 6360,
      "##拉伯": 6361,
      "##可行": 6362,
      "##可持续发展": 6363,
      "##导航": 6364,
      "##比较": 6365,
      "##几年": 6366,
      "##几乎": 6367,
      "##体化": 6368,
      "##事实": 6369,
      "##当中": 6370,
      "##资助": 6371,
      "##惩罚": 6372,
      "##设在": 6373,
      "##容易": 6374,
      "##先进": 6375,
      "##瑞典": 6376,
      "##OAA": 6377,
      "##请求": 6378,
      "##采用": 6379,
      "##绘图": 6380,
      "##获取": 6381,
      "##西亚": 6382,
      "##仍在": 6383,
      "##终端": 6384,
      "##愿意": 6385,
      "##谈判": 6386,
      "##温度": 6387,
      "##云层": 6388,
      "##刑事": 6389,
      "##辉道路": 6390,
      "##系统和": 6391,
      "##技术援助": 6392,
      "##发展和": 6393,
      "##土著人民": 6394,
      "##审议了": 6395,
      "##条件下": 6396,
      "##取得的": 6397,
      "委员会建议缔约国": 6398,
      "##增长率": 6399,
      "59": 6400,
      "一般": 6401,
      "农业": 6402,
      "瑞典": 6403,
      "科学": 6404,
      "第3": 6405,
      "第二次报告": 6406,
      "该方案": 6407,
      "除了": 6408,
      "随着": 6409,
      "需要": 6410,
      "##色列": 6411,
      "##和美国": 6412,
      "##的需要": 6413,
      "##的基本": 6414,
      "##的具体": 6415,
      "##的执行情况": 6416,
      "##的可能性": 6417,
      "##有一": 6418,
      "##地图": 6419,
      "##地震": 6420,
      "##发起": 6421,
      "##第一": 6422,
      "##立尼": 6423,
      "##白俄罗斯": 6424,
      "##斯林": 6425,
      "##数目": 6426,
      "##助推": 6427,
      "##四个": 6428,
      "##投诉": 6429,
      "##来文": 6430,
      "##学员": 6431,
      "##学科": 6432,
      "##分布": 6433,
      "##不能": 6434,
      "##可在": 6435,
      "##下述": 6436,
      "##部的": 6437,
      "##作法": 6438,
      "##研讨会": 6439,
      "##支付": 6440,
      "##电池": 6441,
      "##23": 6442,
      "##24": 6443,
      "##200": 6444,
      "##臭氧": 6445,
      "##重申": 6446,
      "##正规": 6447,
      "##更加": 6448,
      "##承担": 6449,
      "##承诺": 6450,
      "##ON": 6451,
      "##差异": 6452,
      "##该区域": 6453,
      "##王国": 6454,
      "##我们": 6455,
      "##南极": 6456,
      "##减灾": 6457,
      "##银行": 6458,
      "##双方": 6459,
      "##污染": 6460,
      "##劳工": 6461,
      "##青少年": 6462,
      "##研究金": 6463,
      "##妇女在": 6464,
      "##工作者": 6465,
      "##航天公司": 6466,
      "##通过其": 6467,
      "##遥感技术": 6468,
      "##遥感和地理信息系统": 6469,
      "1981年": 6470,
      "##月2日": 6471,
      "##人权委员会": 6472,
      "##采取措施": 6473,
      "##土地覆盖": 6474,
      "##罗斯基勒": 6475,
      "##土著居民": 6476,
      "##共和国总统": 6477,
      "特别是在": 6478,
      "##和平利用外层空间委员会": 6479,
      "##共同体": 6480,
      "##天文学": 6481,
      "##联邦共和国": 6482,
      "##农村地区": 6483,
      "##决策者": 6484,
      "发展中国家": 6485,
      "##的重要性": 6486,
      "##遗憾的是": 6487,
      "第五次报告": 6488,
      "##检察官": 6489,
      "##立尼达": 6490,
      "人权": 6491,
      "保健": 6492,
      "农村": 6493,
      "区域": 6494,
      "只有": 6495,
      "地面": 6496,
      "最近": 6497,
      "有关": 6498,
      "非洲": 6499,
      "##运转": 6500,
      "##和方案": 6501,
      "##和政治": 6502,
      "##内的": 6503,
      "##的教育": 6504,
      "##地利用": 6505,
      "##地马拉": 6506,
      "##卫生": 6507,
      "##意义": 6508,
      "##是因为": 6509,
      "##生态": 6510,
      "##om": 6511,
      "##为3": 6512,
      "##成了": 6513,
      "##对接": 6514,
      "##出版": 6515,
      "##分类": 6516,
      "##足够": 6517,
      "##离子": 6518,
      "##之中": 6519,
      "##官员": 6520,
      "##回答": 6521,
      "##工人": 6522,
      "##进步": 6523,
      "##日程": 6524,
      "##日期": 6525,
      "##失踪": 6526,
      "##两年": 6527,
      "##AD": 6528,
      "##am": 6529,
      "##OT": 6530,
      "##ur": 6531,
      "##火灾": 6532,
      "##相对": 6533,
      "##科研": 6534,
      "##禁毒署": 6535,
      "##与发展": 6536,
      "##索赔": 6537,
      "##功能": 6538,
      "##判读": 6539,
      "##前南斯拉夫": 6540,
      "##良好": 6541,
      "##宇航员": 6542,
      "##ch": 6543,
      "##转让": 6544,
      "##待遇": 6545,
      "##稳定": 6546,
      "##伽马射线": 6547,
      "##武装": 6548,
      "##磁层": 6549,
      "##卫星和": 6550,
      "##国家空间": 6551,
      "##妇女地位": 6552,
      "##联合共和国": 6553,
      "##物体的": 6554,
      "##3月15日": 6555,
      "##年11月": 6556,
      "##年11月1": 6557,
      "消除种族歧视委员会": 6558,
      "##罗姆塞": 6559,
      "##桑尼亚联合共和国": 6560,
      "54": 6561,
      "57": 6562,
      "66": 6563,
      "外层空间": 6564,
      "民法典": 6565,
      "男女": 6566,
      "确定": 6567,
      "社会": 6568,
      "禁毒署": 6569,
      "附件": 6570,
      "##和数据": 6571,
      "##和欧空局": 6572,
      "##所作": 6573,
      "##的费用": 6574,
      "##的目的是": 6575,
      "##第11": 6576,
      "##多种": 6577,
      "##以便": 6578,
      "##报酬": 6579,
      "##预计": 6580,
      "##感谢": 6581,
      "##感兴趣": 6582,
      "##RI": 6583,
      "##还在": 6584,
      "##出了": 6585,
      "##土壤": 6586,
      "##不利": 6587,
      "##德国": 6588,
      "##大型": 6589,
      "##波斯尼亚": 6590,
      "##化和": 6591,
      "##化学": 6592,
      "##经费": 6593,
      "##试点": 6594,
      "##力的": 6595,
      "##世纪": 6596,
      "##种类": 6597,
      "##释放": 6598,
      "##放在": 6599,
      "##5号": 6600,
      "##极为": 6601,
      "##校正": 6602,
      "##ek": 6603,
      "##相当": 6604,
      "##Landsat": 6605,
      "##减轻": 6606,
      "##带来": 6607,
      "##散射": 6608,
      "##停止": 6609,
      "##私人": 6610,
      "##穆斯林": 6611,
      "##连续": 6612,
      "##称作": 6613,
      "##捐助": 6614,
      "##研究人员": 6615,
      "##机构和": 6616,
      "##地球轨道": 6617,
      "##通信系统": 6618,
      "1982年": 6619,
      "##种族歧视的": 6620,
      "##需要的": 6621,
      "##土著人": 6622,
      "##和平利用外层空间": 6623,
      "##增加了": 6624,
      "##提高妇女地位": 6625,
      "日本宇宙开发事业团": 6626,
      "缔约国代表": 6627,
      "第2条": 6628,
      "##TEL": 6629,
      "##降雨量": 6630,
      "64": 6631,
      "68": 6632,
      "NASA": 6633,
      "利马": 6634,
      "宇宙": 6635,
      "导言": 6636,
      "政治": 6637,
      "本报告": 6638,
      "然后": 6639,
      "用以": 6640,
      "见CERD": 6641,
      "这位": 6642,
      "鉴于": 6643,
      "##列入": 6644,
      "##知道": 6645,
      "##和对": 6646,
      "##的成员": 6647,
      "##有一个": 6648,
      "##现已": 6649,
      "##到了": 6650,
      "##在空间": 6651,
      "##斯里兰卡": 6652,
      "##上升": 6653,
      "##他的": 6654,
      "##他儿子": 6655,
      "##测绘": 6656,
      "##尼加拉瓜": 6657,
      "##对其": 6658,
      "##对这些": 6659,
      "##月球": 6660,
      "##大地": 6661,
      "##作业": 6662,
      "##高等": 6663,
      "##层大气": 6664,
      "##实体": 6665,
      "##都有": 6666,
      "##明确": 6667,
      "##28": 6668,
      "##ta": 6669,
      "##校准": 6670,
      "##遵守": 6671,
      "##某种": 6672,
      "##早期": 6673,
      "##更大的": 6674,
      "##POT": 6675,
      "##岁以上": 6676,
      "##相同": 6677,
      "##差距": 6678,
      "##特定": 6679,
      "##监禁": 6680,
      "##任命": 6681,
      "##救济": 6682,
      "##干涉": 6683,
      "##残余": 6684,
      "##编制": 6685,
      "##ES": 6686,
      "##微重力": 6687,
      "##寻求": 6688,
      "##名妇女": 6689,
      "##示范": 6690,
      "##厘米": 6691,
      "##适用于": 6692,
      "##避免": 6693,
      "##声称": 6694,
      "##志愿": 6695,
      "##五年": 6696,
      "##军事": 6697,
      "##艾滋病": 6698,
      "##阿尔": 6699,
      "##报告中": 6700,
      "##数据和": 6701,
      "##会议上": 6702,
      "##联合会": 6703,
      "##应用领域": 6704,
      "1988年": 6705,
      "##月29日": 6706,
      "##于1995": 6707,
      "1972年": 6708,
      "##全球资源": 6709,
      "##正在进行": 6710,
      "##提交的": 6711,
      "##的第二": 6712,
      "##有效的": 6713,
      "##讨论了": 6714,
      "##公里的": 6715,
      "##一次定期报告": 6716,
      "##研制的": 6717,
      "##举行的": 6718,
      "##接收站": 6719,
      "##专业人员": 6720,
      "##外空会议": 6721,
      "##第二次": 6722,
      "##领导人": 6723,
      "##地球资源卫星": 6724,
      "##巴布韦": 6725,
      "##和加勒比": 6726,
      "科学家们": 6727,
      "1和": 6728,
      "55": 6729,
      "63": 6730,
      "69": 6731,
      "67": 6732,
      "65": 6733,
      "95": 6734,
      "IN": 6735,
      "按性别": 6736,
      "海洋": 6737,
      "确保": 6738,
      "第6条": 6739,
      "许多": 6740,
      "##和在": 6741,
      "##和发展": 6742,
      "##和区域": 6743,
      "##内亚": 6744,
      "##的努力": 6745,
      "##的宪法": 6746,
      "##的做法": 6747,
      "##有了": 6748,
      "##星的": 6749,
      "##斯科": 6750,
      "##斯坦": 6751,
      "##很大": 6752,
      "##是通过": 6753,
      "##是一种": 6754,
      "##自愿": 6755,
      "##议的": 6756,
      "##国民": 6757,
      "##投票": 6758,
      "##82": 6759,
      "##同样": 6760,
      "##这样的": 6761,
      "##亚库": 6762,
      "##对地球": 6763,
      "##分离": 6764,
      "##方针": 6765,
      "##不仅": 6766,
      "##时候": 6767,
      "##之内": 6768,
      "##空实验室": 6769,
      "##巴哥": 6770,
      "##最终": 6771,
      "##化的": 6772,
      "##部和": 6773,
      "##高于": 6774,
      "##力量": 6775,
      "##全体": 6776,
      "##度的": 6777,
      "##建设": 6778,
      "##建造": 6779,
      "##办事": 6780,
      "##被告": 6781,
      "##7月1": 6782,
      "##将提供": 6783,
      "##In": 6784,
      "##ter": 6785,
      "##准则": 6786,
      "##低成本": 6787,
      "##限度": 6788,
      "##es": 6789,
      "##至关": 6790,
      "##相应": 6791,
      "##il": 6792,
      "##侧重于": 6793,
      "##尊重": 6794,
      "##绘制": 6795,
      "##阶层": 6796,
      "##特性": 6797,
      "##监狱": 6798,
      "##未能": 6799,
      "##克罗地亚": 6800,
      "##控诉": 6801,
      "##打算": 6802,
      "##宝贵": 6803,
      "##遭受": 6804,
      "##丹麦": 6805,
      "##初步": 6806,
      "##超过": 6807,
      "##伙伴": 6808,
      "##倡议": 6809,
      "##提供的资料": 6810,
      "##数据的": 6811,
      "##数据集": 6812,
      "委员会对": 6813,
      "##国际人权": 6814,
      "##会议的": 6815,
      "1983": 6816,
      "1987年": 6817,
      "##要求的": 6818,
      "##人员和": 6819,
      "##得到了": 6820,
      "##外层空间事务厅": 6821,
      "##ant": 6822,
      "##组成的": 6823,
      "##空间活动委员会": 6824,
      "1969年": 6825,
      "##财政年": 6826,
      "##毛利族人": 6827,
      "##警察署": 6828,
      "##外空事务厅": 6829,
      "##咨询服务": 6830,
      "##联合国系统内": 6831,
      "##满意地注意到": 6832,
      "##利坚合众国": 6833,
      "##罗姆塞卫星站": 6834,
      "##TELSAT": 6835,
      "这位代表": 6836,
      "##亚库乔": 6837,
      "亚洲": 6838,
      "任何": 6839,
      "先生": 6840,
      "具有": 6841,
      "初次报告": 6842,
      "南非": 6843,
      "尼日利亚": 6844,
      "巴西": 6845,
      "法案": 6846,
      "轨道": 6847,
      "配偶": 6848,
      "项目": 6849,
      "##和S": 6850,
      "##和控制": 6851,
      "##的土地": 6852,
      "##有的": 6853,
      "##载于": 6854,
      "##了一项": 6855,
      "##第十": 6856,
      "##第一次": 6857,
      "##及和平利用外层空间": 6858,
      "##在这些": 6859,
      "##很多": 6860,
      "##本身": 6861,
      "##机的": 6862,
      "##训练": 6863,
      "##推动": 6864,
      "##交换": 6865,
      "##为5": 6866,
      "##80": 6867,
      "##这样": 6868,
      "##学院": 6869,
      "##教师": 6870,
      "##人类": 6871,
      "##不到": 6872,
      "##下的": 6873,
      "##大小": 6874,
      "##大都": 6875,
      "##大陆": 6876,
      "##已在": 6877,
      "##回收": 6878,
      "##完整": 6879,
      "##实用": 6880,
      "##路斯": 6881,
      "##公平": 6882,
      "##位于": 6883,
      "##全部": 6884,
      "##29": 6885,
      "##也许": 6886,
      "##也纳": 6887,
      "##论坛": 6888,
      "##各级": 6889,
      "##SL": 6890,
      "##候选": 6891,
      "##II": 6892,
      "##IRS": 6893,
      "##更为": 6894,
      "##us": 6895,
      "##模式": 6896,
      "##省份": 6897,
      "##婚姻": 6898,
      "##宇和航空": 6899,
      "##照射": 6900,
      "##干旱": 6901,
      "##微型卫星": 6902,
      "##遭到": 6903,
      "##身份": 6904,
      "##摘要": 6905,
      "##仇恨": 6906,
      "##尤其": 6907,
      "##落实": 6908,
      "##婴儿": 6909,
      "##浦路斯": 6910,
      "##妇女和": 6911,
      "##政府在": 6912,
      "##联合王国": 6913,
      "##合作的": 6914,
      "##教育中心": 6915,
      "##通信卫星组织": 6916,
      "1988": 6917,
      "1985": 6918,
      "##人权事务": 6919,
      "##人口中": 6920,
      "##可能的": 6921,
      "##碎片的": 6922,
      "##于1997年": 6923,
      "##雷达卫星": 6924,
      "##行动计划": 6925,
      "##继续进行": 6926,
      "##特别报告员": 6927,
      "##欧洲遥感卫星": 6928,
      "##提交报告": 6929,
      "##发展中国家的": 6930,
      "##表示关切": 6931,
      "国家统计": 6932,
      "##届会议上": 6933,
      "##实际应用": 6934,
      "##日本宇宙开发事业团": 6935,
      "##规划署": 6936,
      "##收到的": 6937,
      "##最高法院": 6938,
      "##探索及和平利用外层空间": 6939,
      "第三次报告": 6940,
      "##和多巴哥": 6941,
      "怀唐伊条约": 6942,
      "##立尼达和多巴哥": 6943,
      "外层空间事务厅": 6944,
      "##全球资源数据库": 6945,
      "##办事处": 6946,
      "1号": 6947,
      "31": 6948,
      "41": 6949,
      "70": 6950,
      "世界": 6951,
      "从198": 6952,
      "另一个": 6953,
      "并在": 6954,
      "开始": 6955,
      "摩洛哥": 6956,
      "林业": 6957,
      "法院": 6958,
      "目的是": 6959,
      "第7条": 6960,
      "约旦": 6961,
      "继续": 6962,
      "罗马尼亚": 6963,
      "过去": 6964,
      "随后": 6965,
      "高级": 6966,
      "##表现": 6967,
      "##书面": 6968,
      "##和地球": 6969,
      "##和服务": 6970,
      "##动态": 6971,
      "##的经济": 6972,
      "##的行为": 6973,
      "##有益": 6974,
      "##过渡": 6975,
      "##现代": 6976,
      "##现状": 6977,
      "##个月": 6978,
      "##使其": 6979,
      "##职责": 6980,
      "##性建议": 6981,
      "##在本": 6982,
      "##在一起": 6983,
      "##很少": 6984,
      "##是为": 6985,
      "##自卫": 6986,
      "##以上的": 6987,
      "##四年": 6988,
      "##由联合国": 6989,
      "##6月1": 6990,
      "##同一": 6991,
      "##并没有": 6992,
      "##90": 6993,
      "##RE": 6994,
      "##不得": 6995,
      "##拉斯": 6996,
      "##可用于": 6997,
      "##政党": 6998,
      "##味着": 6999,
      "##只有": 7000,
      "##巴西": 7001,
      "##最多": 7002,
      "##达成": 7003,
      "##信贷": 7004,
      "##流层": 7005,
      "##失业": 7006,
      "##21": 7007,
      "##天气": 7008,
      "##食堂": 7009,
      "##AC": 7010,
      "##GL": 7011,
      "##审判": 7012,
      "##指数": 7013,
      "##医生": 7014,
      "##另一": 7015,
      "##站的": 7016,
      "##ik": 7017,
      "##反对": 7018,
      "##改变": 7019,
      "##与空间": 7020,
      "##与其他": 7021,
      "##南部": 7022,
      "##NASA": 7023,
      "##西洋": 7024,
      "##单一": 7025,
      "##虐待": 7026,
      "##硬件": 7027,
      "##三次报告": 7028,
      "##修改": 7029,
      "##名成员": 7030,
      "##角度": 7031,
      "##固体": 7032,
      "##往往": 7033,
      "##户主": 7034,
      "##避孕": 7035,
      "##粒子": 7036,
      "##较低": 7037,
      "##邀请": 7038,
      "##辅助": 7039,
      "##卫星图象": 7040,
      "##研究方案": 7041,
      "委员会在1995年": 7042,
      "##利用空间技术": 7043,
      "##环境监测": 7044,
      "##执行的": 7045,
      "##提出上诉": 7046,
      "##这一点": 7047,
      "##采取了": 7048,
      "##建立了": 7049,
      "##确定的": 7050,
      "##全球定位": 7051,
      "##大学的": 7052,
      "##援助团": 7053,
      "##有效地": 7054,
      "第十三次报告": 7055,
      "联合国系统": 7056,
      "##保健和教育": 7057,
      "空间技术": 7058,
      "##目前正在": 7059,
      "##天文观测台": 7060,
      "##存在着": 7061,
      "##航空和": 7062,
      "这是一个": 7063,
      "##物理学": 7064,
      "##计算所": 7065,
      "##群体的": 7066,
      "##程度上": 7067,
      "##出现的": 7068,
      "##ISH": 7069,
      "##所需的": 7070,
      "##精确的": 7071,
      "##集中在": 7072,
      "俄罗斯联邦": 7073,
      "第四次报告": 7074,
      "##志愿人员": 7075,
      "国家统计计算所": 7076,
      "ORI": 7077,
      "人口": 7078,
      "今后": 7079,
      "他指出": 7080,
      "刑法": 7081,
      "卫生": 7082,
      "土著": 7083,
      "在1995年": 7084,
      "太阳": 7085,
      "家庭": 7086,
      "小型卫星": 7087,
      "就业": 7088,
      "尼加拉瓜": 7089,
      "应用": 7090,
      "按照": 7091,
      "检察": 7092,
      "法律": 7093,
      "获得": 7094,
      "该国": 7095,
      "诺阿": 7096,
      "跟踪": 7097,
      "这样": 7098,
      "重点": 7099,
      "##常设": 7100,
      "##运输": 7101,
      "##和A": 7102,
      "##和一个": 7103,
      "##动物": 7104,
      "##的关于": 7105,
      "##有利": 7106,
      "##有能力": 7107,
      "##此类": 7108,
      "##发达": 7109,
      "##发电": 7110,
      "##现场": 7111,
      "##能量": 7112,
      "##及利亚": 7113,
      "##斯兰": 7114,
      "##上进行": 7115,
      "##推广": 7116,
      "##报道": 7117,
      "##平方": 7118,
      "##为止": 7119,
      "##技能": 7120,
      "##预期": 7121,
      "##测高": 7122,
      "##对付": 7123,
      "##女性": 7124,
      "##还是": 7125,
      "##关心": 7126,
      "##分光": 7127,
      "##补偿": 7128,
      "##降低": 7129,
      "##联络": 7130,
      "##新闻": 7131,
      "##大规模": 7132,
      "##波长": 7133,
      "##线路": 7134,
      "##当选": 7135,
      "##理由": 7136,
      "##全世界": 7137,
      "##深入": 7138,
      "##检查": 7139,
      "##亿美元": 7140,
      "##也在": 7141,
      "##天体": 7142,
      "##食品": 7143,
      "##被认为": 7144,
      "##70": 7145,
      "##雇员": 7146,
      "##述了": 7147,
      "##au": 7148,
      "##tr": 7149,
      "##GIN": 7150,
      "##容忍": 7151,
      "##某一": 7152,
      "##临时": 7153,
      "##模拟": 7154,
      "##值得": 7155,
      "##再生": 7156,
      "##功率": 7157,
      "##核心": 7158,
      "##短期": 7159,
      "##ME": 7160,
      "##百分": 7161,
      "##名为": 7162,
      "##直径": 7163,
      "##允许": 7164,
      "##考察": 7165,
      "##UN": 7166,
      "##颁布": 7167,
      "##隆迪": 7168,
      "##灵活": 7169,
      "##频率": 7170,
      "##拒绝": 7171,
      "##滥用": 7172,
      "##哪些": 7173,
      "##截面": 7174,
      "##空间科学和技术": 7175,
      "##提供有关": 7176,
      "##政府的": 7177,
      "##月23日": 7178,
      "##社会和经济": 7179,
      "##要求提供关于": 7180,
      "##的一种": 7181,
      "##采取行动": 7182,
      "##碎片流": 7183,
      "##部分的": 7184,
      "##事务部": 7185,
      "##作出的": 7186,
      "##行为的": 7187,
      "会议指出": 7188,
      "##存在的": 7189,
      "##卫星数据的": 7190,
      "##流动卫星组织": 7191,
      "##收到了": 7192,
      "##卫星通信系统": 7193,
      "##8月18日": 7194,
      "##年12月9日": 7195,
      "##积极参与": 7196,
      "挪威航天中心": 7197,
      "##流离失所者": 7198,
      "##第49": 7199,
      "##助推器": 7200,
      "##ADARSAT": 7201,
      "##大都市": 7202,
      "##宇和航空科学研究所": 7203,
      "##探索及和平利用外层空间会议": 7204,
      "##全球资源数据库设施": 7205,
      "ORIGIN": 7206,
      "ORIGINAL": 7207,
      "200": 7208,
      "52": 7209,
      "500": 7210,
      "62": 7211,
      "78": 7212,
      "他还": 7213,
      "另一": 7214,
      "同样": 7215,
      "地理": 7216,
      "大家": 7217,
      "它将": 7218,
      "并对": 7219,
      "提出": 7220,
      "文盲": 7221,
      "无论": 7222,
      "有些": 7223,
      "来自": 7224,
      "每个": 7225,
      "第6": 7226,
      "第四十": 7227,
      "组织": 7228,
      "该项目": 7229,
      "调查": 7230,
      "##列颠": 7231,
      "##和研究": 7232,
      "##和处理": 7233,
      "##和1994年": 7234,
      "##内部": 7235,
      "##所谓": 7236,
      "##的培训": 7237,
      "##的意见": 7238,
      "##的设计": 7239,
      "##的原因": 7240,
      "##的特点": 7241,
      "##的原则": 7242,
      "##有机会": 7243,
      "##效果": 7244,
      "##中期": 7245,
      "##现正": 7246,
      "##证据": 7247,
      "##证实": 7248,
      "##意味着": 7249,
      "##及北": 7250,
      "##在国家": 7251,
      "##斯特": 7252,
      "##多样": 7253,
      "##是有": 7254,
      "##是不": 7255,
      "##依据": 7256,
      "##以往": 7257,
      "##水文": 7258,
      "##提及": 7259,
      "##平民": 7260,
      "##为4": 7261,
      "##加斯": 7262,
      "##加入": 7263,
      "##这两个": 7264,
      "##来看": 7265,
      "##亚新": 7266,
      "##成年": 7267,
      "##对妇女": 7268,
      "##对这一": 7269,
      "##保险": 7270,
      "##女孩": 7271,
      "##人士": 7272,
      "##不列颠": 7273,
      "##家空间": 7274,
      "##统一": 7275,
      "##空中": 7276,
      "##巴嫩": 7277,
      "##新技术": 7278,
      "##战争": 7279,
      "##战斗": 7280,
      "##最佳": 7281,
      "##大众": 7282,
      "##经委会": 7283,
      "##力于": 7284,
      "##处境": 7285,
      "##也是": 7286,
      "##主任": 7287,
      "##射电": 7288,
      "##气体": 7289,
      "##ac": 7290,
      "##区别": 7291,
      "##正常": 7292,
      "##兰联合王国": 7293,
      "##媒介": 7294,
      "##低地球轨道": 7295,
      "##un": 7296,
      "##至1": 7297,
      "##尔兰联合王国": 7298,
      "##卢援助团": 7299,
      "##特殊": 7300,
      "##好处": 7301,
      "##父母": 7302,
      "##宇空实验室": 7303,
      "##NOAA": 7304,
      "##山区": 7305,
      "##想了解": 7306,
      "##甚高分辨率": 7307,
      "##银河": 7308,
      "##三年": 7309,
      "##三分": 7310,
      "##呼吁": 7311,
      "##微粒": 7312,
      "##修订": 7313,
      "##危机": 7314,
      "##澄清": 7315,
      "##连接": 7316,
      "##周期": 7317,
      "##俱乐": 7318,
      "##边缘": 7319,
      "##晶体": 7320,
      "##麻委会": 7321,
      "##阵列": 7322,
      "##丛林": 7323,
      "##津巴布韦": 7324,
      "##爱尔兰联合王国": 7325,
      "##1993": 7326,
      "##委员会关于": 7327,
      "##提供给": 7328,
      "##提供的数据": 7329,
      "委员会欢迎": 7330,
      "##国际空间站": 7331,
      "##情况的": 7332,
      "##以及在": 7333,
      "##应用的": 7334,
      "##成员国": 7335,
      "1980": 7336,
      "1989": 7337,
      "1984年": 7338,
      "1980年": 7339,
      "##轨道寿命": 7340,
      "##歧视的": 7341,
      "##联合国探索及和平利用外层空间会议": 7342,
      "##领域中的": 7343,
      "##影响到": 7344,
      "##109": 7345,
      "1970年": 7346,
      "##确定了": 7347,
      "##参与了": 7348,
      "会议注意到": 7349,
      "##产生了": 7350,
      "##太阳风": 7351,
      "##3月16日": 7352,
      "研究和": 7353,
      "##的最新": 7354,
      "##采取的行动": 7355,
      "##现有的": 7356,
      "II运载火箭": 7357,
      "进行了": 7358,
      "##成本效益": 7359,
      "##外国人": 7360,
      "##年龄组": 7361,
      "##的基础上": 7362,
      "##DEOS": 7363,
      "ENGL": 7364,
      "##越来越多": 7365,
      "##和救援": 7366,
      "##志愿人员团": 7367,
      "##百分比": 7368,
      "##及北爱尔兰联合王国": 7369,
      "##不列颠及北爱尔兰联合王国": 7370,
      "ENGLISH": 7371,
      "111": 7372,
      "93": 7373,
      "90": 7374,
      "保护": 7375,
      "儿童": 7376,
      "共同": 7377,
      "其目的是": 7378,
      "分别": 7379,
      "刑法典": 7380,
      "加强": 7381,
      "只要": 7382,
      "各项": 7383,
      "后者": 7384,
      "意见": 7385,
      "斯里兰卡": 7386,
      "是否": 7387,
      "第8条": 7388,
      "行政": 7389,
      "讨论": 7390,
      "远距离": 7391,
      "除其他": 7392,
      "飞行": 7393,
      "##通报": 7394,
      "##运送": 7395,
      "##和十": 7396,
      "##和使用": 7397,
      "##和1993年": 7398,
      "##和传播": 7399,
      "##所在": 7400,
      "##的组织": 7401,
      "##的行动": 7402,
      "##的变化": 7403,
      "##的某些": 7404,
      "##的需求": 7405,
      "##的判决": 7406,
      "##效率": 7407,
      "##地利": 7408,
      "##地轨道": 7409,
      "##现行": 7410,
      "##了一": 7411,
      "##一道": 7412,
      "##一样": 7413,
      "##管辖": 7414,
      "##到1993年": 7415,
      "##少的": 7416,
      "##机载": 7417,
      "##得出": 7418,
      "##国籍": 7419,
      "##为妇女": 7420,
      "##6个": 7421,
      "##用以": 7422,
      "##加速": 7423,
      "##解散": 7424,
      "##年来": 7425,
      "##女子": 7426,
      "##学习": 7427,
      "##出生": 7428,
      "##利伯": 7429,
      "##分发": 7430,
      "##补助": 7431,
      "##可了": 7432,
      "##致力于": 7433,
      "##离层": 7434,
      "##外部": 7435,
      "##联卢援助团": 7436,
      "##法规": 7437,
      "##几内亚": 7438,
      "##新星": 7439,
      "##即将": 7440,
      "##执法": 7441,
      "##大西洋": 7442,
      "##达加斯": 7443,
      "##工会": 7444,
      "##高的": 7445,
      "##例子": 7446,
      "##定了": 7447,
      "##定于1996年": 7448,
      "##理解": 7449,
      "##实时": 7450,
      "##流产": 7451,
      "##位成员": 7452,
      "##处罚": 7453,
      "##视为": 7454,
      "##射入": 7455,
      "##氧化": 7456,
      "##各方": 7457,
      "##气球": 7458,
      "##ad": 7459,
      "##ak": 7460,
      "##av": 7461,
      "##tl": 7462,
      "##构想": 7463,
      "##医学": 7464,
      "##ei": 7465,
      "##岁的": 7466,
      "##尔维亚": 7467,
      "##严格": 7468,
      "##后期": 7469,
      "##向其": 7470,
      "##看到": 7471,
      "##住房": 7472,
      "##总数": 7473,
      "##心理": 7474,
      "##干预": 7475,
      "##EOS": 7476,
      "##转换": 7477,
      "##争取": 7478,
      "##草案": 7479,
      "##每个": 7480,
      "##障碍": 7481,
      "##显然": 7482,
      "##才能": 7483,
      "##偏远": 7484,
      "##US": 7485,
      "##筹办": 7486,
      "##营养": 7487,
      "##阿拉伯": 7488,
      "##酋长": 7489,
      "##简单": 7490,
      "##空间科技": 7491,
      "##进行调查": 7492,
      "##进行战斗": 7493,
      "##数据收集": 7494,
      "委员会认为": 7495,
      "##年1月28日": 7496,
      "##政府和": 7497,
      "##联合酋长": 7498,
      "##00万": 7499,
      "1986": 7500,
      "##飞行的": 7501,
      "##轨道上的": 7502,
      "##计划的": 7503,
      "##环境的": 7504,
      "##环境卫星": 7505,
      "##要求提供": 7506,
      "##这一问题": 7507,
      "##管理局": 7508,
      "##经济活动的": 7509,
      "##经济和社会": 7510,
      "##参加经济活动": 7511,
      "##可能会": 7512,
      "##重要作用": 7513,
      "##雷达图像": 7514,
      "##所有国家": 7515,
      "##监测和": 7516,
      "##1986年": 7517,
      "##全球变化": 7518,
      "##提交的第": 7519,
      "##进一步发展": 7520,
      "##的妇女人数": 7521,
      "##宇宙航空": 7522,
      "妇女的": 7523,
      "##开展合作": 7524,
      "##秘鲁的": 7525,
      "##航天器的": 7526,
      "000人": 7527,
      "##高级甚高分辨率": 7528,
      "卫星通信": 7529,
      "##规划和": 7530,
      "##决策人员": 7531,
      "##INSAT": 7532,
      "##的国际合作": 7533,
      "21世纪": 7534,
      "##修正案": 7535,
      "##可靠性": 7536,
      "##私营部门": 7537,
      "##第四十六届会议": 7538,
      "##国家空间研究中心": 7539,
      "##干涉测量": 7540,
      "##至关重要": 7541,
      "##SLV": 7542,
      "##候选人": 7543,
      "##全球定位系统": 7544,
      "##亚新几内亚": 7545,
      "##俱乐部": 7546,
      "##达加斯加": 7547,
      "一项": 7548,
      "与此": 7549,
      "专题": 7550,
      "他说": 7551,
      "使其": 7552,
      "天文": 7553,
      "它是": 7554,
      "宇航员": 7555,
      "已经": 7556,
      "当时": 7557,
      "智利": 7558,
      "白俄罗斯": 7559,
      "监测": 7560,
      "社会和": 7561,
      "说明": 7562,
      "阿根廷": 7563,
      "##运营": 7564,
      "##和G": 7565,
      "##和妇女": 7566,
      "##和科学": 7567,
      "##和种族歧视": 7568,
      "##和保护": 7569,
      "##和第四十七届会议": 7570,
      "##和1997年": 7571,
      "##所规定的": 7572,
      "##的观测": 7573,
      "##的飞行": 7574,
      "##的任务": 7575,
      "##的数字": 7576,
      "##的图象": 7577,
      "##的许多": 7578,
      "##的估计": 7579,
      "##有用": 7580,
      "##有些": 7581,
      "##有害": 7582,
      "##有必要": 7583,
      "##中使用": 7584,
      "##第一颗": 7585,
      "##小学": 7586,
      "##立场": 7587,
      "##及有关": 7588,
      "##是根据": 7589,
      "##得多": 7590,
      "##培养": 7591,
      "##交通": 7592,
      "##用的": 7593,
      "##孩子": 7594,
      "##预报": 7595,
      "##并非": 7596,
      "##条的规定": 7597,
      "##受益": 7598,
      "##还将": 7599,
      "##不会": 7600,
      "##合理": 7601,
      "##家务": 7602,
      "##应急": 7603,
      "##官方": 7604,
      "##工资": 7605,
      "##经过": 7606,
      "##经营": 7607,
      "##起来的": 7608,
      "##光辉道路": 7609,
      "##资格": 7610,
      "##处决": 7611,
      "##22": 7612,
      "##牛奶": 7613,
      "##拘留": 7614,
      "##75": 7615,
      "##主动": 7616,
      "##ag": 7617,
      "##重量": 7618,
      "##隔离": 7619,
      "##更大": 7620,
      "##样品": 7621,
      "##另一个": 7622,
      "##PE": 7623,
      "##OM": 7624,
      "##差别": 7625,
      "##遇险": 7626,
      "##申请": 7627,
      "##看出": 7628,
      "##与其": 7629,
      "##与妇女": 7630,
      "##损害": 7631,
      "##签署": 7632,
      "##塞族": 7633,
      "##普通": 7634,
      "##哈勃": 7635,
      "##选出": 7636,
      "##岛火箭发射": 7637,
      "##克兰": 7638,
      "##西班牙": 7639,
      "##派遣": 7640,
      "##带有": 7641,
      "##讲座": 7642,
      "##转发": 7643,
      "##斗争": 7644,
      "##巨大": 7645,
      "##危地马拉": 7646,
      "##骚扰": 7647,
      "##清楚": 7648,
      "##维也纳": 7649,
      "##递交": 7650,
      "##密度": 7651,
      "##血统": 7652,
      "##劳动": 7653,
      "##创造": 7654,
      "##刑法": 7655,
      "##五个": 7656,
      "##军队": 7657,
      "##阿根廷": 7658,
      "##频道": 7659,
      "##额外": 7660,
      "##裁决": 7661,
      "##青年": 7662,
      "##乘员": 7663,
      "##邮件": 7664,
      "##纲领": 7665,
      "##唯一": 7666,
      "1997年": 7667,
      "##委员会和": 7668,
      "##方案中": 7669,
      "##国际社会": 7670,
      "##航天员": 7671,
      "##航天研究所": 7672,
      "##发射器": 7673,
      "##地球同步": 7674,
      "##观测系统": 7675,
      "##通信技术": 7676,
      "1985年": 7677,
      "##轨道的": 7678,
      "##轨道站": 7679,
      "##轨道碎片": 7680,
      "##服务和": 7681,
      "##环境和": 7682,
      "##人权的": 7683,
      "##提出报告": 7684,
      "关于第": 7685,
      "##领域中": 7686,
      "##管理人员": 7687,
      "##经济效益": 7688,
      "##影响的": 7689,
      "##所有的": 7690,
      "##1988年": 7691,
      "1972": 7692,
      "1974年": 7693,
      "##欧洲联盟": 7694,
      "##得到的": 7695,
      "##社区的": 7696,
      "##空间技术的": 7697,
      "109": 7698,
      "委员会成员注意到": 7699,
      "##范围的": 7700,
      "会议还": 7701,
      "##气象组织": 7702,
      "##他们在": 7703,
      "空间科学": 7704,
      "##目标的": 7705,
      "##司法机构": 7706,
      "##第1款": 7707,
      "欧洲遥感卫星": 7708,
      "第28": 7709,
      "##更多地": 7710,
      "##INE": 7711,
      "##综合性": 7712,
      "该代表解释说": 7713,
      "##统计数字": 7714,
      "##最高法令": 7715,
      "##1979年": 7716,
      "##之一是": 7717,
      "##成立了": 7718,
      "##部长会议": 7719,
      "##号决议中": 7720,
      "##相互作用": 7721,
      "##基金会": 7722,
      "##第109": 7723,
      "##一致认为": 7724,
      "##亚洲和太平洋": 7725,
      "##和平号站": 7726,
      "##补救办法": 7727,
      "航天飞机": 7728,
      "##51号法令": 7729,
      "##OPINE": 7730,
      "秘书处": 7731,
      "##电池阵列": 7732,
      "##臭氧层": 7733,
      "##出版物": 7734,
      "##高等教育": 7735,
      "##利伯维尔": 7736,
      "21世纪议程": 7737,
      "110": 7738,
      "75": 7739,
      "Th": 7740,
      "亚太": 7741,
      "令人": 7742,
      "克罗地亚": 7743,
      "发现": 7744,
      "号决议": 7745,
      "后来": 7746,
      "土地": 7747,
      "在这一": 7748,
      "处理": 7749,
      "大气": 7750,
      "安全": 7751,
      "工业": 7752,
      "年龄": 7753,
      "或者": 7754,
      "截至": 7755,
      "新西兰": 7756,
      "条约": 7757,
      "灾害": 7758,
      "特罗姆塞卫星站": 7759,
      "现已": 7760,
      "第5": 7761,
      "背景": 7762,
      "萨尔瓦多": 7763,
      "西班牙": 7764,
      "该报告": 7765,
      "负责": 7766,
      "这将": 7767,
      "这类": 7768,
      "这颗卫星": 7769,
      "通常": 7770,
      "部长": 7771,
      "采取": 7772,
      "针对": 7773,
      "防止": 7774,
      "##长和": 7775,
      "##和促进": 7776,
      "##和分析": 7777,
      "##和日本": 7778,
      "##和紧急": 7779,
      "##内加": 7780,
      "##的多": 7781,
      "##的对": 7782,
      "##的不": 7783,
      "##的5": 7784,
      "##的缔约国": 7785,
      "##的管理": 7786,
      "##的碎片": 7787,
      "##的讨论": 7788,
      "##的程序": 7789,
      "##的实际": 7790,
      "##的空间活动": 7791,
      "##的标准": 7792,
      "##的详细": 7793,
      "##有人": 7794,
      "##有源": 7795,
      "##载的": 7796,
      "##发出": 7797,
      "##了对": 7798,
      "##了两": 7799,
      "##了一份": 7800,
      "##一体化": 7801,
      "##星体": 7802,
      "##职权": 7803,
      "##职位": 7804,
      "##在全国": 7805,
      "##在1994年": 7806,
      "##基斯坦": 7807,
      "##上空": 7808,
      "##是妇女": 7809,
      "##以色列": 7810,
      "##生长": 7811,
      "##推迟": 7812,
      "##提议": 7813,
      "##3月22日": 7814,
      "##附属": 7815,
      "##附带": 7816,
      "##参考": 7817,
      "##开支": 7818,
      "##开放": 7819,
      "##测距": 7820,
      "##亚那": 7821,
      "##对此": 7822,
      "##并未": 7823,
      "##享受": 7824,
      "##RADARSAT": 7825,
      "##利昂": 7826,
      "##问及": 7827,
      "##方便": 7828,
      "##可提供": 7829,
      "##展开": 7830,
      "##外交": 7831,
      "##法语": 7832,
      "##瓦巴": 7833,
      "##而且": 7834,
      "##大部分": 7835,
      "##大利亚": 7836,
      "##回顾": 7837,
      "##作是": 7838,
      "##目录": 7839,
      "##期望": 7840,
      "##碎裂": 7841,
      "##起草": 7842,
      "##接触": 7843,
      "##信任": 7844,
      "##取决": 7845,
      "##排放": 7846,
      "##缺少": 7847,
      "##两颗": 7848,
      "##杯牛奶": 7849,
      "##放射": 7850,
      "##极其": 7851,
      "##各类": 7852,
      "##net": 7853,
      "##re": 7854,
      "##重返": 7855,
      "##副本": 7856,
      "##漠化": 7857,
      "##指挥": 7858,
      "##媒体": 7859,
      "##图片": 7860,
      "##ut": 7861,
      "##火山": 7862,
      "##难以": 7863,
      "##我国": 7864,
      "##与大气层": 7865,
      "##就此": 7866,
      "##号运载火箭": 7867,
      "##特派": 7868,
      "##监护": 7869,
      "##塞浦路斯": 7870,
      "##前景": 7871,
      "##航行": 7872,
      "##穿透": 7873,
      "##尽快": 7874,
      "##尽可能": 7875,
      "##岛屿": 7876,
      "##未来的": 7877,
      "##克服": 7878,
      "##干扰": 7879,
      "##场所": 7880,
      "##伊斯兰": 7881,
      "##河流": 7882,
      "##微型": 7883,
      "##见光": 7884,
      "##似乎": 7885,
      "##逐渐": 7886,
      "##潜力": 7887,
      "##金属": 7888,
      "##角色": 7889,
      "##摄影": 7890,
      "##固定": 7891,
      "##紧张": 7892,
      "##宣言": 7893,
      "##野生": 7894,
      "##偏见": 7895,
      "##孕妇": 7896,
      "##赋予": 7897,
      "##逮捕": 7898,
      "##石油": 7899,
      "##纠正": 7900,
      "##卫星遥感": 7901,
      "##卫星广播": 7902,
      "##研究中": 7903,
      "##提供援助": 7904,
      "委员会在": 7905,
      "##国际法": 7906,
      "##项目中": 7907,
      "##以及其他": 7908,
      "##种族和": 7909,
      "##种族隔离": 7910,
      "##发射场": 7911,
      "1982": 7912,
      "1981": 7913,
      "##计划署": 7914,
      "##这些问题": 7915,
      "##区域和国际": 7916,
      "##资源管理": 7917,
      "##2年外空会议": 7918,
      "##于1996": 7919,
      "##于1994": 7920,
      "##于1992年": 7921,
      "##雷达数据": 7922,
      "##所有权": 7923,
      "1971": 7924,
      "1975年": 7925,
      "1971年": 7926,
      "##土地利用": 7927,
      "##援助方案": 7928,
      "##测量局": 7929,
      "##开始的": 7930,
      "以便在": 7931,
      "##的第一": 7932,
      "##表示欢迎": 7933,
      "##气象学": 7934,
      "##时间内": 7935,
      "##目前的": 7936,
      "##组成部分": 7937,
      "##必要性": 7938,
      "##ari": 7939,
      "##专家委员会": 7940,
      "1994年1月1": 7941,
      "##举行的第": 7942,
      "##严重的": 7943,
      "##城市地区": 7944,
      "##取得了": 7945,
      "##用户提供": 7946,
      "##安全理事会": 7947,
      "目前正在": 7948,
      "##静止轨道": 7949,
      "##INTELSAT": 7950,
      "##的最后": 7951,
      "##自然灾害的": 7952,
      "##成象雷达": 7953,
      "##年12月5日": 7954,
      "##恐怖主义暴力": 7955,
      "##她们的": 7956,
      "##广泛的": 7957,
      "有人指出": 7958,
      "##联合国系统各组织": 7959,
      "##南斯拉夫联邦共和国": 7960,
      "##消除种族歧视委员会": 7961,
      "##结束时": 7962,
      "##教育和培训": 7963,
      "##5月6日": 7964,
      "##专题讨论会": 7965,
      "##反映了": 7966,
      "##重点是": 7967,
      "##引起的": 7968,
      "##密切合作": 7969,
      "##阿丽亚娜5号": 7970,
      "代表们": 7971,
      "##地质测量局": 7972,
      "##更好地": 7973,
      "##履行其": 7974,
      "##乡村地区": 7975,
      "##推进剂": 7976,
      "秘书长": 7977,
      "##可行性": 7978,
      "##antis": 7979,
      "##UNSAT": 7980,
      "##家空间遥感中心": 7981,
      "##tlantis": 7982,
      "##宇宙航空研究所": 7983,
      "##高级甚高分辨率辐射计": 7984,
      "##乘员组": 7985,
      "##内加尔": 7986,
      "##瓦巴德": 7987,
      "##取决于": 7988,
      "##特派团": 7989,
      "CO": 7990,
      "CN": 7991,
      "上述": 7992,
      "中国": 7993,
      "从事": 7994,
      "以色列": 7995,
      "光辉道路": 7996,
      "加纳": 7997,
      "南斯拉夫": 7998,
      "即使": 7999,
      "号决定": 8000,
      "国会": 8001,
      "在秘鲁": 8002,
      "地质": 8003,
      "坦桑尼亚联合共和国": 8004,
      "埃及": 8005,
      "婴儿": 8006,
      "并将": 8007,
      "应该": 8008,
      "建议": 8009,
      "我们": 8010,
      "批准": 8011,
      "拥有": 8012,
      "据估计": 8013,
      "支持": 8014,
      "森林": 8015,
      "此种": 8016,
      "注意": 8017,
      "渔业": 8018,
      "热带": 8019,
      "的人": 8020,
      "航宇和航空科学研究所": 8021,
      "艾滋病": 8022,
      "设立": 8023,
      "该卫星": 8024,
      "资料": 8025,
      "迄今": 8026,
      "这两个": 8027,
      "##送入": 8028,
      "##和政府": 8029,
      "##和应用": 8030,
      "##和协调": 8031,
      "##和意见": 8032,
      "##和性别": 8033,
      "##存取": 8034,
      "##器和": 8035,
      "##所述": 8036,
      "##的成": 8037,
      "##的可": 8038,
      "##的人权": 8039,
      "##的开发": 8040,
      "##的两个": 8041,
      "##的立法": 8042,
      "##的航天器": 8043,
      "##的权力": 8044,
      "##效应": 8045,
      "##中等": 8046,
      "##中央": 8047,
      "##地卫星": 8048,
      "##发言": 8049,
      "##发出的": 8050,
      "##了在": 8051,
      "##了4": 8052,
      "##了关于": 8053,
      "##第斯": 8054,
      "##第9": 8055,
      "##第一个": 8056,
      "##独特": 8057,
      "##鉴定": 8058,
      "##在轨": 8059,
      "##在某些": 8060,
      "##很大的": 8061,
      "##多个": 8062,
      "##本国的": 8063,
      "##是与": 8064,
      "##依照": 8065,
      "##平流层": 8066,
      "##为基础": 8067,
      "##36": 8068,
      "##48": 8069,
      "##45": 8070,
      "##其顿": 8071,
      "##者和": 8072,
      "##开除": 8073,
      "##开办": 8074,
      "##共有": 8075,
      "##马克": 8076,
      "##马其顿": 8077,
      "##并在": 8078,
      "##年份": 8079,
      "##RR": 8080,
      "##受理": 8081,
      "##收益": 8082,
      "##权限": 8083,
      "##权主义": 8084,
      "##利时": 8085,
      "##分子": 8086,
      "##分裂": 8087,
      "##拉利昂": 8088,
      "##合法": 8089,
      "##可使": 8090,
      "##离开": 8091,
      "##离乡": 8092,
      "##之下": 8093,
      "##外线": 8094,
      "##最低": 8095,
      "##近地点": 8096,
      "##大于": 8097,
      "##米比亚": 8098,
      "##观点": 8099,
      "##已开始": 8100,
      "##部署": 8101,
      "##经社会": 8102,
      "##高速": 8103,
      "##高层大气": 8104,
      "##疾病": 8105,
      "##当前": 8106,
      "##力资源": 8107,
      "##实地": 8108,
      "##配合": 8109,
      "##言论": 8110,
      "##设法": 8111,
      "##次飞行": 8112,
      "##两次": 8113,
      "##两名": 8114,
      "##授权": 8115,
      "##被判": 8116,
      "##5月21日": 8117,
      "##各地": 8118,
      "##各区域": 8119,
      "##将会": 8120,
      "##AG": 8121,
      "##ro": 8122,
      "##重建": 8123,
      "##重复": 8124,
      "##无人": 8125,
      "##原子": 8126,
      "##指令": 8127,
      "##面前": 8128,
      "##PA": 8129,
      "##eg": 8130,
      "##相信": 8131,
      "##相对于": 8132,
      "##验证": 8133,
      "##看法": 8134,
      "##与委员会": 8135,
      "##传染": 8136,
      "##传递": 8137,
      "##巡逻": 8138,
      "##尽量": 8139,
      "##宪章": 8140,
      "##干维尔": 8141,
      "##核可了": 8142,
      "##打击": 8143,
      "##废除": 8144,
      "##甚至": 8145,
      "##半球": 8146,
      "##式卫星": 8147,
      "##驱逐": 8148,
      "##植物": 8149,
      "##突出": 8150,
      "##移居": 8151,
      "##厘米的": 8152,
      "##适用": 8153,
      "##适宜": 8154,
      "##节省": 8155,
      "##末级": 8156,
      "##恶化": 8157,
      "##避难": 8158,
      "##八届会议": 8159,
      "##八十年代": 8160,
      "##牙利": 8161,
      "##兆赫": 8162,
      "##坦桑尼亚联合共和国": 8163,
      "##替代": 8164,
      "##赤道": 8165,
      "##阻碍": 8166,
      "##姓氏": 8167,
      "##空间飞行": 8168,
      "##空间物体": 8169,
      "##国家药物管制计划": 8170,
      "##1996": 8171,
      "##1991": 8172,
      "##1998年": 8173,
      "##进行中": 8174,
      "##研究的": 8175,
      "##委员会在": 8176,
      "##委员会在其": 8177,
      "##活动中": 8178,
      "##发展的": 8179,
      "##中心和": 8180,
      "##教育水平": 8181,
      "1983年": 8182,
      "##包括在": 8183,
      "##提出的报告": 8184,
      "##社会经济": 8185,
      "##联合国环境": 8186,
      "##联合国空间应用方案": 8187,
      "##主要是": 8188,
      "##这一领域": 8189,
      "##权利和": 8190,
      "##行动方针": 8191,
      "##根据委员会": 8192,
      "##方面的合作": 8193,
      "##方面的资料": 8194,
      "##获得的数据": 8195,
      "##促进持续发展": 8196,
      "##10个": 8197,
      "1977年": 8198,
      "1978年": 8199,
      "##试验舱": 8200,
      "以便使": 8201,
      "##ERC": 8202,
      "以及在": 8203,
      "##表示关注": 8204,
      "##作出贡献": 8205,
      "国家选举": 8206,
      "委员会成员还": 8207,
      "委员会成员要求": 8208,
      "妇女在": 8209,
      "联合国空间应用方案": 8210,
      "##欧空局的": 8211,
      "##培训班的": 8212,
      "空间碎片": 8213,
      "##目前在": 8214,
      "##的一个重要": 8215,
      "##50公里": 8216,
      "##基本上": 8217,
      "##太阳能": 8218,
      "##法院的": 8219,
      "##制定了": 8220,
      "##天文学家": 8221,
      "##家庭暴力": 8222,
      "##电信系统": 8223,
      "这是因为": 8224,
      "##RSC": 8225,
      "##覆盖面": 8226,
      "##出现了": 8227,
      "##模型制作": 8228,
      "##跟踪和": 8229,
      "##种族主义和种族歧视": 8230,
      "##平等的": 8231,
      "成员们还": 8232,
      "##大量的": 8233,
      "##探索者": 8234,
      "##知识和": 8235,
      "尤其是在": 8236,
      "##类似的": 8237,
      "##光学仪器": 8238,
      "##rist": 8239,
      "##激光雷达": 8240,
      "##5月18日": 8241,
      "##议程项目": 8242,
      "通信和": 8243,
      "##感到遗憾的是": 8244,
      "##红外线": 8245,
      "##扫描辐射计": 8246,
      "##地球静止转移": 8247,
      "##卢旺达境内": 8248,
      "##人道主义法": 8249,
      "自然灾害": 8250,
      "##基层组织": 8251,
      "##减灾十年": 8252,
      "##劳工组织": 8253,
      "##ternet": 8254,
      "联合国系统内": 8255,
      "##常设委员会": 8256,
      "##岛火箭发射站": 8257,
      "资料来源": 8258,
      "100": 8259,
      "1号卫星": 8260,
      "51": 8261,
      "61": 8262,
      "72": 8263,
      "84": 8264,
      "80": 8265,
      "ADEOS": 8266,
      "TM": 8267,
      "TRSC": 8268,
      "不论": 8269,
      "专家": 8270,
      "以确定": 8271,
      "传播": 8272,
      "估计": 8273,
      "但在": 8274,
      "公共": 8275,
      "共和国": 8276,
      "减灾": 8277,
      "制定": 8278,
      "原件": 8279,
      "图象": 8280,
      "塞内加尔": 8281,
      "外空": 8282,
      "大不列颠及北爱尔兰联合王国": 8283,
      "它还": 8284,
      "并请": 8285,
      "拉丁美洲": 8286,
      "数字": 8287,
      "斯洛": 8288,
      "旨在": 8289,
      "查明": 8290,
      "泰国": 8291,
      "特立尼达和多巴哥": 8292,
      "理事会": 8293,
      "甚至": 8294,
      "用户": 8295,
      "的妇女": 8296,
      "的执行情况": 8297,
      "研制": 8298,
      "积极": 8299,
      "缺乏": 8300,
      "而在": 8301,
      "而不是": 8302,
      "表明": 8303,
      "这就": 8304,
      "这表明": 8305,
      "选举": 8306,
      "阿拉伯": 8307,
      "阿亚库乔": 8308,
      "除非": 8309,
      "##常见": 8310,
      "##运用": 8311,
      "##和信息": 8312,
      "##和土地": 8313,
      "##和目的": 8314,
      "##和家庭": 8315,
      "##和财产": 8316,
      "##和其它": 8317,
      "##和青少年": 8318,
      "##行走": 8319,
      "##器件": 8320,
      "##所列": 8321,
      "##所涉": 8322,
      "##要比": 8323,
      "##的全": 8324,
      "##的总": 8325,
      "##的系统": 8326,
      "##的计划": 8327,
      "##的服务": 8328,
      "##的这一": 8329,
      "##的措施": 8330,
      "##的了解": 8331,
      "##的调查": 8332,
      "##的状况": 8333,
      "##的司法": 8334,
      "##的事项": 8335,
      "##的科学家": 8336,
      "##的责任": 8337,
      "##的平均": 8338,
      "##的声明": 8339,
      "##的后续": 8340,
      "##有着": 8341,
      "##地和": 8342,
      "##一定": 8343,
      "##一台": 8344,
      "##一部分": 8345,
      "##小行星": 8346,
      "##星期": 8347,
      "##意识": 8348,
      "##在于": 8349,
      "##在下": 8350,
      "##在法庭": 8351,
      "##斯州": 8352,
      "##斯瓦巴德": 8353,
      "##多尔": 8354,
      "##数额": 8355,
      "##民国": 8356,
      "##民间": 8357,
      "##基于": 8358,
      "##组件": 8359,
      "##组合": 8360,
      "##机械": 8361,
      "##生理": 8362,
      "##届会": 8363,
      "##议事": 8364,
      "##强烈": 8365,
      "##为6": 8366,
      "##为非洲": 8367,
      "##31": 8368,
      "##35": 8369,
      "##附近": 8370,
      "##用作": 8371,
      "##入学": 8372,
      "##或其他": 8373,
      "##同委员会": 8374,
      "##马里": 8375,
      "##亚太": 8376,
      "##成效": 8377,
      "##对该": 8378,
      "##解雇": 8379,
      "##受过": 8380,
      "##育婴": 8381,
      "##出售": 8382,
      "##人或": 8383,
      "##分享": 8384,
      "##分钟": 8385,
      "##题为": 8386,
      "##不良": 8387,
      "##不符合": 8388,
      "##不公平": 8389,
      "##不容忍": 8390,
      "##美利坚合众国": 8391,
      "##井离乡": 8392,
      "##下文": 8393,
      "##下去": 8394,
      "##许可": 8395,
      "##之为": 8396,
      "##只能": 8397,
      "##巴尼亚": 8398,
      "##德哥": 8399,
      "##体制": 8400,
      "##完善": 8401,
      "##期内": 8402,
      "##期限": 8403,
      "##起着": 8404,
      "##电磁": 8405,
      "##电离层": 8406,
      "##理会": 8407,
      "##界线": 8408,
      "##都在": 8409,
      "##流星体": 8410,
      "##予以": 8411,
      "##公开": 8412,
      "##检验": 8413,
      "##种种": 8414,
      "##款的": 8415,
      "##安理会": 8416,
      "##2条": 8417,
      "##设有": 8418,
      "##也有": 8419,
      "##也可": 8420,
      "##天的": 8421,
      "##两种": 8422,
      "##说法": 8423,
      "##雇用": 8424,
      "##主办": 8425,
      "##极化": 8426,
      "##乍得": 8427,
      "##各机构": 8428,
      "##各国政府": 8429,
      "##将与": 8430,
      "##Sp": 8431,
      "##ai": 8432,
      "##ay": 8433,
      "##访问": 8434,
      "##业已": 8435,
      "##指标": 8436,
      "##另外": 8437,
      "##PS": 8438,
      "##ul": 8439,
      "##至4": 8440,
      "##ich": 8441,
      "##评论": 8442,
      "##后者": 8443,
      "##看作是": 8444,
      "##热电": 8445,
      "##恒星": 8446,
      "##增大": 8447,
      "##选定": 8448,
      "##西斯": 8449,
      "##渔业": 8450,
      "##赞助": 8451,
      "##赞扬": 8452,
      "##布隆迪": 8453,
      "##布干维尔": 8454,
      "##MS": 8455,
      "##MA": 8456,
      "##MI": 8457,
      "##犯有": 8458,
      "##挑战": 8459,
      "##辩论": 8460,
      "##每日": 8461,
      "##危害": 8462,
      "##互式": 8463,
      "##卡蒂": 8464,
      "##操纵": 8465,
      "##促使": 8466,
      "##吸引": 8467,
      "##直观": 8468,
      "##历史": 8469,
      "##周围": 8470,
      "##节目": 8471,
      "##瓜多尔": 8472,
      "##燃烧": 8473,
      "##UR": 8474,
      "##劳动力": 8475,
      "##易受": 8476,
      "##初期": 8477,
      "##占领": 8478,
      "##占总": 8479,
      "##购买": 8480,
      "##旅费": 8481,
      "##超新星": 8482,
      "##迄今": 8483,
      "##档案": 8484,
      "##简要": 8485,
      "##恰帕": 8486,
      "##搜寻": 8487,
      "##弗拉斯": 8488,
      "##毁林": 8489,
      "##袭击": 8490,
      "##贸易": 8491,
      "##韩民国": 8492,
      "##卫星进行": 8493,
      "1996": 8494,
      "##国家和国际": 8495,
      "##国家空间活动委员会": 8496,
      "##1992": 8497,
      "##进行分析": 8498,
      "##系统在": 8499,
      "##技术合作": 8500,
      "##方案的一部分": 8501,
      "##妇女警察署": 8502,
      "##方面发挥": 8503,
      "##发展基金": 8504,
      "##会议员": 8505,
      "##有关机构": 8506,
      "##利用这些": 8507,
      "##其他国家": 8508,
      "##科学卫星": 8509,
      "##科学研究": 8510,
      "##遥感应用": 8511,
      "##地球上": 8512,
      "1984": 8513,
      "1987": 8514,
      "##歧视性": 8515,
      "##代表出席": 8516,
      "##的一次": 8517,
      "##联合国各组织": 8518,
      "##主要由": 8519,
      "##主要考察": 8520,
      "##开发署": 8521,
      "##采取何种": 8522,
      "##行动纲领": 8523,
      "##能力和": 8524,
      "##灾害管理": 8525,
      "##1982": 8526,
      "##1985年": 8527,
      "##1989年": 8528,
      "##0年代": 8529,
      "##建立的": 8530,
      "1979年": 8531,
      "##援助志愿人员团": 8532,
      "以便为": 8533,
      "##部门的": 8534,
      "##地面部分": 8535,
      "##作出努力": 8536,
      "##和平站": 8537,
      "##增加到": 8538,
      "##他们的": 8539,
      "##是否有": 8540,
      "##的人士": 8541,
      "##时间的": 8542,
      "##外层空间活动": 8543,
      "##减少自然灾害": 8544,
      "因为它": 8545,
      "##已经开始": 8546,
      "##设立的": 8547,
      "##次会议通过的": 8548,
      "000个": 8549,
      "##文件形式": 8550,
      "##造成了": 8551,
      "##天文台": 8552,
      "##审查和": 8553,
      "1994年1月5日": 8554,
      "##强调指出": 8555,
      "##生活在": 8556,
      "##农村妇女": 8557,
      "##海洋与大气层": 8558,
      "##自然资源和环境": 8559,
      "##8月10日": 8560,
      "##国内法": 8561,
      "该代表还": 8562,
      "##气候变化": 8563,
      "##希望了解": 8564,
      "教育和": 8565,
      "##显示出": 8566,
      "##会员国的": 8567,
      "##仍然是": 8568,
      "##恢复对话": 8569,
      "##精确度": 8570,
      "##遥感数据的": 8571,
      "##2月4日": 8572,
      "##通过了下列": 8573,
      "遥感和地理信息系统": 8574,
      "##激光系统": 8575,
      "主要是": 8576,
      "##召开的": 8577,
      "一些成员": 8578,
      "##反映在": 8579,
      "##气象卫星应用": 8580,
      "技术援助志愿人员团": 8581,
      "##年12月10日": 8582,
      "##附件二": 8583,
      "地球观测卫星": 8584,
      "##补救措施": 8585,
      "##2月15日": 8586,
      "##最大限度": 8587,
      "##年10月1日": 8588,
      "在此方面": 8589,
      "自然资源": 8590,
      "##4月13日": 8591,
      "##瑞典航天公司": 8592,
      "##取得的进展": 8593,
      "##土地覆盖物": 8594,
      "##索赔要求": 8595,
      "##试点项目": 8596,
      "##ektr": 8597,
      "##艾滋病毒": 8598,
      "##阿尔及利亚": 8599,
      "按性别分列": 8600,
      "##南部非洲": 8601,
      "##固体燃料": 8602,
      "第8条第6": 8603,
      "##偏远地区": 8604,
      "##联合酋长国": 8605,
      "专题讨论会": 8606,
      "第2851号法令": 8607,
      "##附带利益": 8608,
      "注意到": 8609,
      "##马其顿共和国": 8610,
      "##弗拉斯卡蒂": 8611,
      "##海洋与大气层管理局": 8612,
      "150": 8613,
      "73": 8614,
      "71": 8615,
      "ETS": 8616,
      "NOAA": 8617,
      "一旦": 8618,
      "一位成员": 8619,
      "专门": 8620,
      "中心": 8621,
      "举办": 8622,
      "乡村": 8623,
      "以上": 8624,
      "以确保": 8625,
      "信息": 8626,
      "其次": 8627,
      "其主要": 8628,
      "决定": 8629,
      "分辨率": 8630,
      "判处": 8631,
      "危地马拉": 8632,
      "参与": 8633,
      "可能": 8634,
      "合作": 8635,
      "土地利用": 8636,
      "在本": 8637,
      "基本": 8638,
      "大多数": 8639,
      "学校": 8640,
      "宗教": 8641,
      "实现": 8642,
      "巴布": 8643,
      "希望": 8644,
      "开展": 8645,
      "必要": 8646,
      "恐怖主义": 8647,
      "成员": 8648,
      "扩大": 8649,
      "承认": 8650,
      "担任": 8651,
      "提高": 8652,
      "文化": 8653,
      "新的": 8654,
      "最多": 8655,
      "有效": 8656,
      "服务": 8657,
      "此后": 8658,
      "毛利": 8659,
      "水文": 8660,
      "波斯尼亚": 8661,
      "现有": 8662,
      "电信": 8663,
      "男子": 8664,
      "的规定": 8665,
      "目标": 8666,
      "直径": 8667,
      "科技": 8668,
      "第7": 8669,
      "第一个": 8670,
      "紧急": 8671,
      "美利坚合众国": 8672,
      "考虑": 8673,
      "至于": 8674,
      "警察": 8675,
      "评估": 8676,
      "该中心": 8677,
      "这对": 8678,
      "进一步": 8679,
      "造成": 8680,
      "非政府组织": 8681,
      "##和非": 8682,
      "##和1": 8683,
      "##和卫星": 8684,
      "##和空间": 8685,
      "##和工作": 8686,
      "##和资料": 8687,
      "##和执行": 8688,
      "##和行政": 8689,
      "##和电视": 8690,
      "##和研讨会": 8691,
      "##和津巴布韦": 8692,
      "##储存": 8693,
      "##存储": 8694,
      "##行病": 8695,
      "##内瓦": 8696,
      "##内瑞": 8697,
      "##动议": 8698,
      "##所载": 8699,
      "##所以": 8700,
      "##所做": 8701,
      "##所进行的": 8702,
      "##的分析": 8703,
      "##的目标": 8704,
      "##的政治": 8705,
      "##的条件": 8706,
      "##的现象": 8707,
      "##的研制": 8708,
      "##的说明": 8709,
      "##的个人": 8710,
      "##的地方": 8711,
      "##的认识": 8712,
      "##的合同": 8713,
      "##的兴趣": 8714,
      "##的手段": 8715,
      "##的贡献": 8716,
      "##的危险": 8717,
      "##的进一步资料": 8718,
      "##中学": 8719,
      "##中部": 8720,
      "##中去": 8721,
      "##地表": 8722,
      "##现实": 8723,
      "##了这一": 8724,
      "##第8": 8725,
      "##一条": 8726,
      "##一方": 8727,
      "##确立": 8728,
      "##绕地球": 8729,
      "##性同": 8730,
      "##意外": 8731,
      "##在此": 8732,
      "##斯达": 8733,
      "##很难": 8734,
      "##多年": 8735,
      "##多大": 8736,
      "##多路": 8737,
      "##民用": 8738,
      "##上学": 8739,
      "##上安装": 8740,
      "##是一项": 8741,
      "##依靠": 8742,
      "##依赖": 8743,
      "##得益": 8744,
      "##得出的": 8745,
      "##以确保": 8746,
      "##议院": 8747,
      "##由其": 8748,
      "##报警": 8749,
      "##平衡": 8750,
      "##为此": 8751,
      "##为期": 8752,
      "##64": 8753,
      "##4号": 8754,
      "##加上": 8755,
      "##加剧": 8756,
      "##如果": 8757,
      "##这是": 8758,
      "##灾难": 8759,
      "##对国家": 8760,
      "##VH": 8761,
      "##受教育": 8762,
      "##教授": 8763,
      "##土耳": 8764,
      "##人为": 8765,
      "##分为": 8766,
      "##不安": 8767,
      "##不再": 8768,
      "##不久": 8769,
      "##不愿意": 8770,
      "##它的": 8771,
      "##必不可": 8772,
      "##远地点": 8773,
      "##之以": 8774,
      "##之类": 8775,
      "##间的": 8776,
      "##非正规": 8777,
      "##而采取的": 8778,
      "##最少": 8779,
      "##群岛": 8780,
      "##体积": 8781,
      "##部落": 8782,
      "##等等": 8783,
      "##等方面的": 8784,
      "##层面": 8785,
      "##遥控": 8786,
      "##试图": 8787,
      "##夜间": 8788,
      "##电联": 8789,
      "##接近": 8790,
      "##日常": 8791,
      "##信函": 8792,
      "##局限": 8793,
      "##位素": 8794,
      "##文职": 8795,
      "##建筑": 8796,
      "##26": 8797,
      "##27": 8798,
      "##1条": 8799,
      "##次和": 8800,
      "##次和第": 8801,
      "##次主要考察": 8802,
      "##药品": 8803,
      "##极光": 8804,
      "##极端": 8805,
      "##将为": 8806,
      "##将同": 8807,
      "##将包括": 8808,
      "##将用于": 8809,
      "##将于1996年": 8810,
      "##As": 8811,
      "##Ari": 8812,
      "##Ida": 8813,
      "##mar": 8814,
      "##区分": 8815,
      "##DRS": 8816,
      "##重大的": 8817,
      "##无效": 8818,
      "##置于": 8819,
      "##优势": 8820,
      "##de": 8821,
      "##原先": 8822,
      "##仅仅": 8823,
      "##万维": 8824,
      "##属圭": 8825,
      "##TSAT": 8826,
      "##ev": 8827,
      "##至1994年": 8828,
      "##科文": 8829,
      "##科医生": 8830,
      "##形态": 8831,
      "##ia": 8832,
      "##it": 8833,
      "##尔摩": 8834,
      "##该地区": 8835,
      "##王国政府": 8836,
      "##整体": 8837,
      "##后勤": 8838,
      "##向国会": 8839,
      "##看来": 8840,
      "##与各": 8841,
      "##与欧空局": 8842,
      "##环形": 8843,
      "##探空": 8844,
      "##太空": 8845,
      "##类别": 8846,
      "##装载": 8847,
      "##警官": 8848,
      "##任期": 8849,
      "##普赛": 8850,
      "##从其": 8851,
      "##从前": 8852,
      "##北部": 8853,
      "##母语": 8854,
      "##贩运": 8855,
      "##贩毒": 8856,
      "##照料": 8857,
      "##克共和国": 8858,
      "##co": 8859,
      "##转变": 8860,
      "##转播": 8861,
      "##沿海": 8862,
      "##MOS": 8863,
      "##式发电": 8864,
      "##双语": 8865,
      "##态度": 8866,
      "##寻找": 8867,
      "##林业": 8868,
      "##显著": 8869,
      "##密集": 8870,
      "##东道": 8871,
      "##找到": 8872,
      "##适应": 8873,
      "##X射线": 8874,
      "##黎加": 8875,
      "##汇报": 8876,
      "##九次定期报告": 8877,
      "##九十年代": 8878,
      "##精神": 8879,
      "##爆发": 8880,
      "##借助": 8881,
      "##矿物": 8882,
      "##称之为": 8883,
      "##磁场": 8884,
      "##阿亚库乔": 8885,
      "##频带": 8886,
      "##真正": 8887,
      "##剥夺": 8888,
      "##粮农组织": 8889,
      "##吉普赛": 8890,
      "##毕业": 8891,
      "##弧秒": 8892,
      "##虽然": 8893,
      "##秩序": 8894,
      "##听取": 8895,
      "##抽样": 8896,
      "##摩洛哥": 8897,
      "##季节": 8898,
      "##埔寨": 8899,
      "##国家发展": 8900,
      "##研究组": 8901,
      "##提供资料": 8902,
      "##数据处理": 8903,
      "委员会请": 8904,
      "委员会指出": 8905,
      "委员会第四十六届会议": 8906,
      "##国际组织": 8907,
      "##政府当局": 8908,
      "##科学界": 8909,
      "##遥感项目": 8910,
      "##遥感卫星数据": 8911,
      "##195": 8912,
      "##观测站": 8913,
      "##信息网": 8914,
      "##代表在": 8915,
      "##人权教育": 8916,
      "##注意的是": 8917,
      "##法律和": 8918,
      "##法律规定": 8919,
      "##法律框架": 8920,
      "这些活动": 8921,
      "##重要性": 8922,
      "##措施来": 8923,
      "##1984年": 8924,
      "##1983年": 8925,
      "包括在": 8926,
      "##火箭助推器": 8927,
      "##107": 8928,
      "##特别是": 8929,
      "1994年9月": 8930,
      "##提交给": 8931,
      "##提交的资料": 8932,
      "##土地和": 8933,
      "##土地的": 8934,
      "##全国人口普查": 8935,
      "##的第三个": 8936,
      "##基础上": 8937,
      "##表示赞赏": 8938,
      "##宇宙航行": 8939,
      "##这种情况下": 8940,
      "##作出了": 8941,
      "##发生在": 8942,
      "委员会成员询问": 8943,
      "##的人的": 8944,
      "##ane": 8945,
      "##产生的影响": 8946,
      "##十年来": 8947,
      "##图象的": 8948,
      "##实际上": 8949,
      "##年10月31日": 8950,
      "##各项建议": 8951,
      "##控制中心": 8952,
      "##方法和": 8953,
      "秘鲁的": 8954,
      "##设立一个": 8955,
      "##司法部": 8956,
      "国际电联": 8957,
      "##能够在": 8958,
      "##高级专员": 8959,
      "##世界上": 8960,
      "##工业界": 8961,
      "##小组委员会的": 8962,
      "##举行了": 8963,
      "第15条": 8964,
      "##年11月20日": 8965,
      "##少数民族团体": 8966,
      "##网络的": 8967,
      "##农村和": 8968,
      "##海洋学": 8969,
      "##说明了": 8970,
      "##流动卫星通信": 8971,
      "##物理中心": 8972,
      "##总体计划概念": 8973,
      "##一份报告": 8974,
      "##一份文件": 8975,
      "##收到的报告": 8976,
      "研究人员": 8977,
      "##条约机构": 8978,
      "##紧急情况": 8979,
      "##8月5日": 8980,
      "##扩大到": 8981,
      "##原因是": 8982,
      "从而使": 8983,
      "##母亲俱乐部": 8984,
      "##广播公司": 8985,
      "##药物滥用": 8986,
      "##内容摘要": 8987,
      "##收入的": 8988,
      "##年度报告": 8989,
      "##第三次": 8990,
      "##一般性建议": 8991,
      "##工程师": 8992,
      "##all": 8993,
      "##微波仪": 8994,
      "##安装在": 8995,
      "##结束后": 8996,
      "##年1月11日": 8997,
      "##明显的": 8998,
      "##编写的": 8999,
      "##移动式": 9000,
      "##口头资料": 9001,
      "##DES": 9002,
      "##立即提交报告": 9003,
      "##法国国家空间研究中心": 9004,
      "##结合起来": 9005,
      "大会在": 9006,
      "##拉丁美洲和加勒比": 9007,
      "##所采取的措施": 9008,
      "##2000年": 9009,
      "##正规教育": 9010,
      "##和平利用外层空间委员会及其": 9011,
      "##足够的": 9012,
      "##种类的": 9013,
      "##阿尔巴尼亚": 9014,
      "##国际人权文书": 9015,
      "配偶双方": 9016,
      "##和地球信息系统": 9017,
      "##分光计": 9018,
      "另一方面": 9019,
      "地理信息系统": 9020,
      "##筹办单位": 9021,
      "##营养不良": 9022,
      "背景和目的": 9023,
      "##开放空间": 9024,
      "##放射性同": 9025,
      "##种族主义和种族歧视进行战斗": 9026,
      "##议事规则": 9027,
      "##德哥尔摩": 9028,
      "##恰帕斯州": 9029,
      "##会员国的答复": 9030,
      "##内瑞拉": 9031,
      "##斯达黎加": 9032,
      "##得益于": 9033,
      "##VHRR": 9034,
      "##土耳其": 9035,
      "##Ariane": 9036,
      "##放射性同位素": 9037,
      "76": 9038,
      "74": 9039,
      "77": 9040,
      "85": 9041,
      "98": 9042,
      "Al": 9043,
      "NIS": 9044,
      "SP": 9045,
      "SPOT": 9046,
      "SAC": 9047,
      "US": 9048,
      "VII": 9049,
      "Wi": 9050,
      "下降": 9051,
      "不过": 9052,
      "不得": 9053,
      "具体": 9054,
      "减少": 9055,
      "出生": 9056,
      "分析": 9057,
      "卢旺达": 9058,
      "古巴": 9059,
      "可在": 9060,
      "和法律": 9061,
      "在这": 9062,
      "在国家": 9063,
      "在这些": 9064,
      "在所有": 9065,
      "地区": 9066,
      "地震": 9067,
      "埃塞": 9068,
      "基础": 9069,
      "塞尔维亚": 9070,
      "塞拉利昂": 9071,
      "增加": 9072,
      "安岛火箭发射站": 9073,
      "巴基斯坦": 9074,
      "带有": 9075,
      "强调": 9076,
      "性别": 9077,
      "总的": 9078,
      "所以": 9079,
      "探索": 9080,
      "控制": 9081,
      "某些": 9082,
      "柬埔寨": 9083,
      "欢迎": 9084,
      "此项": 9085,
      "毛里": 9086,
      "民族": 9087,
      "民事": 9088,
      "流离失所": 9089,
      "满足": 9090,
      "现正": 9091,
      "生活": 9092,
      "电子": 9093,
      "皇家空间遥感中心": 9094,
      "禁止": 9095,
      "罗斯": 9096,
      "肯尼亚": 9097,
      "至少": 9098,
      "英文": 9099,
      "荷兰": 9100,
      "议程": 9101,
      "讲座": 9102,
      "评价": 9103,
      "该系统": 9104,
      "该组织": 9105,
      "财政": 9106,
      "还注意到": 9107,
      "这次": 9108,
      "那些": 9109,
      "阿尔": 9110,
      "阿丽亚娜": 9111,
      "黎巴嫩": 9112,
      "##常驻": 9113,
      "##于197": 9114,
      "##和解": 9115,
      "##和V": 9116,
      "##和电": 9117,
      "##和被": 9118,
      "##和将": 9119,
      "##和更": 9120,
      "##和黑": 9121,
      "##和利用": 9122,
      "##和通信": 9123,
      "##和气象": 9124,
      "##和支持": 9125,
      "##和生产": 9126,
      "##和儿童": 9127,
      "##和跟踪": 9128,
      "##和商业": 9129,
      "##和墨西哥": 9130,
      "##行事": 9131,
      "##器的": 9132,
      "##所得": 9133,
      "##所提": 9134,
      "##所提出的": 9135,
      "##所要求的": 9136,
      "##需分配": 9137,
      "##的M": 9138,
      "##的科学": 9139,
      "##的发射": 9140,
      "##的种族歧视": 9141,
      "##的全球": 9142,
      "##的测量": 9143,
      "##的形式": 9144,
      "##的增加": 9145,
      "##的不同": 9146,
      "##的秘鲁": 9147,
      "##的目的": 9148,
      "##的条款": 9149,
      "##的义务": 9150,
      "##的进展": 9151,
      "##的子女": 9152,
      "##的工具": 9153,
      "##的局势": 9154,
      "##的报道": 9155,
      "##的必要性": 9156,
      "##有系统": 9157,
      "##有价值": 9158,
      "##中对": 9159,
      "##中还": 9160,
      "##中占": 9161,
      "##中妇女": 9162,
      "##第四": 9163,
      "##第7": 9164,
      "##第5": 9165,
      "##一天": 9166,
      "##一半": 9167,
      "##一枚": 9168,
      "##确实": 9169,
      "##能在": 9170,
      "##意愿": 9171,
      "##及太平洋": 9172,
      "##在遥感": 9173,
      "##在发展中国家": 9174,
      "##在非洲": 9175,
      "##在1996年": 9176,
      "##俄比亚": 9177,
      "##多斯": 9178,
      "##上文": 9179,
      "##是以": 9180,
      "##是对": 9181,
      "##自身": 9182,
      "##制约": 9183,
      "##水资源": 9184,
      "##十二": 9185,
      "##由一个": 9186,
      "##国防": 9187,
      "##为其": 9188,
      "##39": 9189,
      "##3号": 9190,
      "##3月30日": 9191,
      "##6月3日": 9192,
      "##加压": 9193,
      "##加利亚": 9194,
      "##89": 9195,
      "##或可能": 9196,
      "##这方面的": 9197,
      "##来西亚": 9198,
      "##马孙": 9199,
      "##马达加斯加": 9200,
      "##亚语": 9201,
      "##委托": 9202,
      "##对比": 9203,
      "##对应": 9204,
      "##对待": 9205,
      "##情绪": 9206,
      "##并且": 9207,
      "##年轻": 9208,
      "##H4": 9209,
      "##RA": 9210,
      "##留在": 9211,
      "##人均": 9212,
      "##人力资源": 9213,
      "##产妇": 9214,
      "##利维亚": 9215,
      "##分区域": 9216,
      "##方位": 9217,
      "##合格": 9218,
      "##可供": 9219,
      "##可对": 9220,
      "##可利用": 9221,
      "##可见光": 9222,
      "##离轨": 9223,
      "##统治": 9224,
      "##下次报告": 9225,
      "##那里": 9226,
      "##着重于": 9227,
      "##之二": 9228,
      "##外心理": 9229,
      "##治安": 9230,
      "##间隔": 9231,
      "##法定": 9232,
      "##法属圭": 9233,
      "##几次": 9234,
      "##缓减": 9235,
      "##最新": 9236,
      "##最好": 9237,
      "##泛美": 9238,
      "##已有": 9239,
      "##等方面": 9240,
      "##等离子": 9241,
      "##高质量": 9242,
      "##例如": 9243,
      "##事故": 9244,
      "##日内瓦": 9245,
      "##取消": 9246,
      "##都将": 9247,
      "##公正": 9248,
      "##公园": 9249,
      "##深空": 9250,
      "##种植": 9251,
      "##2月25日": 9252,
      "##物的": 9253,
      "##1至": 9254,
      "##标志": 9255,
      "##次数": 9256,
      "##扩展": 9257,
      "##风速": 9258,
      "##授予": 9259,
      "##论文": 9260,
      "##72": 9261,
      "##57": 9262,
      "##雇主": 9263,
      "##主教": 9264,
      "##主持": 9265,
      "##极轨道": 9266,
      "##极大的": 9267,
      "##各缔约国": 9268,
      "##STS": 9269,
      "##CD": 9270,
      "##衡量": 9271,
      "##ra": 9272,
      "##区的": 9273,
      "##GO": 9274,
      "##重的": 9275,
      "##因此": 9276,
      "##do": 9277,
      "##原址": 9278,
      "##更新": 9279,
      "##承包": 9280,
      "##低收入": 9281,
      "##面的": 9282,
      "##PAS": 9283,
      "##OSAT": 9284,
      "##TER": 9285,
      "##TPE": 9286,
      "##限于": 9287,
      "##ez": 9288,
      "##至1990年": 9289,
      "##岁以下": 9290,
      "##岁以上的": 9291,
      "##形状": 9292,
      "##id": 9293,
      "##尔尼": 9294,
      "##改组": 9295,
      "##该项目": 9296,
      "##后向": 9297,
      "##向发展中国家": 9298,
      "##与美国": 9299,
      "##与男子": 9300,
      "##段的": 9301,
      "##号公约": 9302,
      "##随着": 9303,
      "##特立尼达和多巴哥": 9304,
      "##集体": 9305,
      "##警报": 9306,
      "##警方": 9307,
      "##普里": 9308,
      "##荒漠化": 9309,
      "##总的": 9310,
      "##总值": 9311,
      "##增进": 9312,
      "##仪和": 9313,
      "##救灾": 9314,
      "##舱外": 9315,
      "##照会": 9316,
      "##照相": 9317,
      "##升空": 9318,
      "##核动力": 9319,
      "##派出": 9320,
      "##习惯": 9321,
      "##单独": 9322,
      "##怀孕": 9323,
      "##市政": 9324,
      "##MM": 9325,
      "##切实": 9326,
      "##伦比亚": 9327,
      "##终止": 9328,
      "##染上": 9329,
      "##泰国": 9330,
      "##促销": 9331,
      "##固定的": 9332,
      "##移徙": 9333,
      "##拟定": 9334,
      "##汇集": 9335,
      "##丘亚语": 9336,
      "##亲或": 9337,
      "##精密": 9338,
      "##援引": 9339,
      "##砖头": 9340,
      "##手术": 9341,
      "##异常": 9342,
      "##顺利": 9343,
      "##故障": 9344,
      "##营运": 9345,
      "##延伸": 9346,
      "##拨款": 9347,
      "##旋转": 9348,
      "##敦促": 9349,
      "##搭载": 9350,
      "##徒刑": 9351,
      "##叙利亚": 9352,
      "##欺负": 9353,
      "##演变": 9354,
      "##卖淫": 9355,
      "##木星": 9356,
      "##幅度": 9357,
      "##陆地": 9358,
      "##伐克": 9359,
      "##津贴": 9360,
      "##涡轮": 9361,
      "##丰富": 9362,
      "##绳之以": 9363,
      "##衰减": 9364,
      "##卫星的数据": 9365,
      "##卫星图像": 9366,
      "##空间中心": 9367,
      "##空间环境": 9368,
      "##国家或": 9369,
      "##国家海洋与大气层管理局": 9370,
      "##1990": 9371,
      "##进行的一项": 9372,
      "##研究生": 9373,
      "##研究委员会": 9374,
      "##技术研究所": 9375,
      "##技术学校": 9376,
      "##活动包括": 9377,
      "##妇女组织": 9378,
      "192": 9379,
      "委员会要求": 9380,
      "委员会对于": 9381,
      "委员会再次": 9382,
      "委员会满意地注意到": 9383,
      "##方面所": 9384,
      "##发展组织": 9385,
      "##政府为": 9386,
      "##以及对": 9387,
      "##通过使用": 9388,
      "##地球表面": 9389,
      "##使用了": 9390,
      "##00公斤": 9391,
      "##轨道飞行器": 9392,
      "##计划生育": 9393,
      "##的一系列": 9394,
      "##培训方案": 9395,
      "##联合国保护": 9396,
      "##领域里": 9397,
      "##领域包括": 9398,
      "##区域的": 9399,
      "##开发银行": 9400,
      "##于1993年": 9401,
      "##于1998年": 9402,
      "##行动的": 9403,
      "##1987年": 9404,
      "##中的一个": 9405,
      "##SAR": 9406,
      "##促进和": 9407,
      "##火箭发动机": 9408,
      "1976年": 9409,
      "##欧洲气象卫星应用": 9410,
      "##欧洲遥感卫星数据": 9411,
      "##提交的报告": 9412,
      "他们询问": 9413,
      "##土地所有权": 9414,
      "##大学和": 9415,
      "##大学教育": 9416,
      "##试验性": 9417,
      "##部门和": 9418,
      "##进一步了解": 9419,
      "107": 9420,
      "##年12月30日": 9421,
      "这一点": 9422,
      "##的报告中": 9423,
      "委员会成员指出": 9424,
      "##有关的问题": 9425,
      "##的数据库": 9426,
      "##是否已": 9427,
      "##开展的活动": 9428,
      "##图象处理": 9429,
      "##保健和": 9430,
      "##保健研究所": 9431,
      "空间站": 9432,
      "##已经完成": 9433,
      "##基本权利": 9434,
      "##设计和": 9435,
      "##日本试验舱": 9436,
      "##支助和管理": 9437,
      "##司法机关": 9438,
      "000名": 9439,
      "000公里": 9440,
      "##充分利用": 9441,
      "##现象的": 9442,
      "##研制出": 9443,
      "##第14": 9444,
      "1994财政年": 9445,
      "15岁以上": 9446,
      "##关系的": 9447,
      "##era": 9448,
      "##生产总值": 9449,
      "##辐射仪": 9450,
      "1967年": 9451,
      "##年11月26日": 9452,
      "##年11月2日": 9453,
      "##空间碎片的": 9454,
      "##总体计划工作": 9455,
      "##成为可能": 9456,
      "131": 9457,
      "##材料样品": 9458,
      "##决策机构": 9459,
      "##长期研究金": 9460,
      "##的大约": 9461,
      "##的大型": 9462,
      "##的大多数": 9463,
      "##的大规模": 9464,
      "委员会建议该国政府": 9465,
      "##质量和": 9466,
      "##质量的": 9467,
      "##加拿大空间方案": 9468,
      "##以下监禁": 9469,
      "##就业机会": 9470,
      "##8月15日": 9471,
      "##8月16日": 9472,
      "##科学家们": 9473,
      "该代表说": 9474,
      "该代表指出": 9475,
      "##ora": 9476,
      "##探测器": 9477,
      "263": 9478,
      "##的各项建议": 9479,
      "##的各项规定": 9480,
      "##族裔群体": 9481,
      "##达到了": 9482,
      "##第二级": 9483,
      "##来说是": 9484,
      "##一颗卫星": 9485,
      "##生物学": 9486,
      "##生物圈": 9487,
      "##电子邮件": 9488,
      "##第2款": 9489,
      "##出席了": 9490,
      "所有这些": 9491,
      "##专题成象": 9492,
      "##文盲比率": 9493,
      "##携带的": 9494,
      "计划和方案": 9495,
      "##地球静止轨道": 9496,
      "##热带森林": 9497,
      "##年12月12日": 9498,
      "##及时提交": 9499,
      "##ASS": 9500,
      "##生育率": 9501,
      "##载人飞行": 9502,
      "##就是说": 9503,
      "##1981年的": 9504,
      "##第三十八届会议": 9505,
      "##协商小组": 9506,
      "##OPE": 9507,
      "科学和技术": 9508,
      "##投诉案件": 9509,
      "人权法案": 9510,
      "区域和国际": 9511,
      "非洲经委会": 9512,
      "##与发展会议": 9513,
      "##穆斯林社区": 9514,
      "##上升到": 9515,
      "##一次定期报告中": 9516,
      "##第二次联合国探索及和平利用外层空间会议": 9517,
      "##Internet": 9518,
      "##相应的": 9519,
      "亚洲和太平洋": 9520,
      "##尤其是": 9521,
      "林业局": 9522,
      "##同一文件形式": 9523,
      "##不得不": 9524,
      "##与空间有关的": 9525,
      "##有利于": 9526,
      "调查专员": 9527,
      "##水文学": 9528,
      "##银河系": 9529,
      "研究和开发": 9530,
      "##大西洋海岸": 9531,
      "与此同时": 9532,
      "##哈勃望远镜": 9533,
      "##法语国家": 9534,
      "##野生动物": 9535,
      "南斯拉夫联邦共和国": 9536,
      "##高速碰撞": 9537,
      "##巡逻队": 9538,
      "外空事务厅": 9539,
      "拉丁美洲和加勒比": 9540,
      "##热电式发电": 9541,
      "土地利用和": 9542,
      "必要时": 9543,
      "##多路存取": 9544,
      "##必不可少的": 9545,
      "##万维网": 9546,
      "##宇宙航行联合会": 9547,
      "##德哥尔摩大学": 9548,
      "##放射性同位素热电式发电": 9549,
      "埃塞俄比亚": 9550,
      "议程项目": 9551,
      "##需分配多路存取": 9552,
      "##普里马克": 9553,
      "##涡轮泵": 9554,
      "##绳之以法": 9555,
      "600": 9556,
      "614": 9557,
      "79": 9558,
      "83": 9559,
      "82": 9560,
      "94": 9561,
      "92": 9562,
      "91": 9563,
      "PSLV": 9564,
      "Te": 9565,
      "VI": 9566,
      "Vol": 9567,
      "一直": 9568,
      "三个": 9569,
      "下列": 9570,
      "专业": 9571,
      "两个": 9572,
      "乌克兰": 9573,
      "他解释说": 9574,
      "以期": 9575,
      "以满足": 9576,
      "会员": 9577,
      "借助": 9578,
      "光学": 9579,
      "八十年代": 9580,
      "公民": 9581,
      "出售": 9582,
      "加蓬": 9583,
      "劳工": 9584,
      "协助": 9585,
      "协调": 9586,
      "厄瓜多尔": 9587,
      "发生": 9588,
      "哥斯达黎加": 9589,
      "商业": 9590,
      "固定": 9591,
      "土壤": 9592,
      "在许多": 9593,
      "在这种情况下": 9594,
      "失踪": 9595,
      "奥地利": 9596,
      "安排": 9597,
      "实施": 9598,
      "将在": 9599,
      "已收到的": 9600,
      "帮助": 9601,
      "并指出": 9602,
      "并将其": 9603,
      "当地": 9604,
      "当选": 9605,
      "总共": 9606,
      "我国": 9607,
      "捷克共和国": 9608,
      "是一个": 9609,
      "有源": 9610,
      "本文件": 9611,
      "此类": 9612,
      "法官": 9613,
      "波兰": 9614,
      "测量": 9615,
      "澳大利亚": 9616,
      "生物": 9617,
      "第11": 9618,
      "管理": 9619,
      "肤色": 9620,
      "自从": 9621,
      "该局": 9622,
      "该法令": 9623,
      "该项目的": 9624,
      "质量": 9625,
      "贫困": 9626,
      "运输": 9627,
      "近年来": 9628,
      "这两": 9629,
      "进入": 9630,
      "遥测": 9631,
      "那么": 9632,
      "除此": 9633,
      "雇主": 9634,
      "首先": 9635,
      "##和5": 9636,
      "##和C": 9637,
      "##和遥感": 9638,
      "##和关于": 9639,
      "##和联合国": 9640,
      "##和影响": 9641,
      "##和全球": 9642,
      "##和欧洲": 9643,
      "##和1995年": 9644,
      "##和数字": 9645,
      "##和加强": 9646,
      "##和工业": 9647,
      "##和空间碎片": 9648,
      "##和今后": 9649,
      "##和1992年": 9650,
      "##和软件": 9651,
      "##和日程": 9652,
      "##和专业人员": 9653,
      "##内战": 9654,
      "##所属": 9655,
      "##所需要": 9656,
      "##的有": 9657,
      "##的中": 9658,
      "##的那": 9659,
      "##的三": 9660,
      "##的会议": 9661,
      "##的应用": 9662,
      "##的通信": 9663,
      "##的人员": 9664,
      "##的进一步": 9665,
      "##的社区": 9666,
      "##的范围": 9667,
      "##的支持": 9668,
      "##的协调": 9669,
      "##的新的": 9670,
      "##的物体": 9671,
      "##的地位": 9672,
      "##的讲习班": 9673,
      "##的直接": 9674,
      "##的关切": 9675,
      "##的用户": 9676,
      "##的结构": 9677,
      "##的程度": 9678,
      "##的改进": 9679,
      "##的内容": 9680,
      "##的事件": 9681,
      "##的那些": 9682,
      "##的地面站": 9683,
      "##的比例": 9684,
      "##的犯罪": 9685,
      "##的职能": 9686,
      "##的物质": 9687,
      "##的目标是": 9688,
      "##的数目": 9689,
      "##的姓氏": 9690,
      "##此作为": 9691,
      "##过的": 9692,
      "##中国": 9693,
      "##地下": 9694,
      "##地域": 9695,
      "##地带": 9696,
      "##第20": 9697,
      "##第5条": 9698,
      "##一事": 9699,
      "##星群": 9700,
      "##星团": 9701,
      "##卫六": 9702,
      "##使他们": 9703,
      "##性问题": 9704,
      "##会使": 9705,
      "##会者": 9706,
      "##及应用": 9707,
      "##在教育": 9708,
      "##在联合国": 9709,
      "##在法律": 9710,
      "##在意大利": 9711,
      "##在过去": 9712,
      "##多少": 9713,
      "##基地": 9714,
      "##是该": 9715,
      "##是从": 9716,
      "##是利用": 9717,
      "##是一次": 9718,
      "##是由于": 9719,
      "##是一颗": 9720,
      "##生存": 9721,
      "##生境": 9722,
      "##十字": 9723,
      "##二届会议": 9724,
      "##届和第四十七届会议": 9725,
      "##由H": 9726,
      "##由全国": 9727,
      "##约热": 9728,
      "##约束": 9729,
      "##提议的": 9730,
      "##交互式": 9731,
      "##ob": 9732,
      "##su": 9733,
      "##sk": 9734,
      "##为8": 9735,
      "##为7": 9736,
      "##为每": 9737,
      "##为执行": 9738,
      "##3个": 9739,
      "##3条": 9740,
      "##37": 9741,
      "##3段": 9742,
      "##3月24日": 9743,
      "##6月29日": 9744,
      "##4个": 9745,
      "##4月21日": 9746,
      "##其工作": 9747,
      "##加利": 9748,
      "##入射": 9749,
      "##或在": 9750,
      "##或其": 9751,
      "##或者": 9752,
      "##或种族": 9753,
      "##或监护": 9754,
      "##些时候": 9755,
      "##尼西亚": 9756,
      "##成分": 9757,
      "##成就": 9758,
      "##对宇宙": 9759,
      "##对妇女的": 9760,
      "##并为": 9761,
      "##9号公约": 9762,
      "##年底": 9763,
      "##年青": 9764,
      "##年当中": 9765,
      "##留下": 9766,
      "##学位": 9767,
      "##收音": 9768,
      "##还可": 9769,
      "##出去": 9770,
      "##人对": 9771,
      "##人人": 9772,
      "##利略": 9773,
      "##案子": 9774,
      "##拉圭": 9775,
      "##鲁夫": 9776,
      "##合器件": 9777,
      "##时代": 9778,
      "##导体": 9779,
      "##系数": 9780,
      "##政部": 9781,
      "##背井离乡": 9782,
      "##那时": 9783,
      "##那么": 9784,
      "##着重": 9785,
      "##着手": 9786,
      "##着陆": 9787,
      "##除了": 9788,
      "##空气": 9789,
      "##间通信": 9790,
      "##应在": 9791,
      "##应包括": 9792,
      "##法司": 9793,
      "##而不是": 9794,
      "##而设计的": 9795,
      "##最大的": 9796,
      "##大力": 9797,
      "##毫米": 9798,
      "##米尔": 9799,
      "##已婚": 9800,
      "##等领域的": 9801,
      "##高层": 9802,
      "##高压": 9803,
      "##高风险": 9804,
      "##试飞": 9805,
      "##项下": 9806,
      "##定为": 9807,
      "##定义": 9808,
      "##持久": 9809,
      "##撞击": 9810,
      "##电荷": 9811,
      "##当代": 9812,
      "##理想": 9813,
      "##日冕": 9814,
      "##光亮": 9815,
      "##信道": 9816,
      "##信封": 9817,
      "##都已": 9818,
      "##流入": 9819,
      "##流行病": 9820,
      "##度和": 9821,
      "##安第斯": 9822,
      "##25年": 9823,
      "##2月3日": 9824,
      "##元件": 9825,
      "##元素": 9826,
      "##12年": 9827,
      "##疫苗": 9828,
      "##被选": 9829,
      "##被视为": 9830,
      "##放入": 9831,
      "##放置": 9832,
      "##放弃": 9833,
      "##7段": 9834,
      "##52": 9835,
      "##没收": 9836,
      "##极大": 9837,
      "##各国的": 9838,
      "##各会员国": 9839,
      "##将能": 9840,
      "##将他": 9841,
      "##将来": 9842,
      "##将对": 9843,
      "##将这些": 9844,
      "##将有助于": 9845,
      "##SS": 9846,
      "##COPINE": 9847,
      "##AI": 9848,
      "##ION": 9849,
      "##mos": 9850,
      "##ael": 9851,
      "##to": 9852,
      "##区内": 9853,
      "##专用": 9854,
      "##无源": 9855,
      "##循环": 9856,
      "##审理": 9857,
      "##认真": 9858,
      "##先前": 9859,
      "##指示": 9860,
      "##万美元": 9861,
      "##另一项": 9862,
      "##OV": 9863,
      "##TM": 9864,
      "##ea": 9865,
      "##ec": 9866,
      "##gh": 9867,
      "##ud": 9868,
      "##至10": 9869,
      "##至1995年": 9870,
      "##至11": 9871,
      "##便携": 9872,
      "##临界": 9873,
      "##尔科": 9874,
      "##该报告": 9875,
      "##格式": 9876,
      "##后代": 9877,
      "##向参加者": 9878,
      "##与国家": 9879,
      "##与全国": 9880,
      "##号和": 9881,
      "##索和救援": 9882,
      "##特罗姆塞卫星站": 9883,
      "##判刑": 9884,
      "##前后": 9885,
      "##从法属圭": 9886,
      "##北方": 9887,
      "##住在": 9888,
      "##总部": 9889,
      "##宇航": 9890,
      "##喷发": 9891,
      "##鼓舞": 9892,
      "##消耗": 9893,
      "##未成年": 9894,
      "##想法": 9895,
      "##带来的": 9896,
      "##半导体": 9897,
      "##城乡": 9898,
      "##三次": 9899,
      "##免费": 9900,
      "##福尔": 9901,
      "##福尼亚": 9902,
      "##每一个": 9903,
      "##名义": 9904,
      "##逐步": 9905,
      "##清查": 9906,
      "##清单": 9907,
      "##金融": 9908,
      "##维护": 9909,
      "##吸收": 9910,
      "##引发": 9911,
      "##引用": 9912,
      "##引力": 9913,
      "##直至": 9914,
      "##削减": 9915,
      "##密封": 9916,
      "##库鲁": 9917,
      "##做出": 9918,
      "##途径": 9919,
      "##革命": 9920,
      "##宗旨": 9921,
      "##黎巴嫩": 9922,
      "##汇编": 9923,
      "##印发": 9924,
      "##敌对": 9925,
      "##诺阿": 9926,
      "##九届会议": 9927,
      "##伴侣": 9928,
      "##延长": 9929,
      "##称为": 9930,
      "##较高": 9931,
      "##敦大学": 9932,
      "##频谱": 9933,
      "##绝对": 9934,
      "##捐款": 9935,
      "##压力": 9936,
      "##买加": 9937,
      "##聚集": 9938,
      "##奥地利": 9939,
      "##毁坏": 9940,
      "##妨碍": 9941,
      "##乘坐": 9942,
      "##丧失": 9943,
      "##英语": 9944,
      "##谴责": 9945,
      "##谅解": 9946,
      "##冤情": 9947,
      "##卫星所": 9948,
      "##卫星技术": 9949,
      "##空间望远镜": 9950,
      "##国家航空和": 9951,
      "##进行合作": 9952,
      "##进行培训": 9953,
      "##进行测量": 9954,
      "##进行对话": 9955,
      "##研究方面": 9956,
      "##研究机构": 9957,
      "##研究项目": 9958,
      "##委员会对": 9959,
      "##委员会的工作": 9960,
      "##提供技术": 9961,
      "##方案包括": 9962,
      "##活动和": 9963,
      "##活动委员会": 9964,
      "##妇女参与": 9965,
      "##妇女从事": 9966,
      "195": 9967,
      "委员会1995年": 9968,
      "委员会希望": 9969,
      "##发展方案": 9970,
      "##工作日": 9971,
      "##工作团": 9972,
      "##国际流动卫星组织": 9973,
      "##国际人道主义法": 9974,
      "##国际开发署": 9975,
      "##航天机构": 9976,
      "##问题和": 9977,
      "##有关国家": 9978,
      "##种族群体": 9979,
      "##教育方案": 9980,
      "##地球物理": 9981,
      "##建议缔约国": 9982,
      "##飞行中": 9983,
      "##轨道中": 9984,
      "##计划进行": 9985,
      "##人权委员会的": 9986,
      "##人权文书": 9987,
      "##主要的": 9988,
      "##这一目的": 9989,
      "##经济社会": 9990,
      "##参加经济活动的": 9991,
      "##重要的是": 9992,
      "##部分领土": 9993,
      "##雷达截面": 9994,
      "##灾害的": 9995,
      "##中的妇女": 9996,
      "##获得了": 9997,
      "##一些问题": 9998,
      "##任务是": 9999,
      "##设施进行了": 10000,
      "1979": 10001,
      "根据第": 10002,
      "根据1993年": 10003,
      "1994年6月": 10004,
      "他们指出": 10005,
      "##试验卫星": 10006,
      "##测量飞行任务": 10007,
      "##政策的": 10008,
      "##的第一个": 10009,
      "##可以利用": 10010,
      "##该国的": 10011,
      "##表示遗憾": 10012,
      "##作出反应": 10013,
      "##年12月21日": 10014,
      "国家空间活动委员会": 10015,
      "国家宇空实验室": 10016,
      "##任何其他": 10017,
      "这一方案": 10018,
      "委员会成员欢迎": 10019,
      "##分析表明": 10020,
      "妇女占": 10021,
      "##是否得到": 10022,
      "##调查专员": 10023,
      "##开展了": 10024,
      "##秘鲁人": 10025,
      "##和技术支助": 10026,
      "##保健服务": 10027,
      "##受到限制": 10028,
      "##50个": 10029,
      "##的问题和意见": 10030,
      "##年1月8日": 10031,
      "##系列的": 10032,
      "##及其后": 10033,
      "##日本宇宙航空研究所": 10034,
      "##进行了研究": 10035,
      "##飞行任务的": 10036,
      "##支助的": 10037,
      "国际合作": 10038,
      "国际通信卫星组织": 10039,
      "国际流动卫星组织": 10040,
      "##提高对": 10041,
      "##必要措施": 10042,
      "##高级法院": 10043,
      "##制定总体计划": 10044,
      "##加强国际合作": 10045,
      "##世界气象组织": 10046,
      "##的主要目的是": 10047,
      "##第15": 10048,
      "##第14条": 10049,
      "1994财政年度": 10050,
      "##的权利和": 10051,
      "##3月1日": 10052,
      "151": 10053,
      "146": 10054,
      "145": 10055,
      "##的研究人员": 10056,
      "##电信联盟": 10057,
      "##城市的": 10058,
      "欧洲共同体": 10059,
      "##生活中": 10060,
      "而且还": 10061,
      "##碰撞点": 10062,
      "##接受教育": 10063,
      "缔约国指出": 10064,
      "201": 10065,
      "##的最高": 10066,
      "##卫星通信理事会": 10067,
      "另外还": 10068,
      "##选举权": 10069,
      "##行政管理": 10070,
      "##地方当局": 10071,
      "地球同步": 10072,
      "##自然资源管理": 10073,
      "##儿童权利": 10074,
      "##8月9日": 10075,
      "##境内的": 10076,
      "##传播媒体": 10077,
      "##警察部队": 10078,
      "238": 10079,
      "##年12月4日": 10080,
      "##orr": 10081,
      "##领土完整": 10082,
      "##空间应用专家": 10083,
      "教育部": 10084,
      "教育工作者": 10085,
      "##居住地": 10086,
      "##挪威航天中心": 10087,
      "##发挥着": 10088,
      "##运动的": 10089,
      "参加者一致认为": 10090,
      "##生物医学": 10091,
      "##平均数": 10092,
      "##恐怖主义集团": 10093,
      "##3月7日": 10094,
      "##补充资料": 10095,
      "##产品和服务": 10096,
      "##下降了": 10097,
      "##一般性": 10098,
      "##重大进展": 10099,
      "1993年10月": 10100,
      "培训班的": 10101,
      "##协助下": 10102,
      "和平号": 10103,
      "##和环境监测": 10104,
      "##出席会议": 10105,
      "##专门机构": 10106,
      "##osmos": 10107,
      "##不断增加": 10108,
      "##消除种族歧视": 10109,
      "##5月16日": 10110,
      "通信卫星组织": 10111,
      "##供应商": 10112,
      "##4月6日": 10113,
      "##地球资源卫星数据": 10114,
      "1990年1月5日": 10115,
      "##国家和区域": 10116,
      "##国家和发展中国家": 10117,
      "##1994年12月9日": 10118,
      "司法部": 10119,
      "司法行政": 10120,
      "##制造的": 10121,
      "##各自治": 10122,
      "##各自国家的": 10123,
      "代表团": 10124,
      "##预警系统": 10125,
      "##移民政策": 10126,
      "##公斤的": 10127,
      "##设想的": 10128,
      "1992年1月5日": 10129,
      "##实行的": 10130,
      "##asus": 10131,
      "为此目的": 10132,
      "##巴布亚新几内亚": 10133,
      "##理论物理中心": 10134,
      "种族歧视": 10135,
      "##框架内": 10136,
      "ENDES": 10137,
      "第一批": 10138,
      "航天器": 10139,
      "##在利马大都市": 10140,
      "##首次飞行": 10141,
      "##9月16日": 10142,
      "##赞赏地注意到": 10143,
      "##通信和广播": 10144,
      "该缔约国代表": 10145,
      "农村地区": 10146,
      "##生态系统": 10147,
      "##失踪者": 10148,
      "##伽马射线脉冲": 10149,
      "##武装部队": 10150,
      "##年11月1日": 10151,
      "附件二": 10152,
      "缔约国代表在": 10153,
      "##地球资源卫星图像": 10154,
      "按性别和": 10155,
      "##82号法令": 10156,
      "##不仅仅": 10157,
      "##ill": 10158,
      "##和SPOT": 10159,
      "##第十四": 10160,
      "##实用环境卫星": 10161,
      "##落实情况": 10162,
      "##婴儿死亡率": 10163,
      "过去十年": 10164,
      "##失业率": 10165,
      "土著社区": 10166,
      "##平方公里": 10167,
      "##预期寿命": 10168,
      "##天体物理": 10169,
      "##再生能源": 10170,
      "第四十六": 10171,
      "##至14日": 10172,
      "##三分之一": 10173,
      "##三分之二": 10174,
      "##和十一次定期报告": 10175,
      "##氧化碳": 10176,
      "##数据收集卫星": 10177,
      "##参加经济活动人口": 10178,
      "##遇险船": 10179,
      "##讲座和": 10180,
      "##额外资料": 10181,
      "亚太经社会": 10182,
      "部长会议": 10183,
      "迄今为止": 10184,
      "##被判处": 10185,
      "##AGION": 10186,
      "##egasus": 10187,
      "##避难所": 10188,
      "##Spektr": 10189,
      "##直观判读": 10190,
      "##最大限度地": 10191,
      "巴布亚新几内亚": 10192,
      "科技厅": 10193,
      "##多大程度上": 10194,
      "##marsat": 10195,
      "##科文组织": 10196,
      "##毕业生": 10197,
      "##的第三个十年": 10198,
      "##正规教育的妇女": 10199,
      "##和平利用外层空间委员会及其科学和技术小组委员会": 10200,
      "##种族主义和种族歧视进行战斗的第三个十年": 10201,
      "塞尔维亚和黑": 10202,
      "罗斯基勒": 10203,
      "##有系统地": 10204,
      "会员国": 10205,
      "已收到的会员国的答复": 10206,
      "##约热内": 10207,
      "##收音机": 10208,
      "##人人平等": 10209,
      "##1994年12月9日第49": 10210,
      "塞尔维亚和黑山": 10211,
      "119": 10212,
      "300": 10213,
      "400": 10214,
      "88": 10215,
      "89": 10216,
      "81": 10217,
      "87": 10218,
      "96": 10219,
      "AM": 10220,
      "COPINE": 10221,
      "Gar": 10222,
      "In": 10223,
      "Ko": 10224,
      "Ma": 10225,
      "MAGION": 10226,
      "NASS": 10227,
      "PR": 10228,
      "Ram": 10229,
      "SH": 10230,
      "SA": 10231,
      "SUNSAT": 10232,
      "Ta": 10233,
      "X射线": 10234,
      "de": 10235,
      "一名成员": 10236,
      "一杯牛奶": 10237,
      "不可": 10238,
      "与会者": 10239,
      "丹麦": 10240,
      "事实": 10241,
      "产生": 10242,
      "仇外心理": 10243,
      "以下": 10244,
      "以防止": 10245,
      "伊朗": 10246,
      "传统": 10247,
      "使之": 10248,
      "保障": 10249,
      "修正": 10250,
      "共有": 10251,
      "决策": 10252,
      "制作": 10253,
      "制订": 10254,
      "前南斯拉夫": 10255,
      "努力": 10256,
      "匈牙利": 10257,
      "南部": 10258,
      "即在": 10259,
      "及其": 10260,
      "可将": 10261,
      "可再生能源": 10262,
      "各种": 10263,
      "合成": 10264,
      "哥伦比亚": 10265,
      "喀麦": 10266,
      "在一个": 10267,
      "在198": 10268,
      "地方": 10269,
      "塞浦路斯": 10270,
      "增强": 10271,
      "大学": 10272,
      "大众": 10273,
      "大韩民国": 10274,
      "审查": 10275,
      "宣布": 10276,
      "工程": 10277,
      "巴拿": 10278,
      "布隆迪": 10279,
      "并通过": 10280,
      "并要求": 10281,
      "并确定": 10282,
      "微波": 10283,
      "成为": 10284,
      "截止": 10285,
      "所载": 10286,
[...]
